<unk>	0
<s>	0
</s>	0
<mask>	0
 <cls>	0
0	-1.8341
n	-1.94696
▁c	-1.96225
▁t	-2.02667
1	-3.94746
2	-4.31911
3	-4.38605
5	-4.39489
4	-4.4502
6	-4.6058
8	-4.69843
7	-4.75852
9	-4.88188
.	-5.00902
,	-5.24463
62	-5.3969
67	-5.39953
▁the	-5.41349
65	-5.45457
64	-5.47851
69	-5.48416
72	-5.52539
12	-5.53767
55	-5.54704
63	-5.54896
11	-5.54945
74	-5.557
57	-5.56455
58	-5.5716
68	-5.60157
61	-5.62954
13	-5.63349
59	-5.63493
66	-5.6497
71	-5.67022
56	-5.69367
73	-5.70756
76	-5.73117
53	-5.74591
75	-5.75086
77	-5.77097
'	-5.7878
14	-5.81839
79	-5.82285
52	-5.848
s	-5.8563
60	-5.87772
54	-5.89012
48	-5.9208
51	-5.95416
78	-5.99735
15	-6.01701
70	-6.05218
49	-6.06533
▁a	-6.07785
▁	-6.09113
81	-6.10434
▁to	-6.11589
▁of	-6.15814
▁I	-6.15906
46	-6.16024
43	-6.16854
▁and	-6.16944
45	-6.17085
47	-6.18472
16	-6.22745
44	-6.27257
82	-6.27412
18	-6.30598
17	-6.34679
84	-6.362
83	-6.37492
▁you	-6.4027
19	-6.4052
▁in	-6.44031
41	-6.44865
36	-6.47898
39	-6.4883
42	-6.49529
38	-6.53047
37	-6.53164
86	-6.55612
85	-6.59733
22	-6.60673
34	-6.62851
33	-6.63624
21	-6.67058
24	-6.69405
29	-6.69914
87	-6.71073
35	-6.71154
25	-6.72207
?	-6.73981
▁that	-6.73985
23	-6.74184
28	-6.74277
32	-6.74476
27	-6.75055
31	-6.75722
▁is	-6.77066
▁it	-6.79472
26	-6.80503
88	-6.8078
89	-6.9194
t	-6.95364
▁was	-6.99433
▁.	-7.20315
▁-	-7.25266
▁for	-7.28745
91	-7.30533
▁on	-7.34759
92	-7.37039
-	-7.40445
!	-7.44248
▁he	-7.46179
▁with	-7.49645
▁The	-7.52002
93	-7.53623
▁"	-7.57709
▁have	-7.58834
▁be	-7.62871
94	-7.64526
▁this	-7.65685
▁are	-7.65786
▁me	-7.66407
▁we	-7.69021
▁as	-7.69713
▁not	-7.76401
▁do	-7.77897
▁at	-7.8385
▁,	-7.84921
re	-7.89627
95	-7.90986
m	-7.91746
▁You	-7.92592
▁his	-7.92919
▁It	-7.93157
▁they	-7.94982
▁what	-7.95705
▁know	-7.96549
97	-7.98543
...	-7.99271
▁?	-8.00834
▁can	-8.01102
▁from	-8.05341
▁by	-8.06089
96	-8.07343
▁all	-8.08545
▁one	-8.09373
▁there	-8.09584
▁my	-8.1038
ing	-8.12637
d	-8.12711
▁(	-8.1323
▁He	-8.13492
▁your	-8.13545
▁but	-8.13826
▁so	-8.14163
▁had	-8.14305
99	-8.14433
ed	-8.16771
▁her	-8.18191
▁like	-8.22141
▁up	-8.25928
▁were	-8.26832
▁him	-8.26864
▁And	-8.27118
▁out	-8.28574
98	-8.28814
▁or	-8.28845
▁about	-8.28944
▁she	-8.32096
ll	-8.34243
▁just	-8.40634
▁here	-8.42343
▁no	-8.46505
▁What	-8.47624
▁get	-8.48412
▁go	-8.48562
▁would	-8.49911
▁if	-8.51703
▁see	-8.52019
ve	-8.52455
"	-8.54465
)	-8.54515
:	-8.55323
▁will	-8.55625
▁them	-8.56763
;	-8.59176
▁which	-8.6026
▁has	-8.61377
▁who	-8.61849
▁right	-8.61871
▁don	-8.62161
▁think	-8.65554
▁said	-8.66109
▁when	-8.66961
▁A	-8.67038
▁We	-8.67623
▁did	-8.68958
▁So	-8.7006
▁=	-8.70182
▁No	-8.70494
▁time	-8.71147
▁got	-8.7255
ly	-8.73148
▁But	-8.73238
▁been	-8.73619
▁now	-8.74884
e	-8.75785
▁their	-8.78741
o	-8.80539
▁want	-8.81261
▁some	-8.82925
▁more	-8.82935
▁going	-8.84182
▁Oh	-8.8428
▁Yeah	-8.8467
y	-8.84875
101	-8.85495
▁people	-8.86116
▁could	-8.8716
▁That	-8.87534
er	-8.8797
a	-8.88529
▁very	-8.92491
▁back	-8.9483
▁over	-8.96091
▁two	-8.96316
▁'	-8.97245
▁good	-9.00911
▁They	-9.01037
▁other	-9.01552
▁first	-9.0234
▁This	-9.0244
▁into	-9.02642
▁where	-9.05222
▁i	-9.06268
▁come	-9.06704
▁down	-9.06935
▁She	-9.0697
▁also	-9.07985
▁take	-9.0815
▁Well	-9.08291
▁how	-9.09303
▁well	-9.10451
▁say	-9.10973
▁only	-9.14431
▁way	-9.14656
102	-9.14679
▁little	-9.15088
▁us	-9.16285
▁our	-9.19488
▁because	-9.21147
▁man	-9.243
▁make	-9.25507
I	-9.27473
▁`	-9.27578
▁any	-9.28099
103	-9.28198
▁really	-9.28888
."	-9.29105
▁than	-9.29469
▁There	-9.32393
▁look	-9.32452
▁these	-9.32749
▁[	-9.33171
▁should	-9.33702
i	-9.35071
--	-9.36088
▁much	-9.36456
▁off	-9.37078
▁after	-9.37583
▁something	-9.38297
▁too	-9.38657
▁let	-9.38997
▁gonna	-9.40827
▁Yes	-9.40882
es	-9.41041
]	-9.42376
104	-9.42551
▁made	-9.43304
▁put	-9.4345
`	-9.4402
al	-9.46734
S	-9.47581
▁''	-9.48326
▁If	-9.48765
▁mean	-9.4886
r	-9.49039
▁before	-9.4935
▁need	-9.50145
▁never	-9.5087
▁again	-9.51836
▁work	-9.53079
▁its	-9.54087
▁day	-9.55482
▁tell	-9.55838
107	-9.55922
▁many	-9.56208
▁Do	-9.56883
105	-9.57501
▁life	-9.57545
▁er	-9.57951
▁years	-9.585
▁okay	-9.58551
▁give	-9.59072
th	-9.60365
▁!	-9.60625
109	-9.62478
▁even	-9.6252
▁still	-9.62592
▁those	-9.62664
106	-9.63448
▁thing	-9.63451
108	-9.63772
▁things	-9.63785
▁How	-9.65094
▁three	-9.65317
▁am	-9.65362
▁long	-9.65771
▁went	-9.66313
▁away	-9.67264
▁thought	-9.67361
▁through	-9.67652
▁yeah	-9.68079
▁came	-9.68344
▁new	-9.68647
▁used	-9.6876
▁called	-9.69034
▁most	-9.69371
▁must	-9.70712
▁does	-9.70822
▁doing	-9.7103
l	-9.71601
▁last	-9.72474
▁oh	-9.7307
▁home	-9.73982
▁being	-9.7449
c	-9.75144
▁Now	-9.75483
▁great	-9.75528
▁such	-9.77611
".	-9.77734
▁why	-9.78384
▁Why	-9.78435
▁may	-9.78507
to	-9.78658
▁old	-9.79275
▁love	-9.79497
▁name	-9.80231
▁same	-9.80272
▁All	-9.80603
▁When	-9.81094
▁part	-9.81214
amp	-9.81857
▁find	-9.83812
▁won	-9.85402
▁place	-9.86958
u	-9.88386
▁night	-9.88788
▁Let	-9.89649
▁Come	-9.90469
▁didn	-9.90628
▁Mr	-9.90875
▁found	-9.91133
▁world	-9.9145
▁might	-9.91632
▁S	-9.92101
▁around	-9.92384
h	-9.92557
▁own	-9.92933
▁another	-9.94016
or	-9.95312
▁lot	-9.95613
▁always	-9.95619
▁My	-9.96074
▁Okay	-9.96743
▁help	-9.97066
",	-9.98495
▁left	-9.98843
▁use	-9.98883
A	-9.99302
ers	-9.99442
in	-9.99666
▁better	-9.99695
▁money	-9.99734
▁under	-10.0003
▁Hey	-10.0018
▁anything	-10.0022
▁United	-10.005
▁show	-10.0061
▁C	-10.0125
▁house	-10.0269
▁kind	-10.0296
▁sure	-10.0345
▁done	-10.0394
▁between	-10.0426
▁year	-10.0462
▁every	-10.0495
▁As	-10.062
▁E	-10.0621
▁told	-10.0663
g	-10.0665
).	-10.0687
▁different	-10.0723
▁big	-10.0755
▁uh	-10.0764
▁erm	-10.0777
▁while	-10.0803
▁Don	-10.0839
▁For	-10.0869
▁God	-10.089
▁ever	-10.0914
▁P	-10.0923
,"	-10.0942
man	-10.0948
),	-10.0995
The	-10.1151
▁end	-10.1162
▁talk	-10.1181
▁took	-10.1253
▁course	-10.1254
▁States	-10.1263
▁water	-10.14
▁;	-10.1406
k	-10.1444
le	-10.1472
▁next	-10.1576
▁At	-10.1651
▁B	-10.1666
▁both	-10.1704
de	-10.1731
▁nothing	-10.1753
▁head	-10.1765
▁Is	-10.1777
▁city	-10.1806
C	-10.1817
ie	-10.1837
▁New	-10.1854
▁--	-10.1878
▁saw	-10.1956
▁best	-10.1967
▁until	-10.1977
▁re	-10.1986
▁each	-10.2021
▁de	-10.2022
▁call	-10.2035
▁number	-10.2054
▁Where	-10.2084
▁To	-10.2124
▁keep	-10.2162
▁actually	-10.221
▁second	-10.2237
▁four	-10.2271
▁father	-10.2326
▁later	-10.2327
▁play	-10.2369
▁Go	-10.2426
▁Are	-10.2521
▁Just	-10.2554
▁hand	-10.2557
▁school	-10.2558
▁T	-10.2581
B	-10.2607
▁once	-10.2685
▁mother	-10.2768
▁19	-10.2769
▁yes	-10.2781
▁wanted	-10.282
▁against	-10.2861
▁Who	-10.2896
▁_	-10.2919
▁family	-10.3004
T	-10.3049
▁enough	-10.3076
▁bit	-10.3088
p	-10.3088
▁One	-10.3111
▁On	-10.3151
▁became	-10.3169
ry	-10.32
▁together	-10.3241
the	-10.3278
▁O	-10.3303
▁everything	-10.3339
▁feel	-10.3344
▁else	-10.3357
▁G	-10.3383
▁Not	-10.3387
▁since	-10.341
▁side	-10.3419
▁without	-10.3427
▁says	-10.3443
▁American	-10.3464
▁believe	-10.3469
▁His	-10.3517
▁quite	-10.3521
at	-10.3535
▁car	-10.3584
ity	-10.3607
▁girl	-10.3609
▁few	-10.3648
▁R	-10.3659
▁sorry	-10.3659
able	-10.3678
▁U	-10.372
▁died	-10.3763
▁live	-10.3778
▁Thank	-10.3782
ation	-10.3819
ic	-10.3828
▁set	-10.385
▁looking	-10.3874
▁D	-10.3901
▁five	-10.3919
▁coming	-10.3921
▁point	-10.3935
▁during	-10.3951
▁leave	-10.3971
▁Good	-10.4013
▁whole	-10.4021
▁Right	-10.4043
▁though	-10.4048
ro	-10.4068
▁happened	-10.4094
▁room	-10.4115
▁Can	-10.4131
▁un	-10.4213
▁small	-10.422
▁today	-10.4226
▁face	-10.4238
▁far	-10.4238
▁sir	-10.4251
▁K	-10.4268
▁please	-10.4278
▁children	-10.4296
▁Did	-10.4311
▁...	-10.439
▁Uh	-10.4397
ar	-10.4418
▁days	-10.443
▁getting	-10.4436
▁John	-10.4451
▁Look	-10.4459
b	-10.4502
▁asked	-10.451
▁heard	-10.4565
▁himself	-10.458
▁times	-10.461
▁nice	-10.4639
▁book	-10.4662
▁hear	-10.4668
▁woman	-10.4689
▁mind	-10.4702
ra	-10.4705
▁morning	-10.473
M	-10.4767
▁person	-10.4768
▁eyes	-10.4805
▁gave	-10.4915
▁F	-10.4932
▁yet	-10.4945
▁country	-10.4954
us	-10.4963
▁M	-10.4967
▁remember	-10.4984
_	-10.5021
▁hard	-10.5025
▁having	-10.5027
P	-10.5031
▁real	-10.5034
▁care	-10.5042
▁bad	-10.5052
▁important	-10.5056
▁stop	-10.5076
▁state	-10.5118
▁boy	-10.5124
▁Mm	-10.5137
▁already	-10.5147
▁understand	-10.5195
▁doesn	-10.5205
▁high	-10.5217
▁s	-10.5222
▁knew	-10.5239
la	-10.5249
te	-10.5273
?"	-10.5303
▁upon	-10.5342
▁e	-10.5347
gt	-10.5356
▁wrong	-10.5362
▁After	-10.5381
▁young	-10.5389
▁saying	-10.5404
▁Your	-10.542
▁start	-10.5429
▁half	-10.5445
▁case	-10.5466
▁game	-10.5487
▁ask	-10.5517
▁born	-10.5525
ion	-10.5569
▁dead	-10.5624
▁town	-10.5629
▁death	-10.5634
▁talking	-10.5648
▁began	-10.5663
ch	-10.5678
and	-10.5687
▁sort	-10.5691
▁guy	-10.5692
ri	-10.571
st	-10.5714
▁means	-10.5728
ur	-10.5749
▁shall	-10.5779
▁Here	-10.581
▁Me	-10.5814
▁trying	-10.5881
▁Get	-10.5881
▁started	-10.5892
▁heart	-10.5914
▁open	-10.5981
it	-10.6015
▁light	-10.6021
▁often	-10.6031
▁run	-10.6037
▁friend	-10.6055
D	-10.6056
▁music	-10.6083
▁idea	-10.6126
▁round	-10.6131
▁line	-10.6141
▁L	-10.6145
▁war	-10.6149
▁job	-10.6224
▁eat	-10.6227
▁gone	-10.6234
▁wife	-10.6252
▁word	-10.6266
▁door	-10.6296
▁try	-10.6298
▁team	-10.6321
N	-10.635
▁wanna	-10.6355
▁change	-10.6382
ine	-10.6397
z	-10.6433
ul	-10.6443
co	-10.6466
▁W	-10.6502
▁matter	-10.6527
▁soon	-10.6544
G	-10.6546
▁pretty	-10.6585
▁played	-10.6598
f	-10.6607
el	-10.6634
▁Because	-10.6675
F	-10.6681
▁goes	-10.673
▁turn	-10.6739
▁story	-10.6787
▁able	-10.6794
▁six	-10.6821
up	-10.6873
est	-10.6881
▁problem	-10.6919
▁wait	-10.692
▁along	-10.6928
▁fact	-10.6932
▁N	-10.6952
▁power	-10.6953
▁women	-10.6961
▁stay	-10.6962
ha	-10.6982
▁St	-10.7025
▁King	-10.7031
▁area	-10.7032
▁someone	-10.7055
▁Ha	-10.7056
▁moment	-10.7056
▁lost	-10.7085
▁read	-10.7139
▁May	-10.7151
se	-10.7161
▁making	-10.7171
▁Co	-10.7196
▁order	-10.7214
▁probably	-10.726
ness	-10.7303
▁full	-10.7318
!"	-10.7319
ist	-10.7345
▁fine	-10.7346
E	-10.7351
▁yourself	-10.742
x	-10.7422
▁looked	-10.7432
▁true	-10.7432
ling	-10.7443
R	-10.7457
▁English	-10.7457
am	-10.7481
▁Mo	-10.7489
▁comes	-10.7505
one	-10.7509
▁guys	-10.7566
▁bring	-10.759
▁become	-10.761
ta	-10.762
ate	-10.7655
▁ago	-10.7663
▁ready	-10.7674
▁working	-10.7683
▁almost	-10.7696
▁baby	-10.7697
▁body	-10.7702
▁maybe	-10.7729
▁Or	-10.7751
▁pay	-10.7817
▁rest	-10.7836
▁move	-10.785
▁University	-10.7863
▁France	-10.7888
▁hands	-10.793
▁These	-10.7975
do	-10.799
lt	-10.7992
▁Please	-10.8004
ia	-10.8007
▁kill	-10.8012
▁group	-10.8019
ow	-10.8054
▁early	-10.8058
da	-10.8118
w	-10.8122
li	-10.814
▁Mrs	-10.8148
▁week	-10.8157
▁movie	-10.8163
▁p	-10.8169
ty	-10.817
▁late	-10.8171
▁Some	-10.8177
▁large	-10.8198
▁myself	-10.8306
ism	-10.8315
be	-10.8326
▁brought	-10.8336
ted	-10.8358
▁Have	-10.837
▁released	-10.8388
▁child	-10.8418
L	-10.843
▁least	-10.8433
K	-10.8457
▁business	-10.8462
▁stuff	-10.8463
▁less	-10.8479
▁friends	-10.8494
▁age	-10.8509
▁killed	-10.8533
ge	-10.8538
▁War	-10.8548
is	-10.8562
ent	-10.8573
▁system	-10.8574
▁brother	-10.8574
▁Ah	-10.8578
▁daughter	-10.8579
▁land	-10.8581
▁fire	-10.8594
▁Hi	-10.8615
▁January	-10.8634
▁South	-10.865
▁County	-10.8665
▁hope	-10.8669
▁words	-10.8675
▁white	-10.8678
▁question	-10.8691
▁station	-10.87
ive	-10.873
▁government	-10.8731
▁million	-10.8736
▁example	-10.8772
▁behind	-10.8791
go	-10.8811
▁air	-10.884
▁happy	-10.8854
ga	-10.8859
▁thank	-10.8871
O	-10.8872
▁THE	-10.8877
ce	-10.8879
▁company	-10.8881
▁sea	-10.8884
ment	-10.8889
▁York	-10.8897
▁bed	-10.8934
il	-10.8948
▁H	-10.8953
▁short	-10.8958
ter	-10.8991
▁near	-10.9024
▁rather	-10.9031
▁several	-10.9037
▁married	-10.9086
▁taking	-10.9104
lo	-10.9116
▁close	-10.9148
ye	-10.9152
born	-10.9164
▁front	-10.9169
▁top	-10.9223
▁either	-10.9229
▁hold	-10.9253
▁alone	-10.9256
▁black	-10.9262
son	-10.9264
▁food	-10.9285
▁makes	-10.9307
▁guess	-10.9319
W	-10.9351
▁J	-10.9384
ies	-10.9389
▁red	-10.9394
▁turned	-10.9394
▁Hello	-10.943
▁World	-10.9452
ard	-10.9497
▁series	-10.9531
You	-10.9541
▁song	-10.9543
▁March	-10.9577
▁Re	-10.9582
▁party	-10.9589
ti	-10.9598
▁living	-10.9611
less	-10.9647
em	-10.9659
▁reason	-10.967
▁meet	-10.9677
▁thinking	-10.9698
▁free	-10.9703
▁past	-10.9709
▁With	-10.9718
ma	-10.9734
ting	-10.9744
▁Of	-10.9759
▁British	-10.9762
▁Her	-10.9765
▁beautiful	-10.9796
▁sent	-10.9804
ous	-10.981
age	-10.9827
▁human	-10.988
as	-10.9884
▁sometimes	-10.9899
um	-10.992
▁sleep	-10.9921
▁form	-10.9946
▁others	-10.9948
▁looks	-10.9976
▁North	-10.998
▁Al	-11
▁main	-11.0004
et	-11.0034
H	-11.0039
▁sit	-11.0041
▁Dr	-11.0062
▁La	-11.0074
▁history	-11.008
▁De	-11.0093
▁within	-11.01
▁named	-11.0103
▁fight	-11.0119
▁happen	-11.013
▁held	-11.0177
▁Be	-11.0212
all	-11.0221
land	-11.0223
▁l	-11.0293
▁President	-11.0312
▁third	-11.0319
▁America	-11.0319
V	-11.0323
▁minute	-11.0358
▁hit	-11.041
▁built	-11.0423
▁usually	-11.0424
▁inside	-11.0442
▁ship	-11.047
U	-11.0473
dy	-11.0485
▁buy	-11.0489
▁outside	-11.0493
▁single	-11.0514
▁French	-11.0517
▁film	-11.0553
▁September	-11.0568
▁wants	-11.0572
▁dear	-11.0577
rs	-11.0591
▁population	-11.0592
▁watch	-11.0593
▁deal	-11.0605
▁across	-11.0613
▁hair	-11.0636
▁July	-11.0658
▁poor	-11.068
▁possible	-11.072
▁o	-11.0735
▁months	-11.0742
ad	-11.0756
▁minutes	-11.0769
▁playing	-11.0771
▁National	-11.0778
▁season	-11.0782
▁met	-11.0813
ci	-11.0824
▁stand	-11.0845
▁local	-11.0861
ca	-11.0863
▁gotta	-11.0864
▁Man	-11.0888
▁using	-11.0923
▁including	-11.0928
▁Maybe	-11.093
he	-11.0934
▁building	-11.0953
▁mine	-11.0958
▁Sir	-11.097
▁London	-11.1013
▁per	-11.1016
▁public	-11.1023
ir	-11.103
▁Like	-11.1053
▁voice	-11.1084
▁huh	-11.1119
▁king	-11.114
▁June	-11.1167
▁law	-11.1171
▁clear	-11.1193
▁August	-11.12
mo	-11.1206
▁cut	-11.1207
ley	-11.1212
▁England	-11.1212
▁band	-11.1214
ey	-11.1217
▁couple	-11.1221
▁lived	-11.1246
▁blood	-11.1251
▁By	-11.1253
▁drink	-11.1255
▁tried	-11.1258
ful	-11.1263
▁However	-11.1273
▁office	-11.1277
▁following	-11.1288
ru	-11.129
▁felt	-11.1314
▁sense	-11.1314
▁written	-11.1315
▁present	-11.1338
▁album	-11.134
▁die	-11.1367
▁special	-11.1397
▁Take	-11.1398
ated	-11.1408
▁answer	-11.143
▁anyone	-11.1438
op	-11.1474
▁common	-11.1497
▁April	-11.15
▁Na	-11.1512
les	-11.1527
▁wish	-11.1529
▁husband	-11.1541
What	-11.1546
ki	-11.1553
ING	-11.1554
ap	-11.1556
ant	-11.1567
▁seven	-11.1569
▁north	-11.1577
▁certain	-11.1581
▁See	-11.1585
▁Ba	-11.1626
▁chance	-11.1638
▁sound	-11.1639
▁fun	-11.1654
▁walk	-11.1677
▁language	-11.1695
by	-11.1698
▁V	-11.1709
▁member	-11.1739
▁worked	-11.1752
▁From	-11.1753
▁October	-11.1767
▁hell	-11.1773
▁ten	-11.1776
▁Ka	-11.1776
▁hundred	-11.178
▁Sa	-11.18
▁cannot	-11.1824
▁City	-11.1831
ah	-11.1839
▁hours	-11.1865
▁whether	-11.1866
▁everyone	-11.1866
sa	-11.1869
huh	-11.187
▁century	-11.1883
▁German	-11.1895
▁December	-11.1896
▁based	-11.19
▁phone	-11.1914
▁till	-11.1934
▁speak	-11.1948
▁police	-11.1966
▁wrote	-11.1975
▁gets	-11.1984
▁seems	-11.1991
▁write	-11.1996
▁service	-11.1996
▁easy	-11.2003
▁November	-11.2004
▁tomorrow	-11.2013
▁information	-11.2032
▁road	-11.2034
▁works	-11.2052
ary	-11.2058
ba	-11.2076
▁however	-11.2084
ance	-11.2128
▁break	-11.2128
▁dad	-11.2151
di	-11.2165
▁commune	-11.2181
▁Peter	-11.2181
▁list	-11.2184
om	-11.2193
▁members	-11.2202
▁Miss	-11.221
▁West	-11.2223
▁boys	-11.2225
▁ground	-11.2235
▁worry	-11.2259
▁fell	-11.2268
me	-11.2269
▁lives	-11.2269
bo	-11.2276
▁feet	-11.2278
ig	-11.2283
▁Bo	-11.2313
▁changed	-11.2319
▁dog	-11.2329
▁twenty	-11.2329
▁February	-11.2345
▁news	-11.235
▁James	-11.2367
▁general	-11.2374
▁among	-11.2397
▁OK	-11.2407
▁moved	-11.2417
▁George	-11.2421
▁hour	-11.2423
▁Er	-11.2425
▁Wait	-11.2453
▁career	-11.2458
▁exactly	-11.2458
▁listen	-11.2468
▁paper	-11.249
▁Thanks	-11.2496
▁longer	-11.2511
▁alright	-11.2534
▁support	-11.2552
▁supposed	-11.2575
ish	-11.2626
▁control	-11.2639
▁former	-11.264
▁themselves	-11.265
we	-11.2712
▁space	-11.2717
▁lady	-11.2729
id	-11.274
▁drive	-11.2753
Y	-11.2756
▁send	-11.2762
▁ones	-11.2773
gu	-11.2786
ja	-11.2791
bi	-11.2799
im	-11.2803
▁check	-11.2803
▁pick	-11.2816
▁eight	-11.2823
▁trouble	-11.2835
pe	-11.2844
▁Mi	-11.2849
ka	-11.2857
▁afraid	-11.2886
▁truth	-11.2886
▁ran	-11.2887
▁strong	-11.2891
▁shot	-11.2902
▁hot	-11.2906
oo	-11.2912
▁region	-11.2916
▁hurt	-11.2918
▁Mar	-11.2919
▁perhaps	-11.2935
▁knows	-11.2946
▁ex	-11.2962
▁dis	-11.2966
▁blue	-11.2975
▁picture	-11.2986
ya	-11.2989
▁pre	-11.2992
▁Ra	-11.2999
▁Ta	-11.3015
▁sister	-11.3026
▁Will	-11.3034
▁national	-11.3042
▁fast	-11.3042
▁letter	-11.307
▁television	-11.3087
▁kept	-11.3087
▁department	-11.3087
vi	-11.3089
▁YOU	-11.3111
▁video	-11.3116
▁ball	-11.3145
▁received	-11.3145
▁dark	-11.316
ut	-11.3166
▁cried	-11.3174
▁running	-11.3179
▁India	-11.3184
ac	-11.3189
▁seemed	-11.3189
▁fall	-11.3211
▁kids	-11.3243
▁court	-11.3267
▁lay	-11.3269
▁Le	-11.327
▁Great	-11.3273
▁due	-11.3282
▁Li	-11.3291
▁needs	-11.3305
▁Ro	-11.3322
▁art	-11.333
▁tonight	-11.3333
▁above	-11.3342
▁type	-11.3342
▁doctor	-11.3373
j	-11.338
▁Ho	-11.3422
▁level	-11.3425
ee	-11.3434
▁Even	-11.3447
▁Sorry	-11.3452
▁whatever	-11.347
▁village	-11.3481
▁instead	-11.3487
▁Se	-11.3515
▁ma	-11.3555
pa	-11.3566
▁gold	-11.3595
▁include	-11.3616
▁low	-11.3619
▁People	-11.3622
ver	-11.3626
ial	-11.3628
▁waiting	-11.3635
▁Erm	-11.3639
ze	-11.3642
▁throw	-11.3652
▁itself	-11.3666
ip	-11.3667
▁Tell	-11.3671
ho	-11.3674
▁draw	-11.3681
▁class	-11.3687
No	-11.3688
▁State	-11.369
▁tree	-11.3703
▁cold	-11.3704
▁position	-11.3708
ian	-11.3716
▁countries	-11.3724
▁piece	-11.3725
per	-11.3733
▁bar	-11.3741
▁horse	-11.3748
tion	-11.375
▁somebody	-11.375
out	-11.3751
▁return	-11.3768
▁created	-11.377
ak	-11.3786
▁House	-11.3794
os	-11.3807
▁Stop	-11.3808
▁shit	-11.3815
hi	-11.3835
▁Lord	-11.384
▁everybody	-11.3846
▁player	-11.3848
▁period	-11.3853
ff	-11.3864
time	-11.3885
▁Give	-11.3893
▁major	-11.3925
ub	-11.394
gi	-11.3944
▁spoke	-11.3945
▁seem	-11.3956
▁fucking	-11.3981
▁box	-11.4005
▁evening	-11.4005
▁d	-11.4006
▁Captain	-11.4006
led	-11.4036
ger	-11.4036
ence	-11.4044
ke	-11.4078
za	-11.4084
ina	-11.4089
tic	-11.4095
▁plan	-11.4108
▁famous	-11.4114
▁um	-11.4135
▁books	-11.415
▁District	-11.4167
▁Two	-11.4168
▁learn	-11.4169
▁girls	-11.4177
lu	-11.4182
▁green	-11.4187
▁nine	-11.4203
▁Japan	-11.4212
▁sat	-11.4214
▁decided	-11.4222
v	-11.4226
▁feeling	-11.4228
▁Su	-11.4229
▁stood	-11.4248
▁football	-11.4255
▁Ga	-11.4266
▁social	-11.4268
▁weeks	-11.4274
▁pro	-11.4283
▁served	-11.4288
▁eye	-11.429
sh	-11.4302
▁role	-11.4311
▁match	-11.4314
▁Ma	-11.4327
▁f	-11.4332
▁takes	-11.436
▁forget	-11.4369
It	-11.437
▁popular	-11.4386
▁Australia	-11.4387
▁passed	-11.4389
▁future	-11.4395
▁]	-11.4409
ally	-11.4431
▁kid	-11.4432
▁anyway	-11.4436
▁funny	-11.4442
▁led	-11.4469
▁fish	-11.4502
▁Michael	-11.4508
▁further	-11.4516
▁telling	-11.4527
▁save	-11.453
▁Vi	-11.4532
▁David	-11.4535
▁g	-11.4562
▁capital	-11.4573
▁thousand	-11.4582
fi	-11.4584
▁attack	-11.4585
▁Dad	-11.4608
▁sun	-11.4609
ol	-11.4615
▁School	-11.462
▁games	-11.4621
▁final	-11.4622
▁given	-11.4641
▁problems	-11.4644
line	-11.465
day	-11.4667
▁win	-11.4677
▁floor	-11.4688
▁la	-11.4689
ake	-11.4705
▁herself	-11.4706
▁returned	-11.4718
▁figure	-11.4722
ons	-11.4728
▁b	-11.4732
▁ahead	-11.4752
▁mommy	-11.4753
que	-11.4756
▁county	-11.4764
▁rock	-11.4765
▁followed	-11.4765
you	-11.4767
▁meeting	-11.4778
▁East	-11.4792
▁First	-11.4793
▁record	-11.4795
▁Pe	-11.4813
▁2010	-11.4816
▁mouth	-11.4842
▁Japanese	-11.4851
▁During	-11.486
old	-11.486
red	-11.4867
▁ha	-11.4887
▁Germany	-11.49
▁ain	-11.4904
▁wind	-11.4912
ko	-11.4922
ex	-11.4932
▁cause	-11.4936
ities	-11.4967
▁beginning	-11.4967
▁opened	-11.4974
▁parents	-11.4974
▁mm	-11.4991
▁mom	-11.5
ong	-11.5022
▁sweet	-11.5025
▁view	-11.5029
▁whose	-11.503
▁Di	-11.5041
ward	-11.5044
ER	-11.5052
ag	-11.5058
▁animals	-11.5077
au	-11.5098
▁broke	-11.5106
▁island	-11.5115
of	-11.5115
ating	-11.5117
▁cos	-11.5136
▁process	-11.5138
▁happens	-11.5142
▁character	-11.5146
▁foot	-11.515
▁species	-11.5155
▁honey	-11.5155
▁clean	-11.5174
way	-11.5189
▁sub	-11.52
▁m	-11.5211
▁crazy	-11.5215
▁lose	-11.522
▁interest	-11.5222
▁whom	-11.5232
▁hospital	-11.5235
▁south	-11.5235
▁Ca	-11.5238
▁straight	-11.524
▁Virginia	-11.5285
▁General	-11.5287
▁TO	-11.5288
▁cost	-11.5291
if	-11.5293
▁similar	-11.5295
▁moving	-11.5295
▁original	-11.5308
▁field	-11.5311
▁bear	-11.5314
▁term	-11.5324
ized	-11.5363
▁parts	-11.5364
▁force	-11.5371
▁political	-11.5377
▁Really	-11.5377
▁Park	-11.5385
▁certainly	-11.5389
▁size	-11.5406
▁train	-11.5412
ana	-11.5415
▁gun	-11.5425
▁post	-11.5425
men	-11.5435
▁Illinois	-11.5459
▁sitting	-11.5469
▁Nothing	-11.5471
▁middle	-11.5479
▁River	-11.548
▁quickly	-11.5491
▁towards	-11.5492
▁interesting	-11.5503
▁Was	-11.5519
▁Most	-11.5536
▁church	-11.5541
▁total	-11.5542
▁forward	-11.5549
▁act	-11.5551
▁100	-11.5552
▁paid	-11.5553
▁finished	-11.5554
▁fear	-11.5555
▁dream	-11.557
▁Fa	-11.5592
ueen	-11.5598
ler	-11.5604
ster	-11.5604
▁street	-11.5617
▁difficult	-11.5623
▁answered	-11.564
▁table	-11.5642
▁giving	-11.5646
▁catch	-11.5648
▁Europe	-11.5655
▁places	-11.5655
▁Jo	-11.5656
so	-11.5665
▁leaving	-11.5677
ji	-11.5681
▁Ar	-11.5701
▁Paul	-11.5708
wa	-11.5716
▁questions	-11.5724
▁club	-11.5733
▁pass	-11.5742
▁daddy	-11.5751
▁Henry	-11.5753
▁fuck	-11.577
▁Which	-11.5773
▁amount	-11.578
_,	-11.5797
▁suppose	-11.5812
▁professional	-11.5832
▁Ja	-11.5837
▁Jack	-11.5838
che	-11.5839
▁safe	-11.5839
ring	-11.5844
sta	-11.5847
▁reached	-11.586
▁California	-11.5879
▁value	-11.5883
ries	-11.5887
pi	-11.5893
▁students	-11.5906
▁experience	-11.5913
▁("	-11.5926
▁hm	-11.5932
▁river	-11.5937
▁miss	-11.5949
ec	-11.5949
▁wear	-11.595
▁terms	-11.5953
▁community	-11.5955
wi	-11.5955
▁modern	-11.5976
▁Tom	-11.5998
▁simple	-11.6019
▁various	-11.602
▁report	-11.6039
▁follow	-11.605
▁step	-11.6057
▁Many	-11.6068
der	-11.6074
▁sick	-11.6086
▁US	-11.6088
▁stage	-11.6092
▁particular	-11.6095
▁touch	-11.6105
▁Am	-11.6111
ier	-11.6124
▁star	-11.6135
▁strange	-11.6139
▁Mary	-11.6146
▁published	-11.6152
▁lead	-11.6174
▁private	-11.6184
We	-11.6195
▁numbers	-11.6202
▁equal	-11.6209
▁League	-11.6218
▁Robert	-11.6221
▁allowed	-11.6232
cy	-11.6233
▁window	-11.6234
▁trust	-11.6235
si	-11.6245
ise	-11.6251
▁miles	-11.6254
▁deep	-11.6271
▁natural	-11.6272
▁st	-11.6274
▁dance	-11.6283
po	-11.6288
Ma	-11.6295
▁meant	-11.6303
ham	-11.6309
▁shut	-11.631
▁seat	-11.6317
▁ho	-11.632
▁anymore	-11.633
▁Du	-11.6344
ical	-11.6347
")	-11.6347
▁ways	-11.6352
▁Cha	-11.6354
▁month	-11.6357
▁El	-11.6358
Oh	-11.6358
▁build	-11.636
▁college	-11.6363
▁Pa	-11.6365
▁serious	-11.6395
▁TV	-11.6402
▁study	-11.6417
▁thou	-11.6427
▁involved	-11.6431
▁dinner	-11.6442
▁Car	-11.6456
ang	-11.6479
▁Our	-11.648
▁hey	-11.6483
▁especially	-11.6489
▁grow	-11.6493
▁Ko	-11.6497
▁murder	-11.6498
▁nature	-11.65
▁development	-11.65
▁somewhere	-11.6511
▁cool	-11.6515
hu	-11.6516
▁science	-11.6523
▁Lo	-11.6528
ab	-11.6531
▁wonder	-11.6532
▁glad	-11.6533
ock	-11.6542
▁hate	-11.6549
▁board	-11.6552
▁Only	-11.6554
▁clothes	-11.6557
▁boat	-11.656
ick	-11.6567
▁shows	-11.6568
▁Florida	-11.6568
▁Um	-11.657
▁San	-11.6576
over	-11.6578
▁located	-11.658
▁Would	-11.6581
▁president	-11.6603
▁Gu	-11.6605
mer	-11.661
▁1,	-11.6621
▁II	-11.6623
▁rain	-11.6628
▁Church	-11.6637
▁)	-11.6658
He	-11.6658
▁alive	-11.6672
▁result	-11.6672
▁y	-11.668
▁Union	-11.6684
▁Ne	-11.6684
Do	-11.6689
▁rich	-11.6702
▁project	-11.6705
▁needed	-11.6708
▁finally	-11.6721
▁anybody	-11.673
▁Since	-11.6754
▁program	-11.6772
▁caught	-11.6776
▁situation	-11.6784
▁summer	-11.6789
▁Da	-11.6793
ber	-11.6793
bb	-11.6809
▁design	-11.6817
▁earth	-11.6821
▁Red	-11.6824
▁color	-11.6833
▁appeared	-11.6838
▁gives	-11.6838
▁energy	-11.6848
▁Roman	-11.685
▁subject	-11.6878
▁worth	-11.6884
▁ring	-11.6889
ide	-11.6896
▁event	-11.6903
ship	-11.6904
▁added	-11.691
for	-11.6915
▁considered	-11.6921
▁title	-11.6927
RE	-11.6931
▁mhm	-11.6943
▁Frank	-11.6944
▁spent	-11.6967
shi	-11.6969
tro	-11.6981
▁action	-11.7002
▁self	-11.7019
▁Court	-11.7027
▁stopped	-11.7027
▁except	-11.7028
▁army	-11.7028
▁thanks	-11.7032
▁sign	-11.704
▁beat	-11.7051
▁di	-11.7063
▁god	-11.7064
▁Listen	-11.7077
▁respect	-11.7085
▁bought	-11.7087
▁wall	-11.7088
▁fa	-11.7095
▁pain	-11.71
ell	-11.7101
ute	-11.7105
▁standing	-11.7107
▁master	-11.711
▁grew	-11.7112
▁Africa	-11.7131
▁Cor	-11.7132
▁indeed	-11.7136
▁perfect	-11.7146
▁Party	-11.7161
▁marriage	-11.7172
ud	-11.7181
▁writing	-11.7183
▁Very	-11.7188
▁pull	-11.7192
▁produced	-11.7199
▁cross	-11.7208
ft	-11.7219
fe	-11.7219
▁attention	-11.7221
▁Richard	-11.7234
▁sa	-11.7236
▁Black	-11.7236
▁ye	-11.7242
▁2006	-11.7252
▁sold	-11.7254
king	-11.7268
▁x	-11.7278
▁entire	-11.7281
▁William	-11.7282
▁Mom	-11.7286
ls	-11.7291
▁ice	-11.7295
ria	-11.7299
▁trade	-11.732
▁Does	-11.7327
ck	-11.7338
▁White	-11.7361
▁Ni	-11.7373
ram	-11.7393
▁lie	-11.7437
▁market	-11.744
▁date	-11.7445
▁ba	-11.7501
▁seeing	-11.7507
▁Wi	-11.7525
▁simply	-11.7546
▁square	-11.7556
▁ear	-11.7557
▁Sure	-11.7565
AR	-11.7566
▁current	-11.7571
▁although	-11.7571
▁search	-11.7591
cha	-11.7593
▁length	-11.7611
▁race	-11.7612
▁Hu	-11.7619
our	-11.7621
ung	-11.7623
▁military	-11.7636
▁OF	-11.7636
▁Dan	-11.7645
▁imp	-11.7659
▁tea	-11.7662
▁European	-11.7664
▁secret	-11.7668
▁sing	-11.7668
▁carried	-11.7674
ach	-11.7675
▁included	-11.7692
▁Alan	-11.7698
▁da	-11.7704
▁key	-11.7706
my	-11.7706
▁difference	-11.7709
▁sc	-11.771
▁arms	-11.7718
▁dry	-11.772
▁Asia	-11.7721
▁fair	-11.7728
▁yours	-11.7733
▁groups	-11.7736
▁captain	-11.7738
▁milk	-11.7738
▁center	-11.7745
▁officer	-11.7751
▁largest	-11.7753
▁Y	-11.776
▁names	-11.7762
▁asking	-11.7766
▁Dick	-11.7778
chi	-11.7786
▁bag	-11.7786
ass	-11.7791
▁doubt	-11.7792
▁west	-11.781
▁district	-11.7813
▁speed	-11.7816
▁completely	-11.783
▁AND	-11.7833
▁blow	-11.7833
▁arm	-11.7834
▁Christ	-11.7854
▁education	-11.7854
▁Charles	-11.7855
▁While	-11.7855
▁hi	-11.7859
▁loved	-11.7864
▁risk	-11.7868
▁()	-11.7876
▁account	-11.7879
qui	-11.7889
▁points	-11.7892
▁computer	-11.7893
▁sell	-11.7898
▁reach	-11.7901
▁battle	-11.7902
▁Street	-11.7907
▁Excuse	-11.7908
▁double	-11.7921
▁version	-11.7922
rap	-11.7946
ping	-11.7954
ists	-11.7955
▁fellow	-11.7956
▁scene	-11.7959
▁IN	-11.7985
▁research	-11.7986
but	-11.799
▁watching	-11.7993
her	-11.801
▁joined	-11.8016
Yes	-11.8019
eh	-11.8025
▁Three	-11.8028
▁below	-11.807
▁agree	-11.8074
▁Sp	-11.8077
▁sight	-11.809
res	-11.809
▁2012	-11.8094
▁path	-11.8104
[	-11.8106
sy	-11.8108
ave	-11.8114
▁shoot	-11.8114
▁animal	-11.8118
▁mo	-11.8122
rd	-11.8124
▁meaning	-11.8128
▁evidence	-11.8133
uff	-11.8138
house	-11.8139
▁director	-11.8143
▁page	-11.8145
▁expect	-11.8155
▁High	-11.8158
▁Washington	-11.816
▁distance	-11.816
ble	-11.8161
▁success	-11.8166
▁plus	-11.8174
▁lying	-11.8179
▁radio	-11.8191
▁Got	-11.8203
▁east	-11.8209
▁College	-11.8214
▁suddenly	-11.8215
ov	-11.822
▁health	-11.8227
ray	-11.8228
▁happening	-11.8235
▁talked	-11.8244
▁Cup	-11.8245
▁plays	-11.8245
▁ride	-11.8251
▁share	-11.8253
▁vi	-11.8254
▁count	-11.8262
▁forest	-11.8264
▁nearly	-11.8273
abad	-11.8279
▁Put	-11.8285
▁style	-11.8287
off	-11.8299
▁caused	-11.83
▁Master	-11.8311
ath	-11.832
▁effect	-11.8322
▁Island	-11.8323
ot	-11.8329
▁quiet	-11.8336
▁carry	-11.8348
▁wild	-11.8351
▁site	-11.8354
▁nor	-11.8364
▁corner	-11.8369
▁oil	-11.8378
▁bird	-11.8389
▁heavy	-11.8397
▁coach	-11.8406
▁hat	-11.8411
ue	-11.8414
▁media	-11.8415
▁r	-11.8416
ay	-11.8422
▁push	-11.8428
▁warm	-11.8433
▁higher	-11.8439
har	-11.8441
▁Sha	-11.8446
com	-11.845
▁wood	-11.8455
▁Ri	-11.8457
▁promise	-11.8458
▁sex	-11.8461
▁formula	-11.8461
▁China	-11.8465
▁areas	-11.8466
ville	-11.8469
▁Paris	-11.8473
▁normal	-11.8474
▁wonderful	-11.8475
▁Fi	-11.8479
▁census	-11.8489
▁states	-11.8494
▁protect	-11.8498
cr	-11.85
▁stupid	-11.8503
▁Tri	-11.8505
▁bet	-11.8517
▁super	-11.8519
▁Father	-11.8519
▁Pi	-11.8523
ure	-11.8531
▁Ya	-11.8532
▁personal	-11.8532
▁Ben	-11.8542
▁Pro	-11.8544
▁families	-11.8545
▁fly	-11.8548
ize	-11.8551
▁International	-11.8561
▁interested	-11.8563
▁trees	-11.8567
▁add	-11.857
▁fit	-11.8578
ob	-11.8581
▁coffee	-11.8587
▁Jesus	-11.8589
▁Ru	-11.8632
▁continued	-11.8661
▁speaking	-11.8668
▁formed	-11.8673
▁quick	-11.8684
▁park	-11.8685
▁Nor	-11.8686
▁Minister	-11.8687
▁developed	-11.8689
▁cases	-11.8696
▁available	-11.8701
▁showed	-11.8705
▁Earth	-11.8715
that	-11.8716
▁join	-11.8717
▁songs	-11.873
▁peace	-11.8742
▁Its	-11.8742
▁spend	-11.8756
▁bottom	-11.8758
vo	-11.8763
▁huge	-11.8765
ile	-11.8766
ep	-11.8767
▁actor	-11.8771
▁production	-11.8788
year	-11.88
▁announced	-11.8801
▁movement	-11.8801
▁Sea	-11.8812
▁pop	-11.8835
▁data	-11.8835
▁k	-11.8835
▁birthday	-11.8844
▁worse	-11.8858
ding	-11.8868
▁helped	-11.8892
▁movies	-11.8899
▁Christian	-11.8902
▁eating	-11.8913
▁mad	-11.8918
▁snow	-11.8918
▁contract	-11.8928
▁Lee	-11.8934
ku	-11.8935
And	-11.8937
ea	-11.8939
▁lines	-11.8947
omb	-11.8951
▁code	-11.8957
▁lower	-11.8962
side	-11.8972
▁dress	-11.8974
▁Green	-11.898
▁Bu	-11.8981
▁founded	-11.8984
▁Che	-11.8996
mon	-11.9004
▁sad	-11.9008
▁bus	-11.901
▁mistake	-11.902
▁tired	-11.9035
▁scared	-11.9036
du	-11.9042
▁Their	-11.9046
▁visit	-11.9058
▁stories	-11.9063
ology	-11.9065
▁Mc	-11.9071
▁store	-11.9077
▁model	-11.9082
▁ended	-11.9086
▁society	-11.9093
▁About	-11.9093
▁inter	-11.9095
▁pieces	-11.9097
q	-11.91
▁bank	-11.9122
▁Every	-11.9127
ome	-11.9128
▁Bi	-11.9133
▁welcome	-11.9137
▁bright	-11.9137
▁v	-11.9149
▁careful	-11.9151
▁Gra	-11.9163
▁sounds	-11.9168
▁raised	-11.9169
▁Award	-11.9186
▁closed	-11.919
ily	-11.9191
▁Any	-11.9191
▁Sch	-11.92
▁Lu	-11.9201
▁learned	-11.9201
▁walked	-11.9203
▁Could	-11.9212
▁Italian	-11.9213
▁putting	-11.9214
▁charge	-11.9216
▁plant	-11.9222
wood	-11.9222
▁starting	-11.9224
▁leg	-11.9232
▁Mark	-11.9243
▁base	-11.9257
▁cover	-11.9257
mp	-11.9258
▁training	-11.9261
▁Day	-11.9271
▁ah	-11.9275
▁teacher	-11.929
▁Indian	-11.9298
▁complete	-11.9302
▁decision	-11.9304
▁History	-11.9317
▁politician	-11.9319
▁trip	-11.9321
▁rose	-11.9322
▁choice	-11.9323
▁changes	-11.9331
▁international	-11.9332
▁nobody	-11.9333
▁birds	-11.9333
ite	-11.934
▁Ju	-11.9349
▁se	-11.9362
▁Province	-11.9363
▁Before	-11.9378
tra	-11.9385
▁extra	-11.939
▁Anne	-11.9396
ions	-11.9398
▁brain	-11.9398
▁chair	-11.9407
▁Central	-11.9424
▁yesterday	-11.9424
▁likely	-11.9429
▁disease	-11.943
ED	-11.9431
▁letters	-11.9432
▁travel	-11.9433
▁afternoon	-11.9439
▁price	-11.9441
▁finish	-11.9463
▁explain	-11.9466
ash	-11.947
▁chief	-11.9472
▁begin	-11.9473
▁Over	-11.9479
ative	-11.9479
▁accept	-11.9482
▁escape	-11.9482
end	-11.9483
▁ancient	-11.9485
▁angry	-11.9485
▁thirty	-11.9485
pp	-11.9488
▁stone	-11.9497
▁command	-11.9502
▁ought	-11.9516
▁Hall	-11.9517
og	-11.9525
▁prison	-11.953
▁believed	-11.9531
lar	-11.9535
▁issue	-11.9539
▁release	-11.9544
▁calling	-11.955
▁mu	-11.955
ore	-11.9559
▁luck	-11.9564
▁glass	-11.9566
▁mostly	-11.9578
io	-11.958
▁soul	-11.9584
▁allow	-11.9584
art	-11.9587
▁Those	-11.9595
▁fourth	-11.9597
▁create	-11.9598
ice	-11.96
▁university	-11.9609
▁Mu	-11.9619
▁Po	-11.9622
▁message	-11.9627
▁Act	-11.9627
▁leader	-11.9631
ube	-11.9634
▁necessary	-11.964
▁Army	-11.9641
▁singer	-11.9647
ale	-11.9652
▁bloody	-11.9659
ations	-11.9663
▁opening	-11.9668
des	-11.9668
▁Thomas	-11.9672
▁fault	-11.9672
▁immediately	-11.9672
▁culture	-11.9673
▁schools	-11.9673
▁storm	-11.9674
lic	-11.9675
▁events	-11.9678
▁2,	-11.9687
▁ideas	-11.9688
▁Other	-11.969
ear	-11.9696
▁busy	-11.9705
▁theory	-11.9714
▁Ki	-11.9722
▁bridge	-11.9727
aw	-11.974
▁hang	-11.9747
▁rule	-11.9749
▁gas	-11.9755
ame	-11.9756
▁Ge	-11.9771
▁bo	-11.978
▁track	-11.9781
▁enemy	-11.9782
▁Congress	-11.9782
▁Italy	-11.9782
▁:	-11.9796
▁covered	-11.9801
▁lovely	-11.9812
▁therefore	-11.9815
ess	-11.9818
ez	-11.9833
ade	-11.9837
▁Bob	-11.9852
J	-11.9857
▁bi	-11.9858
▁Hold	-11.9862
▁Another	-11.9862
▁Wa	-11.9863
▁stars	-11.9865
▁arrived	-11.9879
▁marry	-11.9891
▁earlier	-11.9894
▁Canada	-11.9894
▁surface	-11.9894
▁offer	-11.9897
▁ill	-11.9898
▁po	-11.9906
▁continue	-11.991
ious	-11.9915
ps	-11.9919
su	-11.9922
▁Ok	-11.9923
uc	-11.9924
oy	-11.9935
tal	-11.9941
▁Pyr	-11.9942
▁Sam	-11.9943
▁prove	-11.9945
od	-11.9953
ium	-11.9955
▁lawyer	-11.9958
▁purpose	-11.9962
like	-11.9966
car	-11.997
▁access	-11.9974
▁terrible	-11.9974
▁Cos	-11.9975
▁Royal	-11.998
▁broken	-11.9984
field	-11.9984
▁wide	-12.0009
▁official	-12.001
▁election	-12.0014
▁rights	-12.002
▁Once	-12.0024
▁h	-12.0025
▁aha	-12.004
qu	-12.0042
▁holding	-12.0048
▁Bar	-12.0061
▁mountain	-12.0069
ari	-12.0069
▁Alright	-12.0072
▁established	-12.0072
▁successful	-12.0087
▁Everything	-12.0088
▁contact	-12.0088
▁Saint	-12.0094
gg	-12.0097
light	-12.0108
▁nose	-12.0114
ified	-12.0115
▁reading	-12.0132
▁crew	-12.0133
▁Keep	-12.0137
ough	-12.0139
▁fighting	-12.0145
▁drop	-12.0147
▁knowledge	-12.0154
sto	-12.0167
▁According	-12.017
▁policy	-12.017
▁relationship	-12.0174
▁More	-12.0181
▁influence	-12.0184
▁rate	-12.019
ization	-12.0196
▁IT	-12.02
▁tape	-12.02
▁neck	-12.0205
ami	-12.0205
▁weight	-12.0211
▁enjoy	-12.0214
▁spring	-12.022
▁forth	-12.0235
▁fresh	-12.0236
act	-12.0245
▁none	-12.0252
▁average	-12.0253
▁absolutely	-12.0253
▁w	-12.0259
bu	-12.0265
va	-12.0269
▁Je	-12.0278
▁fi	-12.0279
▁Korea	-12.0286
▁minus	-12.0286
tu	-12.0295
▁Scotland	-12.0303
▁forces	-12.0304
▁Bye	-12.0307
▁forced	-12.0308
▁le	-12.0313
▁yellow	-12.032
▁stick	-12.0334
II	-12.0335
▁regular	-12.0335
▁campaign	-12.0336
▁Ooh	-12.0337
▁Spanish	-12.0337
▁Wow	-12.0337
▁spot	-12.0341
▁mass	-12.0353
▁practice	-12.0355
▁thus	-12.0379
AL	-12.038
▁liked	-12.0387
▁Kingdom	-12.0387
AN	-12.0389
▁author	-12.0416
▁Say	-12.0424
▁walking	-12.0445
ita	-12.045
▁accident	-12.0454
▁notice	-12.0456
▁machine	-12.0461
Atlantiques	-12.0488
▁beyond	-12.0488
▁bill	-12.049
ju	-12.0491
▁imagine	-12.0502
▁fool	-12.0505
ica	-12.0508
▁directed	-12.0508
mi	-12.0523
▁spirit	-12.0528
▁1.	-12.0532
ual	-12.0534
hor	-12.0535
▁Council	-12.054
▁range	-12.0552
zz	-12.0562
▁address	-12.057
▁iron	-12.0577
▁patient	-12.058
▁2013	-12.0588
▁twice	-12.0591
▁signed	-12.0595
▁Hill	-12.0597
▁coast	-12.0599
That	-12.0604
▁unless	-12.0609
▁Doctor	-12.0611
▁material	-12.0614
▁Bay	-12.0617
▁slow	-12.0623
▁services	-12.0624
▁choose	-12.0626
▁Tony	-12.063
▁Big	-12.063
▁Air	-12.0635
▁Iran	-12.0657
▁Today	-12.0661
ford	-12.0668
▁pounds	-12.067
▁wine	-12.0674
▁dropped	-12.0677
▁rise	-12.0678
ple	-12.0681
▁dangerous	-12.0682
▁shape	-12.0692
▁shop	-12.0697
med	-12.0704
▁discovered	-12.0713
▁Lake	-12.0717
▁kinds	-12.0741
▁leaves	-12.0745
▁flowers	-12.0749
▁Sta	-12.075
But	-12.0754
▁opportunity	-12.0764
▁native	-12.0768
▁farm	-12.0769
▁condition	-12.0771
▁tells	-12.0775
▁Love	-12.0777
▁host	-12.078
▁gr	-12.0781
▁Joe	-12.0784
Co	-12.0785
▁kiss	-12.0793
str	-12.0797
▁winter	-12.08
ura	-12.0806
▁metal	-12.0809
▁legs	-12.0816
▁competition	-12.0817
▁Steve	-12.0818
ris	-12.0837
▁biggest	-12.0852
▁religious	-12.0854
▁pen	-12.0861
▁dollars	-12.0863
▁lots	-12.0864
▁hide	-12.0877
tor	-12.088
▁fifty	-12.0888
▁driving	-12.0888
▁according	-12.0888
▁ra	-12.0894
▁systems	-12.0897
▁Although	-12.0906
▁Western	-12.0906
use	-12.092
▁soldiers	-12.0923
▁Sometimes	-12.0923
▁ass	-12.0928
well	-12.094
▁anywhere	-12.0941
▁Help	-12.0942
▁hotel	-12.0946
▁planet	-12.0949
▁Star	-12.095
sis	-12.0951
▁fix	-12.0953
▁pressure	-12.0959
▁vote	-12.0966
▁female	-12.0966
▁sides	-12.097
▁smile	-12.0974
ery	-12.0977
▁proud	-12.0977
▁entered	-12.0979
▁elected	-12.098
▁heat	-12.0982
▁mark	-12.0986
▁laugh	-12.0994
▁highest	-12.0996
▁economic	-12.1014
lor	-12.1015
▁1980	-12.1017
▁Prince	-12.103
▁memory	-12.103
▁Perhaps	-12.1033
▁Show	-12.1034
ai	-12.1042
▁jump	-12.1043
▁birth	-12.1048
▁Mike	-12.105
▁growing	-12.1053
▁Yu	-12.1061
▁dogs	-12.1063
▁Never	-12.1069
▁block	-12.1071
ek	-12.1073
▁religion	-12.1074
▁sky	-12.1077
▁calls	-12.1086
ging	-12.1086
▁easily	-12.1103
▁Chinese	-12.1103
▁du	-12.1105
▁Shi	-12.1105
LE	-12.1108
▁1990	-12.111
▁pound	-12.1113
▁negative	-12.1121
▁twelve	-12.1121
▁throughout	-12.1122
▁flat	-12.1123
▁Life	-12.1124
▁smaller	-12.1128
▁characters	-12.1137
▁boss	-12.1139
ks	-12.1145
ix	-12.1147
ration	-12.1149
let	-12.1154
▁honest	-12.1155
▁2005	-12.1165
▁percent	-12.1174
▁weather	-12.1175
ther	-12.1179
▁individual	-12.1183
▁currently	-12.1196
▁Si	-12.1197
▁episode	-12.1201
▁Tu	-12.1203
ook	-12.1211
ors	-12.1218
vers	-12.1219
▁pictures	-12.1222
tes	-12.1225
▁Association	-12.123
▁medicine	-12.123
▁positive	-12.123
▁teams	-12.123
▁skin	-12.1231
ev	-12.1246
▁sp	-12.1253
▁hall	-12.1264
cing	-12.1266
▁laid	-12.1267
▁expected	-12.1271
▁plants	-12.1284
▁port	-12.1287
▁remained	-12.1288
ops	-12.1289
ural	-12.129
uck	-12.1291
▁sh	-12.1299
▁missing	-12.1309
▁smell	-12.1312
yo	-12.1318
▁older	-12.1321
▁industry	-12.1322
▁smart	-12.1322
▁note	-12.1323
▁garden	-12.1324
dic	-12.1325
ew	-12.1326
bs	-12.133
▁spread	-12.1338
▁Martin	-12.134
▁includes	-12.1347
▁consider	-12.1348
▁3,	-12.1349
pos	-12.1357
▁Smith	-12.136
▁originally	-12.1362
▁Mother	-12.1362
ou	-12.1366
▁wearing	-12.1366
▁players	-12.1367
▁anti	-12.1368
▁direction	-12.1371
▁pe	-12.1382
▁fat	-12.1385
▁handle	-12.1391
▁rules	-12.1393
▁provide	-12.1395
▁2016	-12.1396
▁civil	-12.1396
fer	-12.1408
hr	-12.1414
▁wedding	-12.1416
▁lack	-12.1418
▁crime	-12.1424
▁2018	-12.1425
▁Make	-12.1432
▁Bur	-12.1432
▁ya	-12.1433
▁Jackson	-12.1434
▁studio	-12.1434
▁particularly	-12.1437
▁Catholic	-12.1443
ens	-12.1443
▁Pre	-12.1444
law	-12.1454
▁li	-12.1462
cause	-12.1463
ever	-12.1466
▁Shut	-12.1478
▁forty	-12.1478
▁Los	-12.1479
▁Time	-12.1481
min	-12.1504
▁bread	-12.1509
▁definitely	-12.1509
fa	-12.151
▁Jim	-12.1519
._	-12.1522
▁Ex	-12.1526
sk	-12.1527
▁Old	-12.1528
▁sake	-12.1529
▁Ab	-12.1529
▁judge	-12.1537
▁soft	-12.1547
ast	-12.1561
▁manager	-12.1564
▁duty	-12.1566
▁content	-12.1575
▁staff	-12.1585
Well	-12.1586
▁teach	-12.1586
mu	-12.1587
▁eggs	-12.1587
▁Ad	-12.1588
▁uses	-12.1594
▁structure	-12.1595
▁Next	-12.1604
rop	-12.1607
▁strength	-12.161
▁uncle	-12.1629
ug	-12.1629
rack	-12.163
▁realize	-12.1639
▁press	-12.1648
ets	-12.1659
▁Republic	-12.1661
▁pleasure	-12.1661
▁Something	-12.1663
▁heaven	-12.1681
▁slowly	-12.1682
ack	-12.1688
▁degree	-12.169
▁placed	-12.1695
▁moon	-12.171
=	-12.1711
ric	-12.1712
ui	-12.1716
▁hello	-12.1723
▁hill	-12.1726
▁powerful	-12.1731
▁Mac	-12.1736
▁smoke	-12.1738
▁Spain	-12.1738
tri	-12.1738
▁larger	-12.1741
▁taste	-12.1757
▁tax	-12.1768
▁mentioned	-12.1779
▁addition	-12.1787
▁2015	-12.1788
▁worried	-12.1796
▁apart	-12.1807
▁Four	-12.1817
▁agreed	-12.1819
▁finger	-12.1825
▁pair	-12.1826
▁wake	-12.1838
istic	-12.1839
▁waste	-12.1839
▁student	-12.1845
▁dreams	-12.1849
▁southwestern	-12.1854
La	-12.1857
▁security	-12.1875
ight	-12.1877
▁Bill	-12.1883
▁killing	-12.1885
..."	-12.1893
▁Road	-12.1894
▁Little	-12.1896
(	-12.1903
▁excuse	-12.1913
▁medical	-12.1913
mit	-12.1914
▁youth	-12.1917
▁direct	-12.1918
▁picked	-12.192
▁issues	-12.193
▁zero	-12.1933
▁Ve	-12.1939
▁Fe	-12.1951
▁object	-12.1951
▁rec	-12.1953
▁bigger	-12.1953
▁Chicago	-12.1953
▁acting	-12.1958
▁source	-12.1966
▁Fuck	-12.1972
▁Also	-12.1972
▁totally	-12.1975
▁consist	-12.1975
▁designed	-12.1977
tter	-12.1982
▁product	-12.1983
▁mate	-12.1985
▁honor	-12.199
▁Chi	-12.199
tte	-12.1993
▁lucky	-12.1993
▁Both	-12.1994
▁orders	-12.1999
▁centre	-12.2
ture	-12.2001
▁serve	-12.2001
ming	-12.2003
ae	-12.2003
▁section	-12.2005
▁mission	-12.2006
▁forms	-12.201
▁Texas	-12.2011
▁Yo	-12.2018
▁flight	-12.2023
▁Line	-12.2027
▁records	-12.2031
▁empty	-12.2031
▁bitch	-12.2033
▁Per	-12.2033
▁troops	-12.2037
▁related	-12.2037
▁companies	-12.2051
▁Ed	-12.2058
▁brothers	-12.2062
▁Th	-12.2063
▁conditions	-12.2064
gil	-12.2069
▁foreign	-12.2071
▁Christmas	-12.2071
▁replaced	-12.2072
▁Ku	-12.2077
▁Fine	-12.2081
▁danger	-12.2086
▁brown	-12.2092
▁mum	-12.2096
berg	-12.2101
▁performance	-12.2102
fl	-12.2113
▁becomes	-12.2115
▁generally	-12.2115
▁mainly	-12.2116
▁rid	-12.2121
▁bye	-12.2126
▁Grand	-12.2129
fu	-12.2132
▁Nice	-12.2133
pt	-12.2144
▁houses	-12.2145
ik	-12.2151
▁reported	-12.2156
▁leading	-12.2157
▁writer	-12.2168
▁speech	-12.217
▁weird	-12.2171
▁basically	-12.2171
bar	-12.2177
▁partner	-12.2178
▁Has	-12.2179
IN	-12.219
▁Chief	-12.2192
▁filled	-12.2194
▁plans	-12.2197
▁legal	-12.2201
cu	-12.2202
▁image	-12.2203
▁cast	-12.2206
▁surprise	-12.2209
▁teeth	-12.2212
▁obviously	-12.2213
▁performed	-12.2213
iv	-12.2221
▁Out	-12.2221
▁bath	-12.2222
▁roof	-12.2232
▁unit	-12.2235
▁wa	-12.2237
▁appear	-12.2238
▁truck	-12.2268
▁Majesty	-12.2273
▁complex	-12.2273
▁breath	-12.2273
▁Huh	-12.2278
▁grave	-12.2283
▁Championship	-12.2285
▁Ch	-12.2291
▁replied	-12.2293
▁stole	-12.2293
▁offered	-12.2297
▁singing	-12.2298
ett	-12.2298
▁recorded	-12.2299
▁Club	-12.2302
.--	-12.2303
▁types	-12.2305
mar	-12.2312
iz	-12.2312
▁palace	-12.2313
▁sword	-12.2313
▁forgot	-12.2316
low	-12.2319
vis	-12.2323
▁hole	-12.2326
▁willing	-12.2328
▁coat	-12.2331
▁eventually	-12.2334
▁evil	-12.2334
▁clearly	-12.2339
gue	-12.2341
▁Later	-12.2344
▁edge	-12.235
▁kitchen	-12.2354
▁stuck	-12.2354
illa	-12.2357
▁loss	-12.236
,--	-12.2366
ele	-12.2367
▁network	-12.2367
▁mid	-12.2368
▁duck	-12.2375
▁described	-12.2376
▁remain	-12.2381
▁lo	-12.2385
ral	-12.2388
▁thee	-12.2388
▁features	-12.2392
▁split	-12.2395
▁Scott	-12.2396
▁Pu	-12.2399
▁Major	-12.2416
▁failed	-12.2417
▁central	-12.2419
partement	-12.2437
▁plain	-12.2446
ata	-12.2449
▁Government	-12.2457
zi	-12.2459
▁2.	-12.247
▁Mor	-12.2473
▁lies	-12.2474
▁interview	-12.2478
▁northern	-12.2479
▁lord	-12.2482
▁Jane	-12.2483
▁2022	-12.2485
▁damn	-12.2491
▁separate	-12.2494
▁thinks	-12.2498
▁Brown	-12.2499
▁sand	-12.2499
▁becoming	-12.2501
ani	-12.2505
▁Greek	-12.2512
▁ships	-12.2513
▁Rose	-12.2515
ada	-12.252
▁concerned	-12.2521
▁camera	-12.2523
▁em	-12.2525
▁stock	-12.2525
▁horses	-12.2527
▁opinion	-12.2533
jo	-12.2537
Why	-12.2539
▁actress	-12.2541
▁neither	-12.2541
▁1970	-12.2544
▁missed	-12.2546
▁mention	-12.2549
▁sha	-12.2558
spi	-12.2559
▁universe	-12.2561
▁Lady	-12.2562
▁specific	-12.2564
EN	-12.2564
int	-12.2565
▁active	-12.2569
Re	-12.258
▁council	-12.2582
▁journey	-12.2582
▁solution	-12.2582
▁greatest	-12.2585
▁ad	-12.2586
▁conversation	-12.2603
▁novel	-12.2605
right	-12.2609
▁row	-12.2613
rie	-12.2618
▁Academy	-12.2625
▁breakfast	-12.2625
▁results	-12.2634
▁Ti	-12.2636
▁Russian	-12.2638
town	-12.264
▁aged	-12.2645
▁property	-12.2646
▁produce	-12.265
▁officers	-12.2651
▁Gi	-12.2655
▁meat	-12.2656
▁Boy	-12.2662
▁greater	-12.2663
▁trial	-12.2663
▁cars	-12.2667
ably	-12.2667
back	-12.267
oh	-12.2671
▁saved	-12.2674
▁cities	-12.2675
▁Ber	-12.268
▁test	-12.2681
▁2020	-12.2682
▁prince	-12.2688
▁audience	-12.2688
▁hurry	-12.2688
▁divided	-12.2689
ef	-12.269
port	-12.2694
▁etc	-12.2696
▁target	-12.2709
▁castle	-12.2715
izing	-12.2715
▁Law	-12.2715
▁Blue	-12.272
row	-12.2724
Mo	-12.2726
▁dare	-12.2726
▁independent	-12.2731
▁taught	-12.2745
▁mess	-12.2751
▁studied	-12.2752
▁lunch	-12.2752
▁2011	-12.2761
▁brave	-12.2764
▁organization	-12.2766
▁Sunday	-12.2773
ised	-12.2775
▁pi	-12.2782
▁Jimmy	-12.2795
▁directly	-12.2796
ible	-12.2798
▁Call	-12.2799
zo	-12.2799
▁cancer	-12.2801
▁ordered	-12.2808
une	-12.2809
val	-12.2812
▁buried	-12.2816
ches	-12.2817
az	-12.2817
▁wow	-12.2819
▁Te	-12.2829
ope	-12.283
▁papers	-12.2832
▁firm	-12.2832
▁reasons	-12.2837
▁correct	-12.2837
▁Each	-12.2838
tz	-12.2843
oma	-12.2845
▁decide	-12.2849
...?	-12.2849
▁calm	-12.2857
▁easier	-12.2859
▁impossible	-12.2859
▁THAT	-12.2859
▁gentlemen	-12.2859
▁Iowa	-12.2859
ender	-12.286
▁Open	-12.2864
ened	-12.2865
▁faces	-12.2877
SE	-12.288
▁Soviet	-12.2881
ua	-12.2882
unt	-12.2883
▁surprised	-12.2884
▁Ray	-12.2891
▁increase	-12.2892
▁technology	-12.2902
▁worst	-12.2902
▁silver	-12.2904
ski	-12.291
▁artist	-12.2913
▁shoes	-12.292
▁fl	-12.2926
ane	-12.2935
mb	-12.2941
▁credit	-12.2945
▁silly	-12.2946
ving	-12.2947
▁treatment	-12.2947
eg	-12.2948
▁prepared	-12.2948
ole	-12.2951
▁keeping	-12.2951
▁Best	-12.2953
RA	-12.2953
▁function	-12.2961
▁bomb	-12.2963
▁Mexico	-12.2968
▁Leave	-12.2968
▁Susan	-12.2969
▁fill	-12.2977
▁Russia	-12.2977
▁heads	-12.2978
ius	-12.298
▁Football	-12.2989
▁favorite	-12.299
▁giant	-12.2991
▁chicken	-12.2992
▁teaching	-12.2993
▁flying	-12.2994
▁learning	-12.2997
sing	-12.2998
▁feed	-12.2999
▁Still	-12.3011
ments	-12.3017
▁finding	-12.3024
▁starts	-12.3024
▁ourselves	-12.3033
▁blind	-12.3033
▁crying	-12.3036
▁fashion	-12.3048
▁standard	-12.3049
▁origin	-12.305
▁Empire	-12.3055
ants	-12.3058
▁Up	-12.306
▁2001	-12.3066
▁asleep	-12.3077
▁recently	-12.3079
▁runs	-12.308
▁drinking	-12.3087
▁sleeping	-12.3088
▁route	-12.3093
▁prevent	-12.3096
▁traditional	-12.3098
▁Bre	-12.3102
▁engine	-12.3103
▁Professor	-12.3121
▁multiple	-12.3125
▁cook	-12.3142
bur	-12.315
dge	-12.3151
dia	-12.3151
▁Sal	-12.3153
▁financial	-12.3166
OR	-12.3168
▁receive	-12.3171
Be	-12.3174
▁province	-12.3182
If	-12.319
ino	-12.3203
▁pocket	-12.3204
▁Ye	-12.3206
▁actual	-12.3209
▁Women	-12.3211
▁Prime	-12.3215
▁buildings	-12.3219
▁drunk	-12.3233
▁Anyway	-12.3234
▁thick	-12.3234
▁tail	-12.3234
▁frog	-12.3239
▁onto	-12.3239
▁environment	-12.324
▁Louis	-12.3261
▁Bra	-12.3263
▁seconds	-12.3265
▁mi	-12.3267
▁Bor	-12.3269
rai	-12.327
ano	-12.3273
are	-12.3277
▁tournament	-12.3278
▁ladies	-12.3278
gra	-12.329
ans	-12.3298
hy	-12.3298
▁swear	-12.33
ator	-12.3302
▁forever	-12.3308
▁noise	-12.3314
▁avoid	-12.332
▁hungry	-12.3323
▁suit	-12.3342
▁strike	-12.3345
▁faith	-12.3347
▁Maria	-12.3368
▁amazing	-12.3368
▁Company	-12.3368
race	-12.3371
▁Port	-12.3383
▁DO	-12.339
▁kingdom	-12.3391
▁railway	-12.3391
▁connection	-12.3394
▁promised	-12.3396
▁Young	-12.3403
▁stayed	-12.3405
▁quarter	-12.3408
▁soldier	-12.3414
ged	-12.3414
▁screen	-12.3419
▁grand	-12.3422
▁listening	-12.3422
▁Remember	-12.3436
▁costs	-12.3458
▁proper	-12.3458
▁Governor	-12.3459
▁Carter	-12.346
▁Pat	-12.3461
▁Ke	-12.3462
▁goal	-12.3467
ama	-12.3469
▁roll	-12.3475
▁Princess	-12.3481
▁shirt	-12.3487
▁Rock	-12.3489
Le	-12.349
▁focus	-12.3499
▁Actually	-12.3505
▁municipality	-12.3506
▁commercial	-12.3528
▁Center	-12.3528
▁Second	-12.3529
▁planning	-12.3529
ky	-12.354
▁turns	-12.3542
▁Under	-12.3549
▁al	-12.3551
yl	-12.3554
ES	-12.356
▁previous	-12.3573
room	-12.3581
▁bottle	-12.3592
▁raise	-12.3595
▁threw	-12.3598
▁languages	-12.3599
▁Indiana	-12.36
▁programs	-12.3608
To	-12.3609
▁wash	-12.3613
▁drama	-12.3621
▁required	-12.3623
How	-12.3624
▁shore	-12.3629
▁throat	-12.3644
▁sports	-12.3645
▁lights	-12.3645
▁guard	-12.3646
av	-12.3649
par	-12.3651
▁plane	-12.3651
pl	-12.3661
lip	-12.3663
ins	-12.3663
▁drew	-12.3668
▁appointed	-12.3669
▁van	-12.3674
ties	-12.3688
▁struck	-12.3691
▁Angeles	-12.3691
▁4,	-12.3692
▁reality	-12.3693
▁aware	-12.3699
▁Far	-12.371
▁treat	-12.3715
rk	-12.3724
ched	-12.3726
▁Kennedy	-12.3738
▁Sit	-12.3743
▁ears	-12.3744
ara	-12.3745
▁pot	-12.3749
▁turning	-12.3755
▁fruit	-12.3756
▁location	-12.3757
▁drug	-12.3758
▁beauty	-12.3762
CH	-12.3766
ied	-12.3774
▁construction	-12.3786
▁southern	-12.3786
▁hero	-12.3786
▁Uncle	-12.3788
cer	-12.3788
ded	-12.3789
▁prize	-12.3791
▁text	-12.3793
hal	-12.3807
▁significant	-12.3807
▁managed	-12.3812
▁loose	-12.3813
▁200	-12.3817
▁1960	-12.3819
ped	-12.3829
▁desire	-12.383
▁Saturday	-12.3833
▁Daniel	-12.3833
▁wet	-12.3834
▁destroyed	-12.3835
set	-12.3844
ire	-12.3852
▁Girl	-12.3853
▁physical	-12.3855
▁silence	-12.3857
▁Division	-12.3857
▁introduced	-12.3858
▁stream	-12.3862
▁method	-12.3876
▁favor	-12.388
▁Rome	-12.3883
▁dragon	-12.3884
▁broad	-12.3885
ses	-12.3891
▁streets	-12.3898
▁instance	-12.3904
▁ocean	-12.3904
▁possibly	-12.3904
▁debut	-12.3905
▁units	-12.3914
▁lad	-12.3915
sha	-12.3925
lk	-12.3926
ON	-12.3927
▁Everybody	-12.3928
▁2017	-12.3931
▁Canadian	-12.3952
▁weak	-12.3955
▁1996	-12.3961
▁operation	-12.3964
▁nation	-12.3964
▁burn	-12.3965
ents	-12.3973
▁Think	-12.3977
▁lock	-12.3977
▁wo	-12.3978
▁appears	-12.3986
My	-12.3994
Si	-12.3996
▁grown	-12.4001
▁Gar	-12.4002
see	-12.4016
▁gain	-12.4021
▁Americans	-12.4022
▁admit	-12.4025
▁basic	-12.4025
▁chocolate	-12.4025
▁losing	-12.4025
▁male	-12.4027
▁accepted	-12.4029
▁hardly	-12.4036
▁loves	-12.4038
▁concert	-12.4049
▁toward	-12.4051
▁dressed	-12.4054
▁Wo	-12.4059
▁joke	-12.406
▁attempt	-12.4063
some	-12.4067
▁afterwards	-12.4073
▁dirty	-12.4074
▁showing	-12.4082
▁1997	-12.4084
▁circle	-12.4093
▁fought	-12.4098
▁Latin	-12.4098
ces	-12.4099
▁sweetie	-12.41
▁falling	-12.4107
▁African	-12.4109
ker	-12.4117
▁rocks	-12.4118
▁advantage	-12.4122
ification	-12.4123
▁1998	-12.4125
▁drugs	-12.4126
▁fe	-12.413
▁drawing	-12.4131
▁laws	-12.4131
▁Dar	-12.4133
RO	-12.4136
sey	-12.414
▁responsible	-12.4147
▁Watch	-12.4147
▁settlement	-12.4149
▁Last	-12.4154
▁Ji	-12.4165
▁quality	-12.4171
▁Whatever	-12.4174
ates	-12.418
▁union	-12.4185
▁enter	-12.4192
▁humans	-12.4192
▁Friday	-12.4196
▁Scottish	-12.4196
▁retired	-12.4197
▁Year	-12.4199
▁prime	-12.4202
ese	-12.4204
IC	-12.4206
ox	-12.4206
gar	-12.4207
▁HE	-12.4212
ool	-12.4213
▁Com	-12.4217
▁Austria	-12.4221
▁Summer	-12.4221
▁expression	-12.4223
▁statement	-12.4243
▁league	-12.4245
-19	-12.4247
▁fixed	-12.4249
ena	-12.4257
--"	-12.426
▁constant	-12.4269
▁sudden	-12.4269
lly	-12.4277
▁Stay	-12.4278
▁driver	-12.4279
work	-12.4282
▁photo	-12.4283
lam	-12.4291
▁division	-12.4291
▁joy	-12.4294
▁opposite	-12.4295
▁queen	-12.4295
▁grass	-12.4295
▁Nobody	-12.4296
▁reform	-12.4296
▁feels	-12.4304
▁helping	-12.4305
rate	-12.4308
sp	-12.4308
▁recent	-12.4319
AT	-12.4321
▁UK	-12.4322
▁jail	-12.4322
▁gay	-12.4324
uyeh	-12.4326
▁Hans	-12.4327
▁pleased	-12.433
▁bound	-12.433
▁Long	-12.4332
bit	-12.4334
ette	-12.4335
▁laughed	-12.4349
rus	-12.4358
▁spa	-12.436
▁Par	-12.4361
▁mis	-12.4362
oke	-12.4365
▁display	-12.4367
All	-12.4369
▁Britain	-12.437
▁royal	-12.437
▁Five	-12.4375
▁pa	-12.4378
▁approach	-12.4389
▁score	-12.4389
▁damage	-12.4393
tive	-12.4399
▁Ten	-12.4406
▁Col	-12.4408
▁Shit	-12.4413
▁temperature	-12.4417
▁review	-12.4417
▁request	-12.4418
▁pulled	-12.4426
▁brand	-12.4429
ability	-12.4429
▁shake	-12.4429
▁cash	-12.4437
▁kick	-12.4442
▁signal	-12.4444
rab	-12.4446
▁Joseph	-12.4446
▁comedy	-12.445
cho	-12.4451
▁billion	-12.4451
▁Fo	-12.4451
▁younger	-12.4462
Ha	-12.4462
ali	-12.4464
▁gift	-12.4468
▁response	-12.4471
▁appeal	-12.4471
▁odd	-12.4471
▁sugar	-12.4471
▁Valley	-12.4471
▁safety	-12.4471
▁label	-12.4472
▁noticed	-12.4475
▁products	-12.4482
▁Gold	-12.4488
▁Ce	-12.4488
▁challenge	-12.4493
▁bastard	-12.4496
▁dying	-12.4496
▁Tommy	-12.4496
head	-12.4497
▁pig	-12.4513
▁management	-12.4522
▁entirely	-12.4525
▁Gal	-12.4529
▁fingers	-12.4534
▁5,	-12.4543
▁benefit	-12.4544
▁Music	-12.4546
▁protest	-12.4547
▁Koh	-12.4548
▁dr	-12.4551
▁winning	-12.4552
▁Super	-12.4553
▁crowd	-12.4572
▁Edward	-12.4573
▁uniform	-12.4573
▁ON	-12.4573
table	-12.4581
SS	-12.4584
.]	-12.4586
▁Part	-12.4589
So	-12.4594
▁remind	-12.4596
▁forgive	-12.4598
▁jobs	-12.4599
▁task	-12.46
▁tongue	-12.4603
▁beach	-12.4608
▁walls	-12.4608
▁IS	-12.4609
▁remains	-12.4609
▁cell	-12.4609
with	-12.4617
▁matters	-12.4619
▁gentleman	-12.4624
▁tiny	-12.4627
rick	-12.4635
▁broadcast	-12.4647
▁northwest	-12.465
▁Everyone	-12.465
▁Too	-12.4652
clock	-12.466
▁Nick	-12.4662
There	-12.4667
▁cards	-12.4668
▁quit	-12.4673
rt	-12.4674
pro	-12.4676
▁Back	-12.4677
▁defeated	-12.4678
▁mar	-12.4683
▁Fu	-12.4684
ill	-12.4693
▁musical	-12.4696
▁professor	-12.4702
ola	-12.4702
lay	-12.4707
not	-12.471
▁steps	-12.4712
rail	-12.4713
ows	-12.4723
▁effort	-12.4725
▁Aunt	-12.4725
▁politics	-12.4728
▁bodies	-12.4728
▁Early	-12.4729
▁Someone	-12.4729
▁removed	-12.473
▁sail	-12.473
ify	-12.4738
ctor	-12.474
cent	-12.4742
▁Group	-12.4754
▁par	-12.4766
umble	-12.4767
▁likes	-12.477
form	-12.4772
▁Dutch	-12.478
▁Should	-12.478
pers	-12.478
▁Daddy	-12.478
▁thousands	-12.4781
▁harm	-12.4781
▁killer	-12.4793
▁historical	-12.48
▁bat	-12.4801
▁refer	-12.4804
▁bra	-12.4804
af	-12.4805
▁authority	-12.4807
▁flow	-12.4813
mic	-12.4821
▁ends	-12.4822
▁Pan	-12.4826
▁Tra	-12.4827
▁loud	-12.4829
▁qua	-12.4836
▁faster	-12.4837
▁shooting	-12.4838
lle	-12.484
▁Force	-12.4842
▁agent	-12.4852
els	-12.4854
oi	-12.4857
▁afford	-12.4859
▁usual	-12.4859
▁connected	-12.4861
▁fifth	-12.4861
▁manner	-12.4866
kh	-12.487
▁pan	-12.4871
▁1995	-12.4875
lou	-12.4875
cia	-12.4876
▁details	-12.4878
▁newspaper	-12.4883
▁failure	-12.4885
▁everywhere	-12.4885
▁egg	-12.4886
▁somewhat	-12.4886
▁honour	-12.4886
▁settled	-12.4887
ense	-12.4887
▁committee	-12.4888
Yeah	-12.4889
lick	-12.489
This	-12.4891
▁Holy	-12.4891
▁attacked	-12.4893
oli	-12.4899
De	-12.4901
▁Home	-12.4902
mal	-12.4905
how	-12.4908
▁sum	-12.4911
▁Parliament	-12.4911
▁Constitution	-12.4911
▁knife	-12.4911
▁2007	-12.4918
▁lake	-12.4922
ST	-12.4933
▁Cap	-12.4934
St	-12.4934
▁ga	-12.4934
▁Brother	-12.4936
▁awful	-12.4937
▁silent	-12.4938
▁matches	-12.494
▁provided	-12.4942
▁completed	-12.4944
lia	-12.4957
▁colour	-12.4957
ini	-12.4958
▁manage	-12.496
ei	-12.4963
▁sharp	-12.4963
▁traffic	-12.4965
hand	-12.4968
▁km	-12.4971
stone	-12.4979
▁contains	-12.4983
"?	-12.4987
board	-12.4991
▁appreciate	-12.4991
▁flower	-12.4991
▁useful	-12.4998
she	-12.4999
▁br	-12.5006
▁guns	-12.5007
phi	-12.5007
▁Dave	-12.501
▁steam	-12.502
▁2013,	-12.502
▁medal	-12.5021
▁closer	-12.5023
ound	-12.503
▁exist	-12.5032
▁develop	-12.5033
▁Wood	-12.5036
▁forgotten	-12.5045
▁cousin	-12.5047
▁Cho	-12.5052
▁highly	-12.5057
▁chose	-12.5068
▁Awards	-12.5069
▁salt	-12.5072
▁slightly	-12.5072
▁knowing	-12.508
▁thy	-12.5081
▁suck	-12.5086
war	-12.5089
fully	-12.5092
▁causes	-12.5099
▁branch	-12.51
hat	-12.5101
▁scale	-12.5102
▁Chris	-12.5103
▁Inter	-12.5103
▁BE	-12.5113
▁fired	-12.5115
▁eh	-12.5115
▁Art	-12.512
▁expensive	-12.5126
▁presence	-12.5126
▁budget	-12.5126
▁activity	-12.5126
▁Whoa	-12.5126
▁majority	-12.5127
▁western	-12.5128
▁progress	-12.5128
▁boo	-12.5128
▁Rob	-12.513
▁Film	-12.513
▁Order	-12.513
▁shame	-12.5137
IT	-12.5139
▁exchange	-12.5145
ib	-12.5147
▁ability	-12.515
▁Republican	-12.5151
▁Secretary	-12.5153
▁Prize	-12.5153
▁lips	-12.5153
▁Southern	-12.5154
ory	-12.5158
▁Va	-12.5162
▁Damn	-12.5168
▁bringing	-12.517
▁demand	-12.5176
▁studies	-12.518
▁fr	-12.5182
▁rep	-12.5198
▁vo	-12.5214
ars	-12.523
▁chain	-12.523
▁sentence	-12.5232
▁bell	-12.5234
▁weekend	-12.5235
▁ro	-12.5249
gy	-12.5249
▁Massachusetts	-12.5262
▁victory	-12.5262
▁Carolina	-12.5262
▁extremely	-12.5263
▁upset	-12.5265
▁feelings	-12.5267
▁Max	-12.5275
lock	-12.5281
LL	-12.5282
▁border	-12.5288
▁conference	-12.5289
▁status	-12.5289
▁Institute	-12.529
▁princess	-12.529
▁Jean	-12.529
▁suggested	-12.5292
▁claim	-12.5294
sia	-12.5297
ala	-12.5302
cle	-12.5308
▁brief	-12.5315
▁advice	-12.5317
▁cheese	-12.5317
▁slip	-12.5323
its	-12.5331
▁seek	-12.5336
ero	-12.5337
▁ge	-12.534
▁moral	-12.5341
▁defeat	-12.5342
▁hearing	-12.5344
▁climate	-12.5345
▁Os	-12.5349
▁WE	-12.5349
tai	-12.535
▁z	-12.535
▁copy	-12.535
▁Ay	-12.5368
▁crash	-12.5371
▁Michigan	-12.5372
▁criminal	-12.5372
▁fifteen	-12.5372
aki	-12.5377
▁map	-12.5386
je	-12.539
hill	-12.5391
▁guilty	-12.54
▁chest	-12.5402
rio	-12.5404
▁tower	-12.5422
sar	-12.5423
▁shoulder	-12.5425
▁nineteen	-12.5427
▁Again	-12.5428
▁worship	-12.5428
▁Society	-12.5428
▁understood	-12.5428
▁Addons	-12.5428
▁golden	-12.5429
▁narrow	-12.5429
zer	-12.5438
yard	-12.5449
▁Games	-12.545
▁Kansas	-12.5456
▁carbon	-12.5456
▁fully	-12.546
▁tough	-12.546
▁Pla	-12.5469
▁resources	-12.5471
▁concept	-12.5481
▁shift	-12.5481
▁flew	-12.5484
▁Senate	-12.5484
▁hanging	-12.5489
▁rough	-12.5489
rum	-12.549
rr	-12.5491
▁Cl	-12.5492
▁owned	-12.5495
▁clock	-12.5497
▁measure	-12.5499
Pa	-12.55
▁collection	-12.5511
▁federal	-12.5512
gh	-12.5512
▁upstairs	-12.5512
▁Down	-12.5513
▁planned	-12.5513
▁setting	-12.5513
ora	-12.5515
ser	-12.5526
▁appearance	-12.554
▁Light	-12.554
▁Death	-12.554
▁reference	-12.5543
▁passing	-12.5548
tting	-12.555
▁bite	-12.5551
ics	-12.5551
TV	-12.5554
▁Department	-12.5568
▁occurred	-12.5568
app	-12.557
▁awarded	-12.5571
▁Hmm	-12.5571
rim	-12.5576
ouch	-12.5578
▁soil	-12.5578
▁1999	-12.5579
▁1992	-12.5584
▁Cre	-12.5586
uk	-12.5596
▁apple	-12.5598
▁carefully	-12.56
EL	-12.56
▁lift	-12.5601
▁2008	-12.5604
tha	-12.5618
▁knock	-12.5619
▁nest	-12.562
VE	-12.562
▁blame	-12.5622
▁Middle	-12.5625
ima	-12.5626
▁proof	-12.563
▁Had	-12.5635
bye	-12.5638
▁orange	-12.5654
▁6,	-12.5654
▁otherwise	-12.5654
▁parties	-12.5656
▁2000	-12.5658
ula	-12.5663
▁presented	-12.5665
▁20,	-12.5669
▁Olympics	-12.567
▁1991	-12.5679
ose	-12.5681
▁Harry	-12.5683
▁Ohio	-12.5685
▁perfectly	-12.5686
▁Bat	-12.5705
▁Mhm	-12.5713
▁communication	-12.5714
▁sexual	-12.5717
▁owe	-12.5719
ering	-12.5732
▁understanding	-12.5734
▁limited	-12.5742
ava	-12.5746
rit	-12.5746
▁10,	-12.5747
▁advance	-12.5753
American	-12.5763
▁arrest	-12.5765
▁wise	-12.5766
▁combination	-12.5768
▁mountains	-12.5774
place	-12.5776
▁lion	-12.5778
▁watched	-12.5781
▁cont	-12.5782
▁trick	-12.5793
▁steal	-12.5795
▁1993	-12.5803
tie	-12.5806
▁grade	-12.5807
▁suggest	-12.5812
down	-12.5815
▁RE	-12.5818
▁pee	-12.5819
▁excited	-12.5826
Sa	-12.5827
▁represented	-12.5828
▁Try	-12.5829
▁Alex	-12.583
▁notes	-12.5832
▁discuss	-12.5844
ington	-12.5847
UR	-12.5849
▁counter	-12.5854
▁Sun	-12.5862
▁tears	-12.5863
▁recording	-12.5864
▁breaking	-12.5867
▁plate	-12.587
▁flash	-12.5882
▁programme	-12.5884
▁nervous	-12.5884
▁dancing	-12.5884
lf	-12.5885
▁unique	-12.5885
▁cheer	-12.5886
▁increased	-12.5888
▁fund	-12.5893
▁ME	-12.5907
▁express	-12.5908
▁alcohol	-12.591
▁destroy	-12.591
▁mix	-12.5911
▁transport	-12.5913
sur	-12.5915
omi	-12.5915
▁effects	-12.5916
▁""	-12.5918
_.	-12.5919
▁Kim	-12.5919
▁beside	-12.5924
▁pet	-12.5927
▁keeps	-12.5929
▁wings	-12.5932
▁Pete	-12.5941
ient	-12.5942
▁drove	-12.5943
▁eleven	-12.5943
▁governor	-12.5944
sch	-12.5947
aria	-12.5951
▁app	-12.5953
▁doors	-12.5953
▁pal	-12.5955
ress	-12.5961
▁Har	-12.5963
▁fro	-12.5973
▁magazine	-12.5973
▁root	-12.5973
▁declared	-12.5973
▁carrying	-12.5979
▁motion	-12.598
▁MAN	-12.5986
▁wave	-12.5987
▁Lou	-12.599
▁remembered	-12.5996
LY	-12.6
▁ninety	-12.6003
▁reaction	-12.6003
▁bullet	-12.6005
▁button	-12.601
▁laughing	-12.6011
▁helps	-12.6015
▁magic	-12.6016
ys	-12.6022
▁stated	-12.6027
▁Pennsylvania	-12.6031
▁basis	-12.6032
▁background	-12.6032
▁growth	-12.6033
▁height	-12.604
▁goods	-12.6047
lee	-12.6047
hoo	-12.6054
▁teachers	-12.6059
▁Emperor	-12.6061
▁Kentucky	-12.6061
▁2014	-12.6061
▁occur	-12.6062
cher	-12.6063
▁Welcome	-12.6063
▁Cross	-12.6066
▁agreement	-12.6067
ract	-12.6074
cal	-12.6088
NA	-12.609
▁shock	-12.609
▁Victoria	-12.6092
▁Senator	-12.6092
▁Water	-12.6092
▁apartment	-12.6093
▁signs	-12.6102
▁na	-12.6103
▁Van	-12.6103
▁Ver	-12.6114
▁bang	-12.6118
▁hung	-12.6119
▁freedom	-12.6121
▁devil	-12.6121
▁hiding	-12.6122
▁cream	-12.6124
tur	-12.6124
iff	-12.6126
rew	-12.6131
ras	-12.6134
▁stations	-12.6135
▁switch	-12.6145
▁balls	-12.6146
▁Sh	-12.6146
▁Fire	-12.6147
▁mail	-12.6149
▁thin	-12.615
▁Pacific	-12.6151
▁Ireland	-12.6151
▁Hurry	-12.6151
▁kidding	-12.6151
▁Williams	-12.6152
▁Johnson	-12.6152
▁normally	-12.6154
▁15,	-12.6157
▁shared	-12.6157
Cause	-12.6158
▁bow	-12.6166
▁III	-12.617
▁symbol	-12.6179
▁Exactly	-12.6181
▁Shakespeare	-12.6181
▁website	-12.6181
▁Anything	-12.6181
▁daily	-12.6181
▁FOR	-12.6181
▁Castle	-12.6181
▁12,	-12.6182
▁Andrew	-12.6183
▁fur	-12.6186
who	-12.6193
sie	-12.6196
ree	-12.6196
▁spare	-12.6201
▁owner	-12.6203
▁belong	-12.621
▁museum	-12.6211
▁vector	-12.6211
▁Democratic	-12.6211
▁pu	-12.6211
▁protection	-12.6213
night	-12.6222
▁plenty	-12.6241
▁comfortable	-12.6241
▁latter	-12.6241
▁figures	-12.6243
▁profit	-12.6248
▁pie	-12.6251
shire	-12.6251
▁staying	-12.6261
▁ate	-12.6264
▁Land	-12.6266
▁gods	-12.627
▁Museum	-12.6271
▁violence	-12.6271
bal	-12.6273
ept	-12.6274
▁mixed	-12.6274
ered	-12.6275
▁motor	-12.6276
▁sheep	-12.6277
▁Fr	-12.6284
OW	-12.6285
▁Mal	-12.6286
▁bowl	-12.629
rat	-12.6297
▁Lieutenant	-12.6302
▁pipe	-12.6302
▁eastern	-12.6302
▁aunt	-12.6305
▁paint	-12.6307
▁bunch	-12.6307
ote	-12.6308
").	-12.6313
▁Soon	-12.6313
▁survive	-12.6329
▁critical	-12.6331
▁variety	-12.6332
▁Civil	-12.6332
▁Boston	-12.6332
aries	-12.6334
▁invited	-12.6334
ok	-12.6338
▁Amy	-12.6341
▁Vo	-12.6343
ball	-12.6344
▁bother	-12.6348
pper	-12.635
▁follows	-12.6351
▁workers	-12.6355
▁piano	-12.6363
▁impact	-12.6363
▁steel	-12.6363
▁Jones	-12.6363
ater	-12.6369
▁Vice	-12.6369
▁additional	-12.6377
▁rent	-12.6389
▁disappeared	-12.6396
▁classes	-12.6396
▁3.	-12.6397
▁Anna	-12.6409
▁windows	-12.6411
ux	-12.6412
▁ka	-12.6412
bra	-12.6414
eth	-12.6416
▁supply	-12.6424
▁plot	-12.6424
eo	-12.6434
▁Eric	-12.6442
br	-12.6443
▁su	-12.645
▁slept	-12.6455
▁Sidney	-12.6455
▁idiot	-12.6455
▁changing	-12.6455
▁somehow	-12.6457
▁dozen	-12.6457
▁Shall	-12.6461
▁darling	-12.6486
▁innocent	-12.6486
▁Power	-12.6486
▁proposed	-12.6487
▁captured	-12.6488
▁j	-12.6493
▁temple	-12.6496
▁Char	-12.6499
▁ST	-12.6515
▁unknown	-12.6517
▁fallen	-12.6518
▁Cr	-12.6518
▁acid	-12.6519
▁edition	-12.6519
▁Cat	-12.6523
▁Such	-12.6524
▁squared	-12.6524
TE	-12.6527
▁powers	-12.6533
▁pin	-12.6534
TER	-12.6541
▁mill	-12.6543
▁priest	-12.6551
▁print	-12.6552
▁Turn	-12.6554
▁serving	-12.6554
▁operations	-12.6554
▁Romania	-12.6557
▁artists	-12.6559
▁solve	-12.6575
▁recognize	-12.6577
bus	-12.6577
▁attitude	-12.658
▁conflict	-12.658
▁cycle	-12.658
▁Night	-12.658
▁mama	-12.6581
▁associated	-12.6581
▁beer	-12.6585
RR	-12.6588
▁Mai	-12.6591
▁selling	-12.6592
▁gate	-12.6593
▁Move	-12.6603
▁sees	-12.6604
▁eaten	-12.6613
more	-12.6622
▁supported	-12.6622
▁sin	-12.6626
ealand	-12.6627
▁Bad	-12.6639
▁senior	-12.6642
▁stomach	-12.6642
▁Arthur	-12.6642
▁Elizabeth	-12.6642
▁girlfriend	-12.6643
▁clever	-12.6643
▁Six	-12.6644
▁holiday	-12.6645
▁victim	-12.6645
▁fairly	-12.6646
▁oldest	-12.6646
hmm	-12.6657
ago	-12.6661
▁paying	-12.6662
mm	-12.6665
▁opera	-12.6668
cus	-12.6671
▁suffering	-12.6676
▁arrested	-12.6677
▁yo	-12.6679
tis	-12.6694
▁flag	-12.67
ising	-12.6702
Al	-12.6703
▁juice	-12.6706
▁file	-12.6707
▁Wendy	-12.6707
▁Looks	-12.6717
▁suspect	-12.6734
▁Sergeant	-12.6737
▁balance	-12.6737
▁primary	-12.6737
▁ooh	-12.6738
▁monster	-12.6738
▁thoughts	-12.674
▁1950	-12.6741
▁roles	-12.6741
▁Sar	-12.6743
▁Were	-12.6744
die	-12.6747
US	-12.6748
▁Ali	-12.6749
▁upper	-12.675
▁materials	-12.6758
▁prefer	-12.6769
▁previously	-12.6771
▁featured	-12.6772
ort	-12.6773
▁2013.	-12.6779
▁producer	-12.6781
▁boom	-12.6786
▁tour	-12.6788
▁fields	-12.6796
lea	-12.6801
▁Festival	-12.6801
▁familiar	-12.6801
▁insurance	-12.6801
▁sixty	-12.6803
▁realized	-12.6807
▁2009	-12.6819
▁deck	-12.6824
▁Eh	-12.6827
▁Bee	-12.6833
▁ordinary	-12.6833
▁boyfriend	-12.6833
▁scientific	-12.6834
▁suffered	-12.6836
▁minister	-12.6837
▁treated	-12.6839
Is	-12.684
what	-12.6841
▁pure	-12.6843
▁Hor	-12.685
▁affect	-12.6853
▁pack	-12.6858
ros	-12.686
▁Crow	-12.6865
▁mirror	-12.6865
▁slide	-12.6865
▁determined	-12.6867
▁hoping	-12.6867
▁guest	-12.6869
dra	-12.6871
Bo	-12.6871
▁Station	-12.6874
▁apply	-12.6879
▁pink	-12.6881
▁bro	-12.6885
▁tight	-12.6886
▁patients	-12.6887
Ba	-12.6888
air	-12.6889
▁transfer	-12.6897
▁pilot	-12.6898
▁philosophy	-12.6898
▁Thus	-12.6898
▁handsome	-12.6899
▁argument	-12.6901
▁weapon	-12.6901
omp	-12.6907
▁7,	-12.6908
▁wheel	-12.6917
▁connect	-12.6925
▁deserve	-12.6927
▁desert	-12.6927
▁8,	-12.6928
▁festival	-12.693
▁dump	-12.693
▁2004	-12.6933
▁channel	-12.6934
▁11,	-12.6934
▁string	-12.6934
▁Ken	-12.6937
▁frame	-12.694
▁award	-12.6941
▁Yet	-12.6942
ico	-12.6942
▁mayor	-12.6944
▁seasons	-12.6944
▁dish	-12.6945
▁2011,	-12.6946
ular	-12.6951
▁Ram	-12.6954
▁deliver	-12.6955
▁favour	-12.6962
▁responsibility	-12.6962
▁basketball	-12.6962
▁existence	-12.6963
▁estate	-12.6963
▁apparently	-12.6963
▁Khan	-12.6971
▁bl	-12.6972
mor	-12.6974
▁1989	-12.6985
RI	-12.6988
ians	-12.699
▁begins	-12.6991
▁activities	-12.6995
▁economy	-12.6995
▁exercise	-12.6995
▁debt	-12.6995
▁fancy	-12.6995
fr	-12.6996
▁Live	-12.6997
▁platform	-12.6999
roll	-12.7001
▁wondering	-12.7003
ological	-12.7005
dar	-12.7015
atter	-12.7016
▁log	-12.7016
▁Ser	-12.7021
▁weapons	-12.7024
▁Lincoln	-12.7028
▁investigation	-12.7028
▁Jacob	-12.7028
▁incident	-12.7028
▁Wales	-12.7029
▁Alice	-12.7029
▁circumstances	-12.7031
log	-12.7039
▁je	-12.7043
Who	-12.7048
oe	-12.7049
▁plastic	-12.706
▁false	-12.706
▁assistant	-12.7061
▁burned	-12.7064
▁article	-12.7065
his	-12.7066
▁joint	-12.7068
▁via	-12.7072
pr	-12.7074
ement	-12.7076
xi	-12.7077
▁Times	-12.7078
ony	-12.7081
lie	-12.7091
▁hundreds	-12.7094
▁engaged	-12.7094
▁Northern	-12.7094
▁bride	-12.7095
Ho	-12.7096
lla	-12.712
▁pretend	-12.7121
They	-12.7124
▁sport	-12.7126
▁Val	-12.7128
▁seriously	-12.7131
▁Simon	-12.7134
▁highway	-12.7138
▁Pri	-12.7152
bert	-12.7155
▁witness	-12.7156
She	-12.7157
▁minor	-12.7159
▁courage	-12.716
▁1988	-12.7164
lNG	-12.7165
▁crossed	-12.7167
▁goodness	-12.7169
▁uns	-12.7172
vy	-12.7175
▁ver	-12.7176
oid	-12.7179
▁online	-12.7182
▁Ow	-12.7183
▁Pakistan	-12.7191
▁comfort	-12.7192
iggler	-12.7192
▁Atlantic	-12.7193
▁Besides	-12.7193
▁Director	-12.7193
▁pleasant	-12.7193
▁Fox	-12.7194
▁feature	-12.7194
▁dust	-12.7195
ova	-12.7199
▁Ste	-12.7201
▁Adam	-12.7205
▁Pope	-12.7206
▁Kill	-12.7211
del	-12.7214
▁brings	-12.7224
▁cheap	-12.7225
▁empire	-12.7226
▁Battle	-12.7228
lum	-12.7228
▁wished	-12.724
ically	-12.7244
▁Mum	-12.7248
dale	-12.725
▁effective	-12.7258
▁Ocean	-12.7259
▁Free	-12.7262
▁launched	-12.7262
▁Sy	-12.7268
▁films	-12.7268
▁Sc	-12.7272
▁link	-12.7277
▁towns	-12.7282
▁Bal	-12.7286
▁exact	-12.7292
▁Bro	-12.7292
▁13,	-12.7292
▁error	-12.7293
▁airport	-12.7293
▁Bridge	-12.7293
▁era	-12.7293
▁garage	-12.7293
▁Service	-12.7298
▁adult	-12.7298
▁riding	-12.7298
▁dude	-12.7299
▁Mont	-12.7299
Me	-12.7304
▁levels	-12.7307
▁Brian	-12.7307
▁vision	-12.731
bed	-12.7311
sign	-12.7314
▁sales	-12.732
▁leaders	-12.7322
▁Sur	-12.7325
▁Calvados	-12.7327
▁fortune	-12.7327
▁Carl	-12.7327
▁solid	-12.7329
▁ab	-12.7329
▁recognized	-12.733
▁ghost	-12.7332
uring	-12.7335
▁rare	-12.7341
▁diet	-12.7346
list	-12.7347
▁maintain	-12.7355
▁Talk	-12.7356
▁dig	-12.7359
▁funeral	-12.736
▁islands	-12.7364
▁chosen	-12.7365
▁discussion	-12.7366
uch	-12.7374
mes	-12.7376
rated	-12.7379
▁Ly	-12.7381
▁Want	-12.7382
▁waited	-12.7382
fo	-12.7387
▁library	-12.7394
▁rabbit	-12.7394
▁Jewish	-12.7394
▁Duke	-12.7395
▁Danny	-12.7395
▁intended	-12.7396
▁attended	-12.7397
▁electric	-12.7397
▁curious	-12.7398
hop	-12.7398
▁unusual	-12.7399
▁coal	-12.7407
▁dealing	-12.741
thing	-12.7414
▁continues	-12.7421
▁concern	-12.7428
▁Navy	-12.7428
▁jo	-12.744
▁(;	-12.7445
gle	-12.7445
bel	-12.7446
▁Bank	-12.746
▁Jersey	-12.7462
▁ugly	-12.7462
▁Islam	-12.7463
▁Stephen	-12.7465
▁wounded	-12.7465
ssi	-12.7466
▁justice	-12.7467
wo	-12.7469
▁painting	-12.7472
▁News	-12.7472
ension	-12.7473
▁rear	-12.7473
▁bu	-12.7473
▁ideal	-12.7475
▁Bush	-12.7477
▁whoa	-12.7481
▁rooms	-12.7485
▁butter	-12.7491
▁screw	-12.7494
▁Georgia	-12.7497
▁commonly	-12.7505
box	-12.7512
▁falls	-12.7513
▁spell	-12.7525
pu	-12.7527
▁Sub	-12.753
▁1982	-12.7531
▁Monday	-12.7531
▁labor	-12.7533
▁refused	-12.7533
▁ne	-12.7534
▁wound	-12.7534
▁efforts	-12.7535
rge	-12.7536
▁client	-12.7537
▁stands	-12.7545
▁1979	-12.7548
▁crown	-12.7553
▁threat	-12.7559
had	-12.7559
just	-12.7561
▁Irish	-12.7566
▁Ryan	-12.7566
▁earned	-12.7567
Let	-12.7568
▁gotten	-12.7568
▁lecture	-12.7571
▁Bull	-12.7574
sol	-12.7577
▁1984	-12.7579
ema	-12.7582
▁para	-12.7585
tar	-12.7591
▁multi	-12.7594
burg	-12.7598
▁happiness	-12.76
▁treasure	-12.76
▁Oxford	-12.76
▁importance	-12.76
▁reward	-12.7602
▁mental	-12.7602
fish	-12.7602
bri	-12.7605
hap	-12.7606
▁belief	-12.7606
▁pool	-12.7608
Good	-12.7612
▁friendly	-12.7614
uri	-12.7617
Da	-12.7618
this	-12.7621
▁poison	-12.7635
▁Colonel	-12.7635
▁poet	-12.7644
▁Tor	-12.7646
una	-12.7651
▁Roger	-12.7655
Di	-12.7656
▁16,	-12.7656
▁Pra	-12.7666
▁Swa	-12.7667
▁literature	-12.767
part	-12.7672
▁passage	-12.7674
▁wore	-12.7675
▁wi	-12.7676
rag	-12.7677
▁spin	-12.7685
zu	-12.7686
▁1987	-12.7688
▁noted	-12.7692
▁Mag	-12.7695
▁elements	-12.7697
▁basket	-12.7705
▁excellent	-12.7705
▁pension	-12.7705
▁Bell	-12.7707
▁limit	-12.7708
arm	-12.7718
hold	-12.772
water	-12.7724
ich	-12.7728
▁pointed	-12.7735
▁decisions	-12.7736
avi	-12.7738
▁Mer	-12.7739
▁valley	-12.774
▁Alexander	-12.774
▁Emily	-12.774
▁Yep	-12.774
ona	-12.7742
▁rope	-12.7744
▁Wall	-12.7749
▁finds	-12.7749
phone	-12.7749
▁Know	-12.775
Sh	-12.7758
uz	-12.7769
▁obvious	-12.7773
▁beneath	-12.7775
▁hidden	-12.7775
▁brush	-12.7775
▁reign	-12.7775
bre	-12.778
▁aid	-12.7782
▁Run	-12.7795
▁Baby	-12.7807
▁Egypt	-12.7808
▁Until	-12.781
▁shook	-12.7811
▁Wal	-12.7812
▁hunting	-12.7813
▁Eastern	-12.7814
LA	-12.782
qua	-12.7829
▁tend	-12.784
▁pr	-12.7843
▁homes	-12.7845
▁Education	-12.7846
▁territory	-12.7846
▁flood	-12.7846
van	-12.7846
▁Coast	-12.7846
▁Dis	-12.7854
▁intention	-12.7856
▁rail	-12.7858
ugh	-12.7878
tta	-12.788
▁Committee	-12.7881
▁suicide	-12.7881
▁Turkey	-12.7881
late	-12.7885
▁9,	-12.7885
bli	-12.7904
▁Hol	-12.7904
▁Nat	-12.7905
▁Jill	-12.791
▁Hang	-12.7916
▁allows	-12.7916
▁Johnny	-12.7919
▁loan	-12.7924
▁comment	-12.7925
ith	-12.7926
▁strip	-12.7929
▁fed	-12.7932
▁compete	-12.795
▁domestic	-12.7953
▁Berlin	-12.7953
▁committed	-12.7953
▁darkness	-12.7954
▁creating	-12.7955
▁Dean	-12.7958
mat	-12.796
rage	-12.7961
▁generation	-12.7964
▁Officer	-12.7964
▁fishing	-12.7964
▁Mad	-12.7966
cut	-12.7967
▁beg	-12.7971
As	-12.7978
▁Tre	-12.7981
▁2014,	-12.7981
▁assume	-12.7986
▁Twenty	-12.7989
▁Sarah	-12.799
▁Board	-12.799
▁Top	-12.7991
▁chamber	-12.7992
▁sale	-12.7993
▁explained	-12.7996
tti	-12.7996
▁Play	-12.8004
eck	-12.8005
▁passion	-12.8006
▁Em	-12.8011
eu	-12.8014
▁mood	-12.8017
TH	-12.8017
▁sorts	-12.802
▁struggle	-12.8022
▁Albert	-12.8022
▁Supreme	-12.8025
▁referred	-12.8025
▁seventy	-12.8026
▁Hy	-12.8027
▁investment	-12.8027
▁selected	-12.8027
▁officially	-12.8029
tus	-12.803
▁Fred	-12.803
▁aside	-12.8031
▁Kong	-12.8032
ati	-12.8038
▁degrees	-12.8043
▁environmental	-12.8049
▁Gre	-12.8049
▁surely	-12.8051
▁HO	-12.8054
▁sons	-12.8061
▁enemies	-12.8061
▁stress	-12.8061
▁impression	-12.8062
▁ju	-12.8062
▁fuel	-12.8063
▁locked	-12.8066
▁document	-12.8069
▁pattern	-12.8069
▁Game	-12.8086
▁rode	-12.8087
▁ja	-12.8087
pur	-12.8088
vel	-12.8093
iness	-12.8097
▁association	-12.8098
▁complicated	-12.8098
▁nearby	-12.8099
▁Billy	-12.8101
▁proved	-12.8104
▁armed	-12.8106
▁del	-12.8108
▁23,	-12.812
▁es	-12.8121
zy	-12.8125
▁fate	-12.8125
ene	-12.8126
▁sy	-12.8127
ira	-12.8127
▁suffer	-12.8128
▁scheme	-12.8134
▁ladder	-12.8135
▁hired	-12.8136
▁glasses	-12.8136
▁unable	-12.8138
▁mode	-12.8138
▁healthy	-12.8138
hel	-12.814
▁overall	-12.8142
▁parent	-12.8143
▁touched	-12.8144
Now	-12.8148
▁scientists	-12.8148
▁30,	-12.8148
Go	-12.8149
hem	-12.8149
▁faint	-12.815
▁values	-12.8159
▁awake	-12.817
▁compared	-12.8172
▁Islands	-12.8174
▁pages	-12.8176
▁harder	-12.8185
▁buying	-12.8188
▁Book	-12.8195
lim	-12.82
▁aim	-12.8201
▁pla	-12.8202
AD	-12.8204
▁repeat	-12.8205
gre	-12.8207
▁communities	-12.8208
▁entrance	-12.8208
▁regret	-12.8208
▁Beach	-12.8212
▁arch	-12.8216
lai	-12.8223
▁Ever	-12.8223
▁depends	-12.8227
was	-12.8231
▁Switzerland	-12.8244
▁Railway	-12.8245
▁26,	-12.8263
▁reports	-12.8268
Hi	-12.8271
▁fleet	-12.828
▁nu	-12.8281
▁horrible	-12.8281
▁romantic	-12.8281
▁Jr	-12.8286
era	-12.8289
▁Matt	-12.8289
und	-12.8292
▁Records	-12.8294
▁citizens	-12.8297
▁millions	-12.8298
long	-12.83
iro	-12.8301
LO	-12.8301
▁tank	-12.8303
AM	-12.8303
▁25,	-12.8305
▁belongs	-12.8317
▁moves	-12.8317
▁severe	-12.8317
▁Mazraeh	-12.8319
▁software	-12.8319
▁conduct	-12.8319
▁truly	-12.832
▁properly	-12.8321
▁whenever	-12.8322
▁creature	-12.8327
▁web	-12.8328
▁1981	-12.8333
based	-12.8333
▁1971	-12.8337
▁load	-12.8339
▁tied	-12.8341
▁Stand	-12.8342
rry	-12.8347
▁grant	-12.8349
▁ph	-12.835
▁discover	-12.8354
lus	-12.8356
ega	-12.8357
▁Instead	-12.8358
▁spending	-12.8364
▁element	-12.8365
▁Seven	-12.8366
▁Leo	-12.8367
▁Commander	-12.8367
▁portion	-12.837
▁Head	-12.8374
▁anger	-12.8378
▁pit	-12.8382
ying	-12.8384
▁Town	-12.8393
▁merchant	-12.8393
▁random	-12.8393
▁Walter	-12.8396
▁closely	-12.8404
"),	-12.841
▁factor	-12.8413
▁sisters	-12.8414
▁trans	-12.8415
▁equals	-12.8415
fire	-12.8417
bia	-12.8421
▁launch	-12.8428
boy	-12.843
▁prior	-12.8431
▁analysis	-12.8431
▁numerous	-12.8431
▁bathroom	-12.8431
▁Number	-12.8431
▁Philip	-12.8434
▁describe	-12.8437
▁1986	-12.8441
▁Tar	-12.8442
▁dec	-12.8446
ked	-12.8458
▁14,	-12.8463
▁angle	-12.8464
▁mile	-12.8465
▁hook	-12.8466
▁Erasmus	-12.8469
▁brilliant	-12.8469
▁emergency	-12.8469
▁Police	-12.8469
▁Betty	-12.8469
▁Trust	-12.8469
uit	-12.8471
▁toilet	-12.8473
▁marked	-12.8475
▁eighty	-12.8476
var	-12.8476
▁1994	-12.8476
▁income	-12.8478
Where	-12.8484
which	-12.8484
▁Place	-12.8485
▁net	-12.8486
▁gi	-12.8491
▁SO	-12.8491
▁ending	-12.8492
verse	-12.8494
▁24,	-12.8494
▁Metro	-12.8498
▁Radio	-12.8501
▁Au	-12.8502
ways	-12.8503
▁bull	-12.8506
▁CHAPTER	-12.8507
▁injury	-12.8507
▁orchestra	-12.8507
▁debate	-12.8507
▁Francisco	-12.8507
▁Boss	-12.8507
▁Dam	-12.8507
▁sixth	-12.8512
▁enjoyed	-12.8513
▁application	-12.8516
▁el	-12.8516
▁script	-12.8517
▁instructions	-12.8517
GH	-12.8521
▁colors	-12.8523
▁Cut	-12.8528
For	-12.8531
point	-12.8532
▁Office	-12.8533
▁reduce	-12.8542
▁alternative	-12.8545
▁advanced	-12.8549
▁reviews	-12.855
▁winner	-12.8555
▁17,	-12.8556
▁Tang	-12.8557
rre	-12.8558
▁AT	-12.8559
▁ok	-12.8567
rich	-12.8567
spe	-12.8567
ime	-12.8568
book	-12.8571
sky	-12.858
▁Germans	-12.8582
▁Mel	-12.8583
▁Mur	-12.8584
ost	-12.8597
▁1976	-12.8603
dor	-12.8604
▁witch	-12.8605
▁emotional	-12.8607
▁nominated	-12.8621
▁swimming	-12.8621
▁composed	-12.8622
▁observed	-12.8623
mus	-12.8626
▁tools	-12.863
▁ski	-12.8631
▁Bla	-12.8634
▁rush	-12.8635
▁woods	-12.8649
pic	-12.865
Come	-12.8651
▁creation	-12.8657
▁represent	-12.8659
▁FIFA	-12.866
▁atmosphere	-12.866
▁principal	-12.866
▁theme	-12.8661
▁Sister	-12.8663
▁toys	-12.8663
▁Sara	-12.8663
▁pity	-12.8665
▁1985	-12.8665
▁cooking	-12.8666
▁stronger	-12.8666
rest	-12.867
▁Sim	-12.8674
▁grab	-12.8676
foot	-12.8676
▁None	-12.8676
▁sacrifice	-12.8677
get	-12.8679
▁sec	-12.8683
▁Fort	-12.8695
▁potential	-12.8697
▁Greece	-12.8698
▁description	-12.8698
▁liquid	-12.8698
▁ridiculous	-12.8698
▁buddy	-12.8698
▁Team	-12.87
▁perform	-12.8707
▁ticket	-12.8708
known	-12.8709
▁beating	-12.8727
cker	-12.8728
▁pale	-12.8729
▁journalist	-12.8734
ila	-12.8734
▁explanation	-12.8737
▁independence	-12.8737
▁horror	-12.8737
▁saving	-12.8737
▁Goodbye	-12.8737
▁lonely	-12.8737
▁disc	-12.8741
ori	-12.8745
▁fu	-12.8749
worth	-12.8753
▁badly	-12.8754
▁Cla	-12.8755
▁Mind	-12.8757
view	-12.8757
▁Sand	-12.8757
hur	-12.8774
▁Missouri	-12.8776
press	-12.8776
▁Wilson	-12.8776
▁Hot	-12.8778
▁Oliver	-12.8778
▁burning	-12.8781
▁champion	-12.8786
Po	-12.8787
▁bike	-12.879
▁chemical	-12.879
itch	-12.8791
▁dumb	-12.8791
gent	-12.8803
rant	-12.8803
▁Mari	-12.8808
▁remove	-12.8812
▁reveal	-12.8812
▁centuries	-12.8815
▁exciting	-12.8815
▁operating	-12.8815
▁adopted	-12.8816
cast	-12.8817
▁yard	-12.8819
▁fail	-12.882
▁methods	-12.8823
▁detail	-12.8823
gel	-12.8825
▁18,	-12.8831
▁AD	-12.8844
▁Ci	-12.8845
och	-12.8848
▁capture	-12.8851
▁statistics	-12.8854
▁massive	-12.8855
▁frightened	-12.8855
▁desk	-12.8856
RS	-12.8856
▁succeeded	-12.8856
▁2003	-12.8857
▁painted	-12.8858
▁Bring	-12.8859
▁Santa	-12.8859
▁ruled	-12.8861
▁tradition	-12.8864
▁restaurant	-12.8865
....	-12.8866
▁folks	-12.8881
▁trains	-12.8888
▁secure	-12.8891
▁applied	-12.8893
▁expedition	-12.8893
▁identity	-12.8893
▁Stuart	-12.8894
▁Somebody	-12.8894
▁cultural	-12.8898
▁difficulty	-12.8899
▁Hong	-12.8899
▁wire	-12.8903
▁2022)	-12.8909
lid	-12.8909
aco	-12.8911
ller	-12.8915
▁tracks	-12.8923
▁Aye	-12.8927
▁phrase	-12.8933
▁2007,	-12.8934
▁parish	-12.8934
▁Cal	-12.8937
TS	-12.8947
▁Gil	-12.8948
also	-12.895
atory	-12.8951
▁Jay	-12.8954
▁Sl	-12.8955
▁twin	-12.8959
rv	-12.8966
▁lands	-12.8968
hip	-12.8969
▁equipment	-12.8973
▁Robin	-12.8974
▁factory	-12.8975
▁formation	-12.8979
▁Arm	-12.8979
▁sink	-12.898
▁squ	-12.8982
▁volume	-12.8984
▁sending	-12.8988
dies	-12.8993
MA	-12.8994
▁Nar	-12.8996
▁2009,	-12.8999
▁Romaniz	-12.9001
▁relations	-12.9001
phy	-12.9008
UT	-12.9009
anna	-12.9012
▁gentle	-12.9012
▁industrial	-12.9013
▁Through	-12.9013
▁Charlie	-12.9013
▁meal	-12.9014
▁editor	-12.9014
▁revealed	-12.9015
▁Mario	-12.9019
tric	-12.9022
▁bid	-12.9024
▁relation	-12.9024
▁nurse	-12.9026
aught	-12.9028
lit	-12.9033
hood	-12.9035
IS	-12.9035
▁Ash	-12.9042
▁1978	-12.9048
▁Margaret	-12.9053
▁babies	-12.9053
▁surrounded	-12.9053
▁punishment	-12.9054
▁regarded	-12.9055
▁Count	-12.9066
fall	-12.9069
east	-12.9071
ace	-12.9073
▁demo	-12.9076
▁21,	-12.9086
▁stretch	-12.909
▁Columbia	-12.9093
▁Douglas	-12.9093
▁burst	-12.9093
▁authorities	-12.9093
▁Justice	-12.9094
▁engineering	-12.9096
▁device	-12.9105
▁covers	-12.9105
▁nights	-12.9117
▁chart	-12.9122
MS	-12.9129
▁keys	-12.913
▁annual	-12.9132
▁Public	-12.9133
▁Disney	-12.9133
▁permission	-12.9133
▁dawn	-12.9133
▁cruel	-12.9134
▁jacket	-12.9135
▁possession	-12.9135
▁alien	-12.9137
▁Point	-12.9139
▁Basse	-12.9143
▁1983	-12.9146
tel	-12.915
▁trained	-12.9151
▁fore	-12.9152
▁collect	-12.916
▁Ter	-12.9166
matic	-12.9168
▁graph	-12.9168
uh	-12.9169
▁argue	-12.9171
ump	-12.9171
▁2012.	-12.9172
Illustration	-12.9174
▁Sweden	-12.9174
▁maiden	-12.9175
▁literally	-12.9176
▁Grey	-12.9176
▁symptoms	-12.9178
lash	-12.918
▁visited	-12.9181
ase	-12.9183
▁fans	-12.9187
igh	-12.9191
▁bug	-12.9193
rid	-12.9195
▁talks	-12.9198
▁commander	-12.9203
▁1964	-12.9205
▁scratch	-12.9214
▁confused	-12.9215
▁spite	-12.9215
▁gained	-12.9219
▁separated	-12.922
▁pushed	-12.9223
▁Science	-12.9226
▁option	-12.9226
rous	-12.9228
▁Cape	-12.9229
▁AS	-12.9231
▁whi	-12.9247
▁victims	-12.9251
▁swim	-12.9255
▁Aisne	-12.9255
▁elephant	-12.9255
▁banana	-12.9255
▁BBC	-12.9255
▁shopping	-12.9255
▁format	-12.9258
▁claimed	-12.9259
▁gene	-12.9262
▁cricket	-12.9262
unk	-12.927
▁examples	-12.9273
hou	-12.9273
tho	-12.9276
▁27,	-12.9277
▁semi	-12.9279
umb	-12.9282
▁attend	-12.9284
denote	-12.9285
▁Eu	-12.9288
▁interests	-12.929
ups	-12.9294
▁extreme	-12.9294
▁practical	-12.9294
▁initial	-12.9294
▁waves	-12.9295
▁Special	-12.9296
▁Probably	-12.9296
▁illegal	-12.9296
▁Dawson	-12.9296
▁Clark	-12.9296
▁opposed	-12.9297
EC	-12.9309
▁2021	-12.9309
▁1975	-12.9311
▁Ted	-12.9315
cke	-12.9316
ject	-12.9317
▁rap	-12.932
▁contain	-12.9322
▁Way	-12.9326
try	-12.9334
▁aircraft	-12.9337
▁grey	-12.9337
▁remaining	-12.9343
mate	-12.9343
▁1930	-12.9349
▁por	-12.935
▁gang	-12.9353
▁va	-12.9353
▁skills	-12.9356
onic	-12.9358
▁Es	-12.936
five	-12.9366
dis	-12.9373
▁Kar	-12.9374
▁administration	-12.9378
▁depth	-12.9378
▁executive	-12.9378
▁breast	-12.9378
▁Without	-12.9379
▁theatre	-12.938
▁mobile	-12.9383
ddle	-12.9383
▁Howard	-12.9384
▁jack	-12.9385
▁charged	-12.9387
▁offering	-12.9387
▁murdered	-12.9389
looking	-12.9399
▁2002	-12.9406
Ro	-12.9406
▁guide	-12.9417
▁smooth	-12.942
▁spiritual	-12.942
▁Sil	-12.942
▁appointment	-12.9421
▁Post	-12.9427
▁flu	-12.9429
▁goals	-12.9431
▁Indians	-12.9436
▁maid	-12.9437
ously	-12.9439
▁Band	-12.9443
▁CD	-12.9443
▁doo	-12.9444
▁leads	-12.9445
▁Ph	-12.9445
mbo	-12.9447
▁Tim	-12.946
▁Bishop	-12.9462
▁WHAT	-12.9462
▁Eddie	-12.9462
▁phase	-12.9462
▁approximately	-12.9462
▁Children	-12.9462
▁clothing	-12.9464
▁affected	-12.9465
▁jumped	-12.9468
▁holds	-12.9469
cat	-12.947
▁occasion	-12.9474
▁experiment	-12.9478
▁wanting	-12.9479
called	-12.9481
▁sources	-12.9481
otic	-12.9484
oni	-12.9496
mas	-12.9499
▁2008,	-12.9499
aga	-12.9502
▁guitar	-12.9502
lot	-12.9503
▁goddess	-12.9503
▁revenge	-12.9503
▁shadow	-12.9504
▁confidence	-12.9505
▁2011.	-12.951
UN	-12.9511
ENT	-12.9513
ching	-12.9516
▁vehicle	-12.9517
▁Phil	-12.9519
▁BC	-12.9519
▁folk	-12.9522
▁regions	-12.9528
▁deposit	-12.9533
elle	-12.9534
rp	-12.9539
OS	-12.954
▁disappear	-12.9542
▁Mexican	-12.9545
▁Nintendo	-12.9545
▁global	-12.9545
▁possibility	-12.9545
▁sacred	-12.9545
▁inhabitants	-12.9545
▁freak	-12.9545
▁knight	-12.9546
▁surrounding	-12.9546
▁yep	-12.9547
aka	-12.9551
▁escaped	-12.9554
▁Arab	-12.9555
▁studying	-12.9556
ried	-12.956
▁checked	-12.9561
▁stranger	-12.9562
▁theater	-12.9565
aps	-12.9567
▁provides	-12.9568
phe	-12.9575
▁Pur	-12.9576
▁pray	-12.9581
▁improve	-12.9583
most	-12.9585
amo	-12.9585
▁appropriate	-12.9588
▁emperor	-12.9588
▁pregnant	-12.9588
▁Miller	-12.9591
▁widely	-12.9592
▁knocked	-12.9592
▁Gor	-12.9595
▁issued	-12.9596
▁acted	-12.9599
hole	-12.96
▁musician	-12.9603
▁speaker	-12.9603
▁boats	-12.9609
▁acts	-12.962
▁1940	-12.9622
▁1973	-12.9623
▁engineer	-12.9626
▁relax	-12.9627
vor	-12.9629
▁Ger	-12.963
▁Muhammad	-12.963
▁Netherlands	-12.963
▁envelope	-12.963
▁parallel	-12.963
▁puzzle	-12.963
▁reckon	-12.963
▁Bruce	-12.9631
▁payment	-12.9631
▁friendship	-12.9637
▁crossing	-12.964
▁Allen	-12.9644
ency	-12.9649
▁objects	-12.9649
▁cats	-12.9651
ark	-12.9657
ND	-12.9658
▁shell	-12.9669
bat	-12.9671
read	-12.9672
▁ceremony	-12.9673
▁identify	-12.9673
▁survey	-12.9673
▁legend	-12.9673
▁fetch	-12.9673
▁capable	-12.9673
LI	-12.9674
▁combined	-12.9674
▁Absolutely	-12.9674
▁Stone	-12.9675
ink	-12.9681
▁ruin	-12.9684
▁toast	-12.9685
Wa	-12.9685
cious	-12.9685
▁actions	-12.9689
▁doctors	-12.9691
gro	-12.9691
ppe	-12.9697
▁blocks	-12.9698
ito	-12.9701
▁bones	-12.9702
▁views	-12.9711
gal	-12.9712
▁2010.	-12.9713
▁Thursday	-12.9715
▁necessarily	-12.9715
▁Channel	-12.9715
▁rival	-12.9715
▁Health	-12.9715
ella	-12.9716
▁pants	-12.9716
▁stamp	-12.9717
▁warning	-12.972
▁fold	-12.972
▁districts	-12.9724
▁scar	-12.9725
RY	-12.9725
ert	-12.973
▁Off	-12.973
▁Vol	-12.9732
▁prisoners	-12.9738
owed	-12.9741
▁lt	-12.9741
▁hoped	-12.9742
▁1974	-12.9743
▁bits	-12.9745
▁4.	-12.9746
uld	-12.9748
▁Though	-12.9749
▁typical	-12.9757
▁besides	-12.9757
▁session	-12.9758
▁trunk	-12.9759
▁soup	-12.9761
▁delivered	-12.9762
mark	-12.9766
▁pur	-12.977
Not	-12.9771
▁shortly	-12.9771
▁listed	-12.9775
▁shoulders	-12.9777
▁Grandma	-12.9777
▁poll	-12.978
▁comic	-12.9786
▁Press	-12.9788
▁Cur	-12.9791
AS	-12.9791
▁lit	-12.9791
▁evolution	-12.9796
▁internal	-12.9797
▁glance	-12.9798
▁introduce	-12.9798
▁Singapore	-12.9801
▁earthquake	-12.9801
▁sought	-12.9801
▁rising	-12.9801
▁copies	-12.9801
▁Morning	-12.9802
▁personality	-12.9803
▁Ready	-12.9803
▁defense	-12.9804
▁reduced	-12.9805
▁personally	-12.9808
▁Gene	-12.9818
▁NO	-12.9819
▁disco	-12.982
ridge	-12.9826
▁regional	-12.9828
▁Guard	-12.9843
Normandie	-12.9845
▁Protestant	-12.9845
▁Taiwan	-12.9845
▁discipline	-12.9845
▁spoon	-12.9845
▁carriage	-12.9845
▁graduated	-12.9847
▁noble	-12.9848
▁meters	-12.9848
▁ruler	-12.9849
▁benefits	-12.985
Br	-12.985
▁snake	-12.986
▁critic	-12.9867
▁1969	-12.9868
CE	-12.9869
▁individuals	-12.9869
▁unco	-12.9874
▁MD	-12.9874
rou	-12.9883
▁classic	-12.9884
▁mere	-12.9885
▁prepare	-12.9885
▁roads	-12.9886
▁purple	-12.9888
▁Human	-12.989
▁Mount	-12.989
▁satisfied	-12.9891
▁stable	-12.9894
▁hunt	-12.9895
▁drinks	-12.9899
▁equation	-12.9903
▁Cole	-12.9904
class	-12.9909
▁28,	-12.9913
gate	-12.9914
▁rings	-12.9917
▁machines	-12.9918
hl	-12.9919
▁founder	-12.9921
▁goat	-12.9927
▁Family	-12.9932
▁guarantee	-12.9932
▁swallow	-12.9932
▁persons	-12.9937
▁vast	-12.9938
PS	-12.9939
▁rice	-12.9942
mont	-12.995
isa	-12.9952
▁videos	-12.9955
▁marks	-12.9958
sure	-12.9959
far	-12.9962
▁guests	-12.9971
vil	-12.9972
vision	-12.9972
▁behavior	-12.9976
▁definition	-12.9976
▁neighborhood	-12.9976
▁telephone	-12.9976
▁discovery	-12.9977
▁merely	-12.9977
▁fairy	-12.9981
▁Chu	-12.9986
umi	-12.9987
▁voices	-12.9989
▁Ask	-12.9993
odo	-12.9995
▁achieve	-13.0009
▁shower	-13.0009
▁presentation	-13.0011
utter	-13.0019
▁sequence	-13.002
▁insult	-13.002
▁naked	-13.002
ibility	-13.002
▁controlled	-13.002
▁Gordon	-13.0022
▁granted	-13.0023
▁Arts	-13.0025
▁versions	-13.0028
▁figured	-13.0033
▁Mill	-13.0038
▁items	-13.0042
▁arts	-13.0049
rush	-13.0055
▁settle	-13.0058
▁architecture	-13.0064
▁Better	-13.0064
▁1968	-13.0065
▁arranged	-13.0066
▁fond	-13.0068
▁1972	-13.0069
▁organized	-13.007
▁Tro	-13.0071
▁bump	-13.0072
eal	-13.0073
▁Sho	-13.0074
lau	-13.0079
▁Song	-13.009
coming	-13.0091
▁knees	-13.0092
▁devices	-13.0096
▁1945	-13.0098
▁Ferr	-13.0099
ache	-13.0105
iva	-13.0105
▁valuable	-13.0108
▁grain	-13.0108
▁shelter	-13.0109
▁sauce	-13.0109
▁Darling	-13.0109
wing	-13.0109
eng	-13.011
▁branches	-13.011
▁cutting	-13.011
▁extended	-13.0111
▁climb	-13.0114
rad	-13.0115
play	-13.0115
▁scenes	-13.0116
▁Ham	-13.012
▁CO	-13.0123
▁knee	-13.0124
New	-13.0131
oa	-13.0131
▁mud	-13.0133
▁(_	-13.0145
sti	-13.0145
▁replace	-13.0149
▁divide	-13.015
▁instant	-13.0151
▁Brazil	-13.0152
SPEAK	-13.0153
▁Conference	-13.0153
▁Toronto	-13.0153
▁bedroom	-13.0153
▁counsel	-13.0154
▁begun	-13.0157
▁lamp	-13.0158
▁Class	-13.016
▁kissed	-13.016
▁smiled	-13.016
▁Israel	-13.0161
▁panel	-13.0162
▁listened	-13.017
▁emotions	-13.0172
▁moments	-13.0174
▁jam	-13.0185
▁CA	-13.0186
dio	-13.0193
▁rank	-13.0194
▁graduate	-13.0195
▁respond	-13.0195
▁despite	-13.0198
▁superior	-13.0198
▁context	-13.0198
▁anxious	-13.0198
▁Kevin	-13.0198
▁Honey	-13.0198
▁Short	-13.0198
▁Palace	-13.0198
▁household	-13.0198
wick	-13.02
via	-13.0201
▁Poor	-13.0203
▁quietly	-13.0203
▁hills	-13.0209
▁und	-13.0211
ease	-13.0213
▁Wil	-13.0219
▁sew	-13.0226
imi	-13.0228
TA	-13.0237
▁Centre	-13.0243
▁Google	-13.0243
▁nathaniel	-13.0243
▁pollution	-13.0243
▁nuclear	-13.0243
▁surgery	-13.0243
▁childhood	-13.0243
▁inspired	-13.0243
▁abandoned	-13.0244
▁des	-13.0246
▁letting	-13.025
los	-13.0255
▁Nu	-13.0257
▁lately	-13.0258
▁rat	-13.0261
aste	-13.0263
▁loop	-13.0263
▁nuts	-13.0265
▁MA	-13.027
▁Lock	-13.0277
▁Honor	-13.0277
▁punch	-13.0278
▁Sing	-13.0279
ois	-13.0283
▁license	-13.0285
▁hearts	-13.0286
▁alarm	-13.0286
▁Federal	-13.0288
▁Matthew	-13.0288
▁joseph	-13.0288
▁relief	-13.0288
▁dramatic	-13.0288
▁Julia	-13.0288
▁alongside	-13.0289
▁HAVE	-13.0295
].	-13.0302
pot	-13.0305
▁championship	-13.0305
▁composer	-13.0305
▁leap	-13.0306
▁bio	-13.0309
When	-13.0311
▁puts	-13.0313
▁Mil	-13.0315
bury	-13.0315
abi	-13.0317
ille	-13.0319
▁mat	-13.0321
▁Assembly	-13.0334
▁Hospital	-13.0334
▁strategy	-13.0334
▁Picard	-13.0334
▁Airport	-13.0334
▁jury	-13.0334
▁belt	-13.0334
▁Shiv	-13.0337
▁temper	-13.0338
▁sailed	-13.0339
▁Syria	-13.034
▁answers	-13.0341
Ar	-13.0341
ode	-13.0343
▁require	-13.0348
▁relative	-13.0349
▁returning	-13.0349
▁minds	-13.0356
issue	-13.0357
▁App	-13.0358
▁Kra	-13.0361
Ja	-13.0361
ida	-13.0364
ique	-13.037
▁Brad	-13.0375
▁NOT	-13.0377
Laughter	-13.0379
▁hockey	-13.0379
▁maximum	-13.0379
▁smiling	-13.0379
▁Campbell	-13.0379
▁fourteen	-13.0379
▁monkey	-13.0379
▁stepped	-13.0379
▁illness	-13.038
▁withdraw	-13.0381
▁gathered	-13.0382
▁Rick	-13.0386
▁Hart	-13.0388
▁doll	-13.0398
▁pirate	-13.0399
oca	-13.0401
▁Mmm	-13.0402
May	-13.0403
▁photos	-13.0404
ites	-13.0415
▁grateful	-13.0425
▁statue	-13.0425
▁throne	-13.0425
▁Philadelphia	-13.0426
▁Personal	-13.0427
▁Bible	-13.0427
▁YOUR	-13.0431
uick	-13.0432
▁def	-13.0436
▁Comp	-13.0438
▁Check	-13.0439
▁candidate	-13.0441
▁cabin	-13.0443
▁micro	-13.0446
▁temp	-13.0456
▁yards	-13.0459
▁elections	-13.0461
▁reputation	-13.0471
▁chapter	-13.0471
▁Finally	-13.0472
▁Maine	-13.0473
▁Golden	-13.0476
has	-13.0481
mail	-13.0483
eri	-13.0485
▁Brand	-13.0489
▁villages	-13.0489
▁images	-13.0491
▁1947	-13.0495
▁Mas	-13.0508
▁Nine	-13.0511
▁proceed	-13.0515
▁Ross	-13.0515
cap	-13.0515
▁absolute	-13.0516
▁Indonesia	-13.0518
▁apologize	-13.0518
▁assault	-13.0518
▁thread	-13.0518
▁zone	-13.0518
▁promoted	-13.0521
▁scored	-13.0523
oz	-13.0524
aging	-13.0527
▁Hindu	-13.0528
▁pitch	-13.053
▁MY	-13.0531
▁mor	-13.0535
ison	-13.0535
once	-13.0537
▁crawl	-13.0537
▁mono	-13.0539
▁Real	-13.0539
▁seed	-13.0546
▁drives	-13.0548
ule	-13.0548
▁1963	-13.0555
▁Earl	-13.0563
▁Idaho	-13.0564
▁oxygen	-13.0564
▁powder	-13.0564
▁protein	-13.0564
▁underground	-13.0564
▁Miami	-13.0564
▁identified	-13.0564
▁admitted	-13.0564
▁frequently	-13.0565
▁attacks	-13.0566
ech	-13.0566
▁neat	-13.0567
mph	-13.0569
aring	-13.0574
▁Morgan	-13.0582
▁column	-13.0582
ister	-13.0584
▁Test	-13.0588
laughter	-13.0588
▁UP	-13.0592
▁Op	-13.0592
rank	-13.0596
sburg	-13.0599
▁List	-13.0599
▁Papa	-13.0607
Ch	-13.0609
rah	-13.061
▁Freud	-13.0611
▁capacity	-13.0611
▁heavily	-13.0611
▁invasion	-13.0611
▁recruit	-13.0611
▁electricity	-13.0611
▁chairman	-13.0612
▁operated	-13.0613
▁cloth	-13.0613
▁agents	-13.0615
▁washed	-13.0617
oro	-13.062
▁regard	-13.0623
▁affair	-13.0629
▁Ford	-13.0632
▁Fair	-13.0642
▁wing	-13.0643
yu	-13.0646
▁fee	-13.0647
▁prop	-13.0648
▁1920	-13.0649
▁22,	-13.065
▁Cro	-13.0651
tell	-13.0654
▁rescue	-13.0655
▁refuse	-13.0655
▁delicious	-13.0658
▁DNA	-13.0658
ivity	-13.0658
▁19,	-13.0659
▁1944	-13.066
▁existing	-13.0663
▁Ship	-13.0665
▁MO	-13.0666
▁Boo	-13.0666
▁publication	-13.0667
▁stairs	-13.067
hol	-13.0673
▁positions	-13.0673
▁largely	-13.0673
til	-13.0682
▁clubs	-13.0691
▁roar	-13.0692
inger	-13.0698
▁violent	-13.0703
▁meetings	-13.0704
▁hurricane	-13.0705
▁physics	-13.0705
▁ashamed	-13.0705
▁Winter	-13.0705
▁elder	-13.0705
▁genetic	-13.0705
▁repeated	-13.0707
▁convinced	-13.0707
▁Victor	-13.0708
▁Trans	-13.0708
▁End	-13.0719
▁myth	-13.0722
▁Ac	-13.0726
▁ALL	-13.0729
Ah	-13.0734
▁pond	-13.0734
▁critics	-13.0736
▁experiences	-13.0736
eased	-13.0738
▁gar	-13.0744
NE	-13.0751
▁wealth	-13.0751
▁precious	-13.0752
▁1977	-13.0753
▁Rilla	-13.0753
▁bitter	-13.0754
▁Glen	-13.0756
▁Cu	-13.0759
▁breathing	-13.0759
bla	-13.0759
lies	-13.0763
gging	-13.077
▁dollar	-13.0772
▁Cass	-13.0772
▁Hook	-13.0772
▁Ball	-13.0778
▁washing	-13.0779
▁votes	-13.0781
▁Del	-13.0782
eas	-13.0789
▁lap	-13.0794
▁Revolution	-13.08
▁efficient	-13.08
▁mysterious	-13.08
▁vacation	-13.08
▁representative	-13.08
▁pride	-13.08
▁Beth	-13.0802
rod	-13.0804
▁experienced	-13.0813
VI	-13.0815
▁picking	-13.0818
ators	-13.0833
take	-13.0835
▁bone	-13.0838
▁wicked	-13.0848
Footnote	-13.0848
▁Things	-13.0848
▁Buck	-13.0849
▁expecting	-13.0858
▁WAS	-13.086
zar	-13.0861
▁talent	-13.0862
▁scare	-13.0863
▁Des	-13.0864
▁headed	-13.0866
▁subjects	-13.0868
▁servant	-13.0871
tee	-13.0874
▁episodes	-13.0875
▁dam	-13.0877
▁Dor	-13.0879
elli	-13.0885
▁Tha	-13.089
▁partly	-13.0891
▁grandma	-13.0894
▁Jos	-13.0895
▁cattle	-13.0896
▁extent	-13.0896
▁altogether	-13.0896
▁conclusion	-13.0896
▁Panama	-13.0896
▁distribution	-13.0896
▁sack	-13.0897
▁nowhere	-13.0899
▁divine	-13.0899
yer	-13.0903
▁sooner	-13.0912
▁lesson	-13.0917
dom	-13.092
load	-13.0922
▁29,	-13.0925
▁reflect	-13.0929
put	-13.0931
▁Inc	-13.0931
▁Pop	-13.0938
AY	-13.0941
▁Anthony	-13.0944
▁NARRATOR	-13.0944
▁Slyne	-13.0944
▁stroke	-13.0944
▁wreck	-13.0944
▁obey	-13.0944
▁scrap	-13.0945
▁presidential	-13.0945
▁Emma	-13.0945
▁gray	-13.0945
▁contained	-13.0947
▁melt	-13.0948
ography	-13.0948
iga	-13.0952
▁allowing	-13.0955
▁principle	-13.0964
▁hated	-13.0968
NER	-13.097
▁adding	-13.0972
▁seal	-13.0973
▁documents	-13.0982
▁messages	-13.0985
after	-13.0986
▁Dy	-13.0987
▁System	-13.0993
▁Wednesday	-13.0993
▁mystery	-13.0993
▁probability	-13.0993
▁railroad	-13.0993
▁repair	-13.0993
▁baseball	-13.0993
▁Harrison	-13.0993
▁Forget	-13.0993
▁mask	-13.0994
▁Lisa	-13.0994
▁dating	-13.0994
▁threatened	-13.0994
▁essentially	-13.0994
▁Heaven	-13.0994
▁selection	-13.0995
▁naturally	-13.1
ides	-13.1001
ening	-13.1002
▁testing	-13.1005
say	-13.1005
▁Dale	-13.1008
▁continent	-13.1009
stein	-13.1014
▁explore	-13.1018
about	-13.102
aro	-13.1021
face	-13.1021
▁inform	-13.1026
Mar	-13.1034
uli	-13.1035
▁woo	-13.1036
iving	-13.1038
▁delay	-13.1039
▁resist	-13.1041
▁Ancient	-13.1041
▁Between	-13.1041
▁fantastic	-13.1041
▁wagon	-13.1042
▁tunnel	-13.1042
▁collected	-13.1045
ids	-13.1046
kar	-13.1046
▁Rh	-13.1049
▁defend	-13.105
SON	-13.1051
zing	-13.1055
▁Luc	-13.1056
▁projects	-13.1064
▁FC	-13.1065
▁landed	-13.1068
▁seats	-13.1069
Just	-13.1069
▁Laura	-13.1071
▁bare	-13.1073
GE	-13.1073
door	-13.1075
▁photograph	-13.1079
▁purposes	-13.1079
position	-13.1082
▁determine	-13.1087
▁extend	-13.1088
▁Chuck	-13.1088
▁Fri	-13.1089
▁Tuesday	-13.109
▁enormous	-13.109
▁thirteen	-13.109
▁cigarette	-13.109
▁properties	-13.1091
▁worn	-13.1091
state	-13.1098
▁albums	-13.1101
▁notable	-13.1111
▁angel	-13.1115
▁daughters	-13.1117
▁mr	-13.1118
▁Blo	-13.1123
▁fake	-13.1132
▁adults	-13.1132
▁stones	-13.1133
▁murderer	-13.1134
▁select	-13.1135
▁Frances	-13.1135
▁indicate	-13.1137
▁peak	-13.1137
▁dispute	-13.114
▁Internet	-13.114
▁faced	-13.114
▁approved	-13.1142
▁latest	-13.1143
▁foundation	-13.1143
bil	-13.1144
▁waters	-13.1144
▁Las	-13.1145
bly	-13.1149
▁pulling	-13.1152
▁dies	-13.1155
▁1941	-13.1155
cell	-13.116
▁sample	-13.116
▁Ol	-13.1161
pre	-13.1163
lis	-13.1165
Thank	-13.1167
▁Andy	-13.1176
▁inches	-13.1177
▁1967	-13.1178
eli	-13.1179
eur	-13.1187
▁habit	-13.1187
keeper	-13.1189
▁architect	-13.1189
master	-13.1189
▁Bavaria	-13.1189
▁Croatia	-13.1189
▁Ministry	-13.1189
▁disaster	-13.1189
▁remote	-13.1189
▁pardon	-13.1189
▁causing	-13.1189
▁Silver	-13.1189
▁2007.	-13.119
▁amongst	-13.1191
under	-13.1194
ume	-13.1195
▁op	-13.1196
▁insist	-13.1197
ished	-13.1199
▁differences	-13.12
▁soap	-13.1203
▁Save	-13.1207
Mi	-13.1207
▁useless	-13.1219
▁mini	-13.1219
aba	-13.1238
▁amendment	-13.1239
▁Hawaii	-13.1239
▁provision	-13.1239
▁attached	-13.1241
▁initially	-13.1241
▁strongly	-13.1249
▁sites	-13.1251
▁suggestion	-13.1254
bing	-13.1254
▁Vic	-13.1255
▁Must	-13.1257
▁Sk	-13.1259
bach	-13.1263
▁inch	-13.1268
onia	-13.1268
One	-13.127
heim	-13.1281
▁sets	-13.1285
▁increasing	-13.1287
▁sixteen	-13.1289
▁drill	-13.1289
▁Clear	-13.1289
▁Jerry	-13.1289
▁Among	-13.1289
▁scan	-13.129
▁starred	-13.1292
▁defence	-13.1292
▁passes	-13.1293
▁1965	-13.1293
ERS	-13.1294
▁palm	-13.1294
▁defined	-13.1295
▁ours	-13.1297
ALL	-13.1298
▁breathe	-13.1301
▁Bri	-13.1307
▁lab	-13.1308
OT	-13.1314
▁landing	-13.1318
▁painter	-13.1322
vid	-13.1322
▁Marie	-13.1327
each	-13.1333
▁desperate	-13.1338
▁formal	-13.1339
LRB	-13.1339
▁unhappy	-13.1339
▁intellectual	-13.1339
▁sensation	-13.1339
▁seventeen	-13.1339
▁disorder	-13.1339
▁landscape	-13.1339
▁unconscious	-13.1339
▁downstairs	-13.1339
▁brick	-13.134
▁claims	-13.1341
CA	-13.1345
▁tropical	-13.1345
▁ke	-13.1348
ado	-13.1349
▁Sports	-13.1353
star	-13.1357
bul	-13.1368
bird	-13.1373
▁lover	-13.1376
term	-13.1388
▁circuit	-13.139
▁dedicated	-13.139
▁thief	-13.139
▁cotton	-13.139
▁Iraq	-13.139
▁ages	-13.1391
▁linear	-13.1393
aire	-13.1395
SA	-13.1396
▁Sally	-13.1396
▁beaten	-13.1398
vol	-13.1399
lands	-13.1401
▁user	-13.1402
test	-13.1403
▁cleaning	-13.1405
▁Angel	-13.1409
▁Bel	-13.141
▁Mountain	-13.1412
▁Yi	-13.1414
org	-13.1416
▁2009.	-13.1417
▁sweat	-13.1418
rup	-13.1425
▁ar	-13.1438
iest	-13.144
▁sheet	-13.144
▁visual	-13.144
▁yield	-13.144
▁Despite	-13.1441
▁THIS	-13.1441
▁slipped	-13.1441
▁Tomorrow	-13.1441
▁newly	-13.1441
▁Sweet	-13.1444
▁fence	-13.1446
▁headquarters	-13.1447
▁wherever	-13.1447
▁hop	-13.1451
▁Olympic	-13.1463
▁electronic	-13.1465
mates	-13.1469
▁Anti	-13.1472
▁Find	-13.1475
▁2019	-13.1476
UE	-13.148
top	-13.1483
▁charges	-13.1487
▁Eva	-13.1487
Can	-13.1489
▁recall	-13.1489
there	-13.149
mos	-13.1491
▁instinct	-13.1492
▁lieutenant	-13.1492
▁substance	-13.1492
▁renamed	-13.1492
▁entry	-13.1492
▁asshole	-13.1492
▁ethnic	-13.1492
▁restrict	-13.1492
▁GET	-13.1492
▁Kelly	-13.1493
▁acquired	-13.1493
▁solo	-13.1494
▁printed	-13.1496
▁developing	-13.1497
▁Luke	-13.15
fic	-13.1512
▁Bru	-13.1513
▁slave	-13.1514
▁hits	-13.1523
▁pirates	-13.1524
▁banks	-13.1526
▁candle	-13.1526
▁spirits	-13.1526
▁rang	-13.1527
ET	-13.1533
▁contest	-13.1536
▁chick	-13.1537
▁models	-13.154
▁succeed	-13.154
awa	-13.1541
rb	-13.1542
▁rapid	-13.1542
▁distant	-13.1543
▁whistle	-13.1543
▁organisation	-13.1543
▁genus	-13.1543
▁crystal	-13.1543
rom	-13.1543
▁enable	-13.1543
▁youngest	-13.1546
▁regarding	-13.1546
▁constantly	-13.1546
▁ruined	-13.1546
ello	-13.1551
▁wondered	-13.1556
cos	-13.1556
▁wishes	-13.1557
Su	-13.1563
wai	-13.1564
▁blast	-13.1565
▁peasant	-13.1566
▁Muslim	-13.1569
▁singles	-13.1573
▁shoe	-13.1581
▁asks	-13.1583
ots	-13.1585
▁Camp	-13.1586
▁stops	-13.1588
▁faithful	-13.1591
▁stores	-13.1591
▁register	-13.1592
▁technical	-13.1593
▁jealous	-13.1593
▁Francis	-13.1594
▁Armenia	-13.1594
▁injured	-13.1594
▁variable	-13.1594
▁Polish	-13.1594
▁blew	-13.1594
▁agency	-13.1594
▁Drink	-13.1595
▁Christianity	-13.1595
▁rapidly	-13.1596
▁relatively	-13.1596
▁keen	-13.1596
▁taxes	-13.1597
EP	-13.1597
▁behave	-13.1599
▁Cuba	-13.16
▁heading	-13.1601
▁organ	-13.1606
▁standards	-13.161
▁DON	-13.1612
▁Hay	-13.1613
▁Yoon	-13.1615
high	-13.1615
▁adventure	-13.1617
▁resource	-13.1618
▁GO	-13.1621
▁principles	-13.1625
hir	-13.1634
▁Barb	-13.1636
▁ni	-13.1637
▁swing	-13.1644
▁Tennessee	-13.1646
▁concrete	-13.1646
▁slope	-13.1646
▁duties	-13.1646
▁invented	-13.1647
▁seized	-13.1648
▁Apple	-13.1648
▁Following	-13.1648
▁fever	-13.1648
▁Egyptian	-13.1649
▁grandfather	-13.165
▁newspapers	-13.1651
▁expressed	-13.1651
▁sang	-13.1656
▁gosh	-13.1658
lio	-13.166
▁dates	-13.1661
Are	-13.1662
▁arrive	-13.1664
Gr	-13.1666
▁Jews	-13.1667
▁pile	-13.1673
lat	-13.1674
▁beam	-13.1683
▁fo	-13.1683
▁math	-13.1685
will	-13.1689
▁Ski	-13.1694
▁greatly	-13.1695
Th	-13.1697
atch	-13.1698
▁translation	-13.1698
▁genius	-13.1698
▁intelligence	-13.1698
▁gross	-13.1698
▁airplane	-13.1698
▁Patrick	-13.1698
▁Mine	-13.1698
▁Tower	-13.1699
▁Rollo	-13.1699
▁Male	-13.17
▁occupied	-13.1703
▁blanket	-13.1703
▁infinite	-13.1703
mma	-13.1706
print	-13.1707
▁weigh	-13.1707
▁reply	-13.1707
▁package	-13.1707
▁instrument	-13.1708
▁DE	-13.1714
▁organizations	-13.1716
ended	-13.1717
▁Sounds	-13.172
▁custom	-13.172
▁chase	-13.172
ails	-13.1723
▁Brook	-13.1723
▁vessels	-13.1723
▁hurts	-13.1729
gram	-13.173
ardi	-13.1734
ders	-13.1735
▁Kha	-13.1737
away	-13.1744
▁eighteen	-13.175
▁revolution	-13.175
▁Sydney	-13.1751
▁Tokyo	-13.1751
▁policies	-13.1751
▁Hollywood	-13.1751
▁jerk	-13.1751
▁Johan	-13.1751
▁movements	-13.1751
▁stack	-13.1751
▁Franz	-13.1751
▁reverse	-13.1752
▁lighthouse	-13.1752
▁spy	-13.1753
▁Devil	-13.1755
▁poly	-13.1756
▁lifted	-13.1756
HE	-13.1758
▁Les	-13.1763
▁throwing	-13.1769
▁ensure	-13.1769
hara	-13.1777
iki	-13.1787
▁mighty	-13.1788
▁Ned	-13.179
▁Lar	-13.1791
▁aboard	-13.1796
▁articles	-13.1797
▁Grant	-13.1797
▁nap	-13.1801
▁arrival	-13.1803
▁fundamental	-13.1803
▁judgment	-13.1803
▁privilege	-13.1803
▁wrestling	-13.1803
▁opportunities	-13.1803
▁intense	-13.1803
▁Field	-13.1803
▁Pardon	-13.1803
▁sufficient	-13.1806
▁consumer	-13.1812
▁acc	-13.1812
atu	-13.1817
▁2014.	-13.1817
▁provinces	-13.1818
▁vice	-13.1822
▁craft	-13.1823
▁SH	-13.1823
▁expert	-13.1827
lets	-13.1833
▁exam	-13.1844
▁USA	-13.1844
where	-13.1845
▁Ms	-13.1846
▁Wild	-13.1846
▁classical	-13.1848
▁TH	-13.1849
lap	-13.185
▁vain	-13.1852
▁Dog	-13.1853
▁permanent	-13.1855
▁Avenue	-13.1856
▁preparation	-13.1856
▁primarily	-13.1856
▁revenue	-13.1856
▁Television	-13.1856
▁begged	-13.1856
▁retreat	-13.1856
▁anchor	-13.1856
▁secretary	-13.1857
▁confirmed	-13.1858
sca	-13.1859
sville	-13.1861
▁bark	-13.1863
▁nearer	-13.187
▁engines	-13.1872
▁depend	-13.1875
kins	-13.1876
▁cells	-13.1881
▁crimes	-13.1885
▁servants	-13.1888
▁Hit	-13.189
Mr	-13.1893
▁lasted	-13.1894
power	-13.1897
▁concerns	-13.1901
ending	-13.1903
▁rev	-13.1903
▁writes	-13.1906
▁celebrate	-13.1906
▁react	-13.1908
▁Charlotte	-13.1909
▁Austen	-13.1909
▁Hitler	-13.1909
▁virus	-13.1909
▁mouse	-13.191
▁laura	-13.191
▁Judy	-13.191
▁Baker	-13.191
▁accused	-13.191
▁Series	-13.1911
laughs	-13.1911
▁fluid	-13.1911
▁celebrated	-13.1912
▁survived	-13.1915
▁forests	-13.1915
hum	-13.1916
▁Mala	-13.1927
▁Dear	-13.1928
▁robot	-13.1932
▁atom	-13.1933
▁prayer	-13.1936
▁bubbles	-13.1937
▁instruments	-13.1939
fri	-13.1939
▁Sig	-13.1944
▁rivers	-13.1944
▁plea	-13.1947
ancy	-13.1947
▁IV	-13.195
ody	-13.195
cies	-13.1951
▁dull	-13.1955
▁beings	-13.1957
mber	-13.1958
▁reserve	-13.196
▁immediate	-13.1961
▁incredible	-13.1963
▁literary	-13.1963
▁worldwide	-13.1963
▁woke	-13.1963
▁Unless	-13.1963
▁Maryland	-13.1964
▁wooden	-13.1964
▁merged	-13.1964
▁obtained	-13.1965
▁1954	-13.1966
▁reasonable	-13.1966
▁Career	-13.1966
▁Him	-13.1967
▁rolled	-13.1969
▁reaching	-13.1975
▁aye	-13.1975
cation	-13.1976
▁Cop	-13.1977
▁Pola	-13.1985
mount	-13.1988
▁Cri	-13.199
▁bold	-13.1992
aving	-13.1994
▁Use	-13.1998
▁Eve	-13.1998
quest	-13.1998
emi	-13.2002
▁tickets	-13.2003
▁wars	-13.2004
PE	-13.2006
▁platforms	-13.201
▁commit	-13.2013
▁fiction	-13.2016
▁slight	-13.2016
▁Tolombeh	-13.2017
▁proportion	-13.2017
▁Confederate	-13.2017
▁Congratulations	-13.2017
▁KNOW	-13.2017
▁WITH	-13.2017
▁recognition	-13.2017
▁splendid	-13.2017
▁Reagan	-13.2017
▁sector	-13.2017
▁Molly	-13.2017
▁Left	-13.2017
pit	-13.2018
▁chatter	-13.2018
Hey	-13.2018
▁whispered	-13.2018
▁campus	-13.2019
▁constructed	-13.2019
oco	-13.2019
▁tooth	-13.202
▁fled	-13.2024
▁sur	-13.2024
from	-13.2026
▁computers	-13.2027
too	-13.2033
▁Commission	-13.2036
▁panic	-13.2037
▁holes	-13.2039
▁passengers	-13.2044
▁Hard	-13.2051
▁Social	-13.2052
▁creatures	-13.2058
itor	-13.2059
urs	-13.2064
▁breed	-13.2068
▁Kings	-13.2069
▁psycho	-13.2071
▁Research	-13.2071
▁Taipei	-13.2071
▁nomination	-13.2071
▁producing	-13.2073
▁Sel	-13.2074
▁Karen	-13.2075
▁competed	-13.2075
▁seventh	-13.2076
▁Ur	-13.2076
▁deeply	-13.2078
▁hosted	-13.2079
▁SE	-13.2092
cla	-13.2096
ages	-13.2098
▁affairs	-13.2104
▁Area	-13.2107
▁electro	-13.2109
▁Nazi	-13.2111
▁companion	-13.2113
▁wounds	-13.2116
▁courts	-13.2119
▁algorithm	-13.2125
▁memories	-13.2125
▁essay	-13.2125
▁earliest	-13.2125
▁lamb	-13.2125
▁wrap	-13.2125
▁poetry	-13.2125
▁consent	-13.2126
▁stake	-13.2126
▁Judge	-13.2127
▁Round	-13.2127
▁roughly	-13.2128
▁whoops	-13.213
▁regiment	-13.2131
▁stu	-13.2132
▁Gary	-13.2133
▁offers	-13.2135
last	-13.2144
▁Wind	-13.2146
▁1966	-13.2149
▁Whit	-13.2149
ipped	-13.2149
▁2006.	-13.2151
▁Aw	-13.2152
▁Mountains	-13.2156
▁Julie	-13.2159
▁cancel	-13.216
▁Walk	-13.2161
ships	-13.2166
▁Bah	-13.2169
▁bust	-13.2171
▁Bangladesh	-13.2172
▁wheels	-13.2173
▁Taylor	-13.218
▁expense	-13.218
▁assignment	-13.218
▁bishop	-13.218
▁Theatre	-13.218
▁introduction	-13.218
▁Enough	-13.218
▁Always	-13.218
▁gradually	-13.218
▁Bobby	-13.218
▁considerable	-13.2181
▁Cons	-13.2181
inc	-13.2182
▁achieved	-13.2183
▁rating	-13.2184
▁honestly	-13.2184
▁JU	-13.2185
▁demanded	-13.2185
▁sailing	-13.2186
▁Mid	-13.2187
▁longest	-13.2188
▁opens	-13.219
▁ki	-13.2195
▁Nations	-13.2196
eb	-13.2196
CT	-13.2202
▁dreadful	-13.2203
mai	-13.2206
▁decent	-13.2207
▁hug	-13.2212
▁metro	-13.2217
direct	-13.2217
▁madam	-13.2218
even	-13.2218
Gu	-13.2222
▁Tour	-13.2224
▁paintings	-13.2226
▁awards	-13.2229
▁unf	-13.2229
▁Step	-13.2232
▁Jonathan	-13.2235
▁Suffolk	-13.2235
▁academic	-13.2235
▁awesome	-13.2235
▁goddamn	-13.2235
▁triangle	-13.2235
▁violin	-13.2235
Sighs	-13.2235
▁Hotel	-13.2235
▁zoo	-13.2236
brow	-13.2238
▁gear	-13.2243
your	-13.2245
loc	-13.2246
▁pushing	-13.2246
tions	-13.2247
▁Wayne	-13.225
urg	-13.2253
▁bearing	-13.2257
▁Baron	-13.2259
got	-13.2262
arch	-13.2265
▁Rec	-13.2267
▁bars	-13.2269
▁Same	-13.2269
bound	-13.227
three	-13.227
bell	-13.2272
Sp	-13.2276
▁1:	-13.2281
NT	-13.2282
▁diseases	-13.2283
▁plates	-13.2289
▁Hungarian	-13.229
▁imagination	-13.229
▁fierce	-13.229
▁medium	-13.229
▁grief	-13.229
▁detective	-13.229
▁loving	-13.229
▁thunder	-13.229
▁crisis	-13.229
▁category	-13.2292
▁churches	-13.2294
▁Christians	-13.2295
▁merry	-13.2297
met	-13.2297
▁gal	-13.2298
▁Woman	-13.2301
▁bags	-13.2302
▁inner	-13.2302
sley	-13.2304
▁Girls	-13.2308
▁Gardens	-13.2308
▁CAN	-13.231
▁bubble	-13.2317
▁passenger	-13.2317
▁Greg	-13.232
Ahmad	-13.2323
▁der	-13.2327
▁patch	-13.233
esh	-13.2333
▁1942	-13.2335
▁march	-13.2339
OC	-13.2341
RU	-13.2344
▁pump	-13.2345
▁Gyp	-13.2345
▁execution	-13.2345
▁shining	-13.2345
▁digital	-13.2345
▁rude	-13.2346
▁1956	-13.2346
▁fox	-13.2346
▁Knight	-13.2346
▁Eight	-13.2347
thy	-13.2348
▁whoever	-13.2351
▁Happy	-13.2351
path	-13.2353
KE	-13.2357
▁counting	-13.2358
▁handed	-13.2361
▁bent	-13.2362
itation	-13.2365
▁Bha	-13.2369
▁silk	-13.237
▁Being	-13.2372
shot	-13.2373
▁5.	-13.2376
...!	-13.2379
▁PA	-13.2384
ggle	-13.2394
▁extensive	-13.2401
▁extraordinary	-13.2401
▁rhythm	-13.2401
▁underneath	-13.2401
▁militia	-13.2401
▁widow	-13.2401
▁civilization	-13.2401
▁consciousness	-13.2401
▁BY	-13.2404
▁diver	-13.2404
▁Boyer	-13.2405
▁journal	-13.2405
▁containing	-13.2405
▁abuse	-13.2405
▁peaceful	-13.2408
two	-13.2409
▁Carlos	-13.2412
heat	-13.2414
BA	-13.2416
▁tests	-13.2416
made	-13.2416
▁Adams	-13.2416
ologist	-13.2418
▁bay	-13.2421
other	-13.2423
mia	-13.2427
piece	-13.2435
▁Cast	-13.2445
ovi	-13.2446
▁VI	-13.2449
▁gather	-13.2452
▁exhibit	-13.2453
▁invest	-13.2453
▁deny	-13.2454
▁Premier	-13.2457
▁animated	-13.2457
▁assigned	-13.2457
▁depression	-13.2457
▁ritual	-13.2457
▁microphone	-13.2457
▁polite	-13.2457
▁spill	-13.2458
▁contrast	-13.2458
▁Peace	-13.2458
▁boring	-13.2458
▁farther	-13.2458
▁labour	-13.2459
▁Grace	-13.246
▁rarely	-13.246
▁Forest	-13.2463
▁Khu	-13.2464
▁beans	-13.247
▁searching	-13.2471
gio	-13.2473
▁Lynd	-13.2476
▁historic	-13.2477
▁lessons	-13.2492
▁1948	-13.2493
▁represents	-13.2499
OU	-13.2502
ika	-13.2506
INE	-13.2506
▁recover	-13.251
▁define	-13.2511
▁essential	-13.2512
▁roots	-13.2512
▁pour	-13.2513
UL	-13.2513
▁prominent	-13.2514
▁perspective	-13.2514
▁Labour	-13.2514
▁finance	-13.2514
▁distributed	-13.2514
▁Money	-13.2514
▁exposed	-13.2515
▁goodbye	-13.2516
▁tailor	-13.2518
▁holy	-13.2522
▁LA	-13.2523
▁Carol	-13.2527
Ka	-13.253
▁Whi	-13.2535
▁partners	-13.254
lp	-13.2549
▁requires	-13.255
▁wee	-13.2555
▁Base	-13.2556
▁factors	-13.2558
lying	-13.2561
▁bla	-13.2561
apped	-13.2562
▁distinct	-13.2564
▁Fame	-13.2567
▁establish	-13.2568
▁Pay	-13.2568
▁Portuguese	-13.2571
▁facilities	-13.2571
▁sweetheart	-13.2571
▁temporary	-13.2571
▁Security	-13.2571
▁caravan	-13.2571
▁Creek	-13.2571
▁remarkable	-13.2571
▁criticism	-13.2571
▁Poland	-13.2572
▁copper	-13.2574
▁Jeff	-13.2579
▁improvement	-13.258
morph	-13.258
▁promotion	-13.2583
▁Pass	-13.2585
▁Ak	-13.2585
▁cord	-13.2586
▁civilian	-13.2586
▁customers	-13.259
▁sounded	-13.2594
▁deaths	-13.2596
▁serves	-13.2596
▁item	-13.2597
▁scholar	-13.2598
urse	-13.2599
▁poem	-13.26
▁1952	-13.26
RT	-13.2604
▁prisoner	-13.2604
HI	-13.2605
▁lied	-13.2606
▁ego	-13.2607
self	-13.2608
▁2004,	-13.2609
▁31,	-13.261
▁delight	-13.2613
▁relationships	-13.2613
▁shout	-13.2623
▁scream	-13.2624
▁encourage	-13.2625
▁drag	-13.2625
▁Vietnam	-13.2628
▁Connecticut	-13.2628
▁Hamilton	-13.2628
▁Jordan	-13.2628
▁opposition	-13.2628
▁surname	-13.2628
▁conservative	-13.263
idae	-13.263
▁blessing	-13.2631
▁plum	-13.2632
▁exhibition	-13.2633
▁intend	-13.2638
ARD	-13.2643
ROM	-13.2644
sighs	-13.2655
▁structures	-13.2657
dal	-13.2657
▁Est	-13.2658
morrow	-13.2665
▁2-	-13.2667
▁ste	-13.2668
eva	-13.267
▁officials	-13.2672
shed	-13.2675
adi	-13.2676
▁Moore	-13.2676
▁mistakes	-13.2683
▁draft	-13.2684
▁Nelson	-13.2685
▁excitement	-13.2685
▁mechanism	-13.2685
▁universal	-13.2685
▁universities	-13.2685
▁visible	-13.2685
▁storage	-13.2685
▁Geography	-13.2685
▁Turkish	-13.2685
▁Fat	-13.2686
▁Media	-13.2686
▁recovered	-13.2688
▁policeman	-13.2689
▁exists	-13.269
▁belonging	-13.2691
▁existed	-13.2691
▁users	-13.2693
pet	-13.2694
▁update	-13.2695
▁protected	-13.2697
):	-13.2698
▁guards	-13.2699
▁visitors	-13.27
▁consideration	-13.2701
aj	-13.2704
▁Kal	-13.2705
band	-13.2708
dress	-13.2714
west	-13.2716
▁Muslims	-13.2717
▁amounts	-13.2726
▁Match	-13.2727
▁winds	-13.2728
fore	-13.2731
▁Chang	-13.2736
▁Bear	-13.2737
▁verse	-13.2738
▁Work	-13.2741
▁1961	-13.2743
▁Corporation	-13.2743
▁Entertainment	-13.2743
▁monitor	-13.2743
▁monument	-13.2743
▁bunny	-13.2743
▁Persia	-13.2743
▁rural	-13.2743
▁specifically	-13.2743
▁closing	-13.2744
▁Larry	-13.2744
▁dim	-13.2749
uite	-13.2749
▁assist	-13.2752
maker	-13.2758
▁shed	-13.2766
▁1958	-13.2768
▁1938	-13.2771
▁cares	-13.2772
▁ID	-13.2773
ggy	-13.278
▁1946	-13.2785
▁Mah	-13.2785
▁beast	-13.2787
▁Gri	-13.2791
▁Ag	-13.2792
gul	-13.2796
▁1962	-13.2797
akh	-13.2797
▁Manipur	-13.2799
▁dirt	-13.28
▁Imperial	-13.2801
▁Napoleon	-13.2801
▁accurate	-13.2801
▁conscience	-13.2801
▁Arabia	-13.2802
▁vital	-13.2802
▁ease	-13.2803
▁divorced	-13.2804
▁mister	-13.2804
▁depending	-13.2805
▁affection	-13.281
uma	-13.2816
▁Mayor	-13.2817
▁Dude	-13.2818
▁si	-13.283
Je	-13.2834
ride	-13.2841
Cl	-13.2843
Pro	-13.2845
▁Pal	-13.285
rot	-13.2852
▁Meanwhile	-13.286
▁Network	-13.286
▁Temple	-13.286
▁equivalent	-13.286
▁exclaimed	-13.286
▁nonsense	-13.286
▁providing	-13.286
▁romance	-13.286
▁tremendous	-13.286
▁flesh	-13.286
▁internet	-13.286
▁balloon	-13.286
▁Chairman	-13.286
▁elsewhere	-13.286
▁curve	-13.2861
▁Lucy	-13.2862
▁scary	-13.2862
▁Barry	-13.2863
▁conducted	-13.2864
▁sensitive	-13.2864
▁representing	-13.2864
▁rub	-13.2865
▁damaged	-13.2867
▁Neil	-13.2872
▁pace	-13.2875
▁peep	-13.2887
Chuckles	-13.2888
itis	-13.2891
▁exception	-13.2903
▁Ana	-13.2906
guard	-13.2906
▁Mau	-13.2906
▁prices	-13.2911
claim	-13.2911
▁Region	-13.2912
▁Kent	-13.2914
▁Sid	-13.2914
▁purchase	-13.2916
▁invite	-13.2916
▁Inca	-13.2917
▁blank	-13.2918
SR	-13.2918
▁gesture	-13.2919
▁injuries	-13.2919
▁Pretty	-13.2919
▁sneak	-13.2919
▁drain	-13.2919
▁bacteria	-13.2919
▁objective	-13.2919
▁difficulties	-13.292
▁barely	-13.2921
▁observation	-13.2921
itz	-13.2921
Lo	-13.2923
▁govern	-13.2924
atic	-13.2925
▁safely	-13.2928
pla	-13.2931
dr	-13.294
▁6.	-13.294
▁frogs	-13.2943
▁cleared	-13.2944
▁writers	-13.2945
▁kinda	-13.2955
▁1943	-13.2964
▁wit	-13.2968
▁Liz	-13.2968
uke	-13.2969
rib	-13.2972
▁Hell	-13.2973
▁Assyria	-13.2974
▁Baltimore	-13.2978
▁absence	-13.2978
▁Caesar	-13.2978
▁Amanda	-13.2978
▁backwards	-13.2978
▁Unlike	-13.2978
▁retirement	-13.2978
▁Having	-13.2979
▁entertainment	-13.2979
▁behalf	-13.298
▁linked	-13.2983
uki	-13.2984
▁attempted	-13.2985
▁Blair	-13.2985
▁Hal	-13.2988
ility	-13.2991
▁offices	-13.2992
▁particles	-13.2993
gla	-13.2996
▁functions	-13.2997
DE	-13.2999
▁Dove	-13.3
cio	-13.3
ional	-13.3004
▁aired	-13.301
▁Bowl	-13.301
aged	-13.3012
▁2016.	-13.3013
▁shops	-13.3017
PA	-13.3017
eak	-13.3024
OO	-13.3025
▁limits	-13.3026
▁fatal	-13.303
▁Monte	-13.3032
▁bless	-13.3033
▁funds	-13.3036
music	-13.3036
▁destruction	-13.3037
▁gravity	-13.3037
▁primitive	-13.3037
▁northeast	-13.3037
▁transferred	-13.3037
▁kittie	-13.3038
▁BUT	-13.3038
▁Therefore	-13.3038
▁typically	-13.304
▁pillow	-13.304
▁dunno	-13.3042
▁wax	-13.3042
▁Allah	-13.3042
▁feeding	-13.3045
▁Representatives	-13.3046
thi	-13.3046
ssing	-13.3048
uv	-13.3053
dition	-13.3057
▁hid	-13.306
blo	-13.3061
wee	-13.3065
▁vessel	-13.3068
▁ham	-13.3072
▁Ty	-13.3077
▁terror	-13.3082
Phone	-13.3087
IE	-13.3088
▁Pad	-13.309
▁bond	-13.3092
▁Amendment	-13.3097
▁Orleans	-13.3097
▁administrative	-13.3097
▁opponent	-13.3097
▁Christopher	-13.3097
▁jazz	-13.3097
▁adjust	-13.3097
▁hammer	-13.3097
▁racing	-13.3097
▁costume	-13.3097
▁supper	-13.3097
▁warrant	-13.3098
▁stir	-13.3098
▁favourite	-13.3098
▁bass	-13.3099
▁Gate	-13.3099
▁interpretation	-13.31
▁2015.	-13.31
▁Mama	-13.3105
▁convert	-13.3106
boat	-13.3106
▁Wolf	-13.3108
▁sole	-13.3109
▁staring	-13.3113
xe	-13.3114
ush	-13.3116
▁pad	-13.3116
▁hum	-13.3117
▁nations	-13.3121
have	-13.3122
▁Stra	-13.3124
▁Om	-13.3124
▁aspect	-13.3129
▁gri	-13.3133
acc	-13.3134
ANT	-13.3135
four	-13.3135
▁horn	-13.3141
▁Arch	-13.3142
▁beds	-13.3144
▁ONE	-13.3144
ape	-13.3147
▁Rat	-13.3151
▁participate	-13.3154
▁float	-13.3155
▁designer	-13.3156
▁Lewis	-13.3157
▁burden	-13.3157
▁explosion	-13.3157
▁shield	-13.3157
▁Daisy	-13.3157
▁Isabel	-13.3157
▁Scots	-13.3157
▁Ladies	-13.3158
▁spray	-13.3158
▁belonged	-13.3163
▁entering	-13.3165
▁equally	-13.3166
▁wipe	-13.3167
▁influenced	-13.3168
▁lads	-13.3169
▁ringing	-13.3173
bone	-13.3173
isation	-13.3173
▁seated	-13.3176
▁neuro	-13.3176
▁Found	-13.3182
IVE	-13.3182
aut	-13.3184
▁parliament	-13.3187
key	-13.3188
▁hopes	-13.3188
▁Rio	-13.3191
▁pat	-13.3199
▁pole	-13.3207
▁Fla	-13.3207
▁schedule	-13.3215
▁borrow	-13.3215
MP	-13.3215
weight	-13.3218
▁Admiral	-13.3218
▁continuous	-13.3218
▁dinosaur	-13.3218
▁external	-13.3218
▁miracle	-13.3218
▁gently	-13.3218
▁Indeed	-13.3218
▁documentary	-13.3218
▁glow	-13.3218
▁Norway	-13.3218
▁bears	-13.3219
▁occasionally	-13.3219
▁Dragon	-13.3222
▁successfully	-13.3224
▁shares	-13.3225
EST	-13.3225
▁focused	-13.3226
▁voted	-13.3229
▁Med	-13.3229
▁blowing	-13.3232
▁1949	-13.3239
▁components	-13.324
ELL	-13.324
▁fighter	-13.3248
mine	-13.3249
▁facts	-13.3251
▁slaves	-13.3252
bag	-13.3253
▁fla	-13.3256
Li	-13.3256
range	-13.3264
▁Fl	-13.3265
▁bush	-13.3266
esse	-13.3271
▁dancer	-13.3273
▁fame	-13.3273
▁Pie	-13.3274
body	-13.3275
▁Deputy	-13.3279
▁Platform	-13.3279
▁furniture	-13.3279
▁garbage	-13.3279
▁suspicion	-13.3279
▁vaccine	-13.3279
▁Davis	-13.3279
▁actors	-13.328
▁Native	-13.3281
▁creative	-13.3281
▁attracted	-13.3282
▁stretched	-13.3283
▁WWE	-13.3284
▁performing	-13.3284
▁accounts	-13.3291
▁whereas	-13.3292
pal	-13.3299
▁feathers	-13.3301
they	-13.3304
▁promote	-13.3306
▁diamond	-13.3312
▁arrangement	-13.3312
▁1939	-13.3317
▁seeds	-13.3318
▁grace	-13.3332
▁abe	-13.3333
UND	-13.3335
▁hip	-13.3335
▁BO	-13.3337
▁crook	-13.3338
▁Development	-13.334
▁Modern	-13.3341
▁bend	-13.3341
▁leadership	-13.3341
AC	-13.3341
▁appearances	-13.3341
▁stopping	-13.3342
tty	-13.3342
▁everyday	-13.3343
▁floating	-13.3343
▁AN	-13.3344
▁vol	-13.3344
▁convention	-13.3355
Par	-13.3364
▁spec	-13.3365
▁Jae	-13.3368
evi	-13.3369
▁skill	-13.3375
▁1959	-13.3375
▁clown	-13.3378
▁Nay	-13.3378
word	-13.3379
iel	-13.3379
craft	-13.3379
▁comments	-13.339
aff	-13.3396
▁SC	-13.3398
▁surrender	-13.3399
▁eager	-13.34
▁Communist	-13.3402
▁FBI	-13.3402
▁Meitei	-13.3402
▁attorney	-13.3402
▁mercy	-13.3402
▁sweep	-13.3402
▁abroad	-13.3402
▁COVID	-13.3402
▁barrel	-13.3402
▁Project	-13.3402
▁permit	-13.3402
▁foolish	-13.3403
▁Ugh	-13.3403
▁Marshall	-13.3403
▁dishes	-13.3404
▁Var	-13.3406
▁Speaker	-13.3411
▁Gray	-13.3414
▁et	-13.3415
▁heir	-13.3422
▁chips	-13.3425
ality	-13.3426
▁Ob	-13.3431
▁farmers	-13.3432
▁Ry	-13.3434
erg	-13.3438
▁Guy	-13.3443
▁musicians	-13.3445
▁bills	-13.3445
▁controls	-13.3445
CC	-13.3447
▁Gr	-13.3448
▁beliefs	-13.3453
pli	-13.3456
case	-13.3457
▁Dance	-13.3457
▁Read	-13.3458
▁files	-13.3459
▁Ker	-13.3459
aved	-13.3463
mother	-13.3463
▁Building	-13.3464
▁Edinburgh	-13.3464
▁Whether	-13.3464
▁destination	-13.3464
▁extension	-13.3464
▁sequel	-13.3464
▁Shoot	-13.3464
dam	-13.3464
▁Almost	-13.3464
▁Foundation	-13.3465
▁scarcely	-13.3465
▁rebel	-13.3467
▁effectively	-13.3467
▁meantime	-13.347
▁Gui	-13.3471
▁worthy	-13.3472
AA	-13.3472
▁Half	-13.3472
life	-13.3472
osh	-13.3473
ories	-13.3473
Fi	-13.3476
▁TED	-13.3477
▁input	-13.3485
mel	-13.3486
ware	-13.3487
▁supporting	-13.3488
▁2008.	-13.3488
▁titles	-13.349
▁Jar	-13.3494
sters	-13.3498
rist	-13.3498
Com	-13.3499
▁Aha	-13.351
▁predict	-13.3514
▁Cooper	-13.3516
wise	-13.3517
▁attract	-13.3517
vas	-13.3518
eta	-13.3519
tree	-13.3521
illo	-13.3523
▁Inspector	-13.3527
▁advocate	-13.3527
▁calendar	-13.3527
▁entitled	-13.3527
▁pencil	-13.3527
▁steady	-13.3527
▁Broadway	-13.3527
LlE	-13.3527
▁bleeding	-13.3528
▁mock	-13.3528
▁employed	-13.3528
▁expanded	-13.3529
ID	-13.353
▁Going	-13.353
▁refers	-13.3533
▁Philippines	-13.3534
▁gap	-13.3536
▁ARE	-13.3537
using	-13.3538
▁finishing	-13.3539
▁transition	-13.354
▁joining	-13.354
rite	-13.3543
▁quarters	-13.3543
▁seeking	-13.3544
uda	-13.3551
▁Except	-13.3562
▁2:	-13.3563
DS	-13.3564
▁Eli	-13.357
CO	-13.3571
friend	-13.3577
50,000	-13.3578
▁gut	-13.3586
▁epi	-13.3587
▁despair	-13.359
▁Anderson	-13.359
▁Ralph	-13.359
▁Several	-13.359
▁Vegas	-13.359
▁poverty	-13.359
▁Business	-13.359
▁quote	-13.359
▁boot	-13.359
▁stiff	-13.359
▁vary	-13.3591
▁followers	-13.3592
Ge	-13.3592
▁accent	-13.3593
▁lifetime	-13.3595
▁colon	-13.3602
▁philosopher	-13.3607
▁feared	-13.3607
▁raid	-13.3607
▁decades	-13.3612
▁beep	-13.3615
▁Guys	-13.3619
▁commission	-13.3625
▁cookie	-13.3625
RN	-13.3627
▁exit	-13.3631
▁farmer	-13.3631
iya	-13.3639
▁priests	-13.3648
ska	-13.365
▁convince	-13.365
▁obtain	-13.365
▁interrupt	-13.365
FO	-13.3652
▁franchise	-13.3653
▁Windows	-13.3653
▁Rachel	-13.3653
▁Third	-13.3653
▁NFL	-13.3653
▁battery	-13.3653
▁instantly	-13.3655
▁delighted	-13.3656
▁briefly	-13.3657
udd	-13.3658
▁assumed	-13.3658
▁Agent	-13.3658
▁Mars	-13.366
enne	-13.3661
wind	-13.3665
▁interior	-13.3667
him	-13.3673
ili	-13.3674
▁charm	-13.3678
▁starr	-13.3679
▁rein	-13.3679
▁Ark	-13.368
▁fellows	-13.368
▁shark	-13.3688
cade	-13.3689
▁unre	-13.3689
▁Shh	-13.369
▁MP	-13.3691
rina	-13.3691
▁creep	-13.3694
SH	-13.3695
▁Name	-13.3696
umber	-13.3699
▁apples	-13.3699
▁applications	-13.3701
▁Rai	-13.3702
▁strain	-13.3705
▁2000.	-13.3709
▁pursue	-13.3714
▁Monsieur	-13.3717
▁activist	-13.3717
▁clouds	-13.3717
▁genuine	-13.3717
▁miserable	-13.3717
▁stadium	-13.3717
LAUS	-13.3717
▁facing	-13.3717
umbling	-13.3717
▁educated	-13.3717
▁disappointed	-13.3718
rator	-13.3718
rak	-13.3718
▁Newton	-13.3719
▁estimated	-13.3719
▁eighth	-13.3721
▁Rabbit	-13.3721
▁Coming	-13.3725
dding	-13.373
▁colleagues	-13.3735
▁techniques	-13.3742
▁purse	-13.3747
▁aspects	-13.3747
▁Kh	-13.3753
BS	-13.3753
▁Ari	-13.3757
▁Sis	-13.3767
▁Shaw	-13.3769
▁Tru	-13.3769
EE	-13.3775
▁ding	-13.3776
▁Dev	-13.378
▁Leg	-13.378
▁quarrel	-13.3781
▁Hurricane	-13.3781
▁venture	-13.3781
▁insane	-13.3781
Laughs	-13.3781
▁attractive	-13.3781
▁impressed	-13.3782
▁helpful	-13.3783
▁leak	-13.3784
upon	-13.3785
▁softly	-13.3786
▁boxes	-13.3787
Sc	-13.3804
▁rip	-13.3809
▁Cold	-13.3815
FF	-13.3819
udi	-13.3821
▁cheek	-13.3822
▁Page	-13.3825
▁mega	-13.3827
any	-13.3828
▁kings	-13.3829
▁patterns	-13.3832
▁rib	-13.3836
▁Madam	-13.3844
▁Hawk	-13.3845
▁dynasty	-13.3845
▁nephew	-13.3845
▁peculiar	-13.3845
▁midnight	-13.3845
▁Tiger	-13.3846
▁metres	-13.3846
▁Wonder	-13.3849
▁dip	-13.3852
▁Poly	-13.3852
▁Fall	-13.3858
▁arose	-13.3859
▁Final	-13.3861
▁secrets	-13.3868
▁checking	-13.3869
▁SA	-13.3874
iling	-13.3876
▁Much	-13.3879
pel	-13.3881
▁Deh	-13.3881
▁infection	-13.3885
▁bore	-13.3885
▁nut	-13.389
mission	-13.389
though	-13.3891
▁chew	-13.3893
yle	-13.3899
▁MI	-13.3902
break	-13.3903
▁rage	-13.3905
▁gates	-13.3905
▁Sad	-13.3905
▁divorce	-13.3907
▁Mart	-13.3908
eries	-13.391
▁Houston	-13.391
▁Lawrence	-13.391
▁Community	-13.391
▁agricultural	-13.391
▁hymn	-13.391
▁welfare	-13.391
▁generous	-13.391
▁drank	-13.391
▁Gro	-13.3911
▁shouted	-13.3913
▁Clare	-13.3916
▁kicked	-13.3917
Or	-13.3918
Ju	-13.3924
▁Reg	-13.3924
▁touching	-13.3929
▁routes	-13.393
▁qui	-13.3933
aku	-13.3938
▁1937	-13.3939
▁Sky	-13.3943
▁combat	-13.3945
SI	-13.3949
amed	-13.3953
▁Rod	-13.3954
▁sometime	-13.3958
▁dock	-13.3962
▁Tele	-13.3966
At	-13.3967
▁boots	-13.3968
▁UN	-13.3972
ike	-13.3973
▁celebration	-13.3975
▁hollow	-13.3975
▁radiation	-13.3975
▁receiving	-13.3975
▁urban	-13.3975
▁versus	-13.3975
▁grasp	-13.3975
▁Murray	-13.3976
▁Robinson	-13.3976
▁peer	-13.3978
▁possessed	-13.3978
▁screaming	-13.3979
▁discussed	-13.3982
graph	-13.3983
▁Thought	-13.399
▁bands	-13.3992
scope	-13.3993
▁judges	-13.4004
bles	-13.4004
char	-13.4005
Na	-13.4007
▁laughter	-13.4008
DA	-13.4012
pass	-13.4017
▁Doc	-13.4018
century	-13.4019
▁Kang	-13.402
dorf	-13.402
ander	-13.4021
▁options	-13.4022
▁hunter	-13.4022
▁Said	-13.4028
▁drawer	-13.4029
▁Tech	-13.403
▁leaf	-13.4038
illy	-13.4039
▁Orchestra	-13.4041
▁Seriously	-13.4041
▁bloke	-13.4041
▁impressive	-13.4041
▁chemistry	-13.4041
▁Ridge	-13.4041
▁shaking	-13.4042
▁Corps	-13.4042
▁travelled	-13.4042
AP	-13.4042
▁duke	-13.4042
▁Allison	-13.4042
▁travelling	-13.4042
▁hut	-13.4042
▁ultimately	-13.4042
▁frequent	-13.4043
▁Yale	-13.4043
▁practically	-13.4044
▁Drive	-13.4044
▁halt	-13.4046
▁monk	-13.4047
▁conception	-13.4049
▁beard	-13.4049
▁Beck	-13.405
▁resulted	-13.4057
▁trusted	-13.4058
tsu	-13.4064
▁nerves	-13.4065
Jo	-13.4071
hh	-13.4073
▁True	-13.4075
▁needle	-13.4075
▁Roll	-13.4076
▁Us	-13.4079
uni	-13.4083
▁Af	-13.4086
BE	-13.4088
hard	-13.4096
▁Juan	-13.4096
▁fulfill	-13.4096
▁emotion	-13.4104
▁Chah	-13.4104
▁arrange	-13.4104
▁sponsor	-13.4105
▁suggests	-13.4107
▁Colorado	-13.4107
▁Kermanshah	-13.4107
▁Mayweather	-13.4107
▁accompanied	-13.4107
▁alphabet	-13.4107
▁junior	-13.4107
▁memorial	-13.4107
▁matrix	-13.4107
▁Franklin	-13.4108
▁programming	-13.4108
▁solemn	-13.4108
▁Plus	-13.4108
▁humor	-13.4108
▁suitable	-13.4108
▁stall	-13.4109
▁rushed	-13.4112
▁whip	-13.4113
▁distinction	-13.4113
▁improved	-13.4113
▁Bhaer	-13.4114
▁twist	-13.4114
▁Dream	-13.4115
▁loo	-13.4121
▁covering	-13.4123
▁Key	-13.4125
▁2000,	-13.4126
▁Hunter	-13.4128
hing	-13.4128
▁raw	-13.4135
▁institutions	-13.4136
▁sharks	-13.4137
▁governments	-13.4138
▁cookies	-13.4138
▁grim	-13.4139
stead	-13.4142
▁organic	-13.4143
▁shots	-13.4148
▁vehicles	-13.4153
▁hatch	-13.4157
▁Eat	-13.4161
kov	-13.4166
▁Mat	-13.4169
▁Acc	-13.4169
▁bench	-13.4172
▁Minnesota	-13.4174
▁Ontario	-13.4174
▁Pacquiao	-13.4174
▁Section	-13.4174
▁messenger	-13.4174
▁multiply	-13.4174
▁nodded	-13.4174
▁rifle	-13.4174
▁routine	-13.4174
▁supplies	-13.4174
▁wives	-13.4174
▁Alicia	-13.4174
▁resistance	-13.4174
▁hopefully	-13.4175
▁consistent	-13.4175
▁hitting	-13.4176
stra	-13.4177
▁participated	-13.4177
▁secondary	-13.4178
▁Sandy	-13.4178
▁educational	-13.4179
▁Helen	-13.4187
▁titled	-13.4191
▁sore	-13.4193
▁conf	-13.4197
▁designs	-13.4203
ggie	-13.4208
shaped	-13.4219
▁closet	-13.4219
With	-13.422
▁drum	-13.4221
▁Hand	-13.4228
etic	-13.4238
ici	-13.4239
▁Dallas	-13.4241
▁helicopter	-13.4241
▁Detective	-13.4241
▁Welsh	-13.4241
▁escort	-13.4241
▁fabric	-13.4241
▁minimum	-13.4241
▁resolution	-13.4241
▁scattered	-13.4241
▁Selena	-13.4241
▁Otherwise	-13.4241
▁Neither	-13.4241
▁naval	-13.4241
▁abstract	-13.4242
▁weakness	-13.4242
▁THEY	-13.4243
▁coward	-13.4243
▁Ricky	-13.4243
▁2019,	-13.4244
▁insert	-13.4244
▁Costa	-13.4245
▁doggie	-13.4245
Dr	-13.4246
ensor	-13.4246
olo	-13.4248
▁representation	-13.4249
▁conscious	-13.425
ault	-13.4252
▁presents	-13.4255
▁Feel	-13.4255
▁crops	-13.4256
▁Shu	-13.4257
pie	-13.426
Billboard	-13.426
hm	-13.426
▁dick	-13.4262
▁stern	-13.4264
poli	-13.4265
▁Para	-13.4266
▁7.	-13.4267
stand	-13.4268
berry	-13.4268
▁Low	-13.4273
▁wins	-13.4277
▁citizen	-13.428
▁Close	-13.4283
▁institution	-13.4285
woman	-13.4287
aya	-13.4288
▁Pil	-13.4292
▁SN	-13.4292
▁grounds	-13.4299
Michel	-13.4299
▁spoil	-13.4306
▁realise	-13.4308
▁fraud	-13.4309
▁eldest	-13.4309
▁quantity	-13.4309
▁smoking	-13.4309
▁vertex	-13.4309
Here	-13.4309
▁Chamber	-13.4309
▁preach	-13.431
▁Jason	-13.431
▁alert	-13.431
ickle	-13.431
▁indicated	-13.4313
▁Walt	-13.4318
OP	-13.4319
TO	-13.4321
mini	-13.4324
▁ashore	-13.4325
▁beef	-13.4325
▁mild	-13.4326
▁Full	-13.4327
smith	-13.4329
▁Cool	-13.4332
▁Kr	-13.4334
▁Wake	-13.4337
▁differ	-13.4338
▁performances	-13.4338
▁FA	-13.434
iba	-13.434
▁dealer	-13.4341
▁procedure	-13.4348
▁Heart	-13.4351
ival	-13.4352
▁Gus	-13.4353
bridge	-13.4353
YT	-13.4356
▁2005.	-13.4358
▁Cook	-13.4359
▁2017.	-13.4363
NO	-13.4368
▁Fars	-13.4369
▁entertain	-13.4373
▁Especially	-13.4377
▁butterfly	-13.4377
▁glory	-13.4377
▁occupation	-13.4377
▁surprising	-13.4377
▁variation	-13.4377
▁tragedy	-13.4377
▁interval	-13.4377
▁quack	-13.4377
▁Nancy	-13.4377
▁HIS	-13.4377
▁carpet	-13.4377
▁trading	-13.4378
▁translated	-13.4378
▁unfortunately	-13.4378
▁Madame	-13.4379
▁Snow	-13.4382
▁clue	-13.4385
▁pigs	-13.4386
▁deeper	-13.4387
▁attempts	-13.4389
wy	-13.439
▁tested	-13.4394
walk	-13.4398
BO	-13.4398
);	-13.4399
usa	-13.4401
▁Spa	-13.4404
Get	-13.441
azi	-13.4411
▁scholars	-13.4411
▁innit	-13.4416
lier	-13.4417
▁Raja	-13.4419
▁relatives	-13.442
▁TR	-13.4422
rig	-13.4422
hai	-13.4437
▁breaks	-13.4438
▁chairs	-13.4439
col	-13.4441
▁praise	-13.4442
▁Woo	-13.4444
▁inhabit	-13.4445
▁approval	-13.4445
▁sketch	-13.4445
▁yourselves	-13.4445
▁YouTube	-13.4445
▁Serbia	-13.4445
▁BETH	-13.4445
▁housing	-13.4445
▁Orange	-13.4446
▁sharing	-13.4446
▁Connor	-13.4446
▁server	-13.4446
▁fairies	-13.4446
▁downtown	-13.4449
▁Brothers	-13.4451
▁businesses	-13.4456
▁addressed	-13.4457
▁owners	-13.4458
▁BR	-13.4462
wer	-13.4464
NY	-13.4468
lav	-13.4468
▁edges	-13.4473
▁ratio	-13.4474
▁1957	-13.4476
▁wh	-13.4479
very	-13.4483
▁operate	-13.4483
▁rob	-13.4484
▁rum	-13.4484
▁Rail	-13.4487
▁Start	-13.4487
Car	-13.4492
tail	-13.4497
chy	-13.4502
bee	-13.4502
▁Vas	-13.4503
▁Lev	-13.4504
▁possess	-13.4507
pol	-13.4512
▁Harris	-13.4514
▁Alfred	-13.4514
▁Brussels	-13.4514
▁Louisiana	-13.4514
▁Donald	-13.4514
▁ethan	-13.4514
hee	-13.4515
▁midst	-13.4515
▁Kel	-13.4515
▁flip	-13.4515
▁engagement	-13.4516
IV	-13.4521
▁SI	-13.4521
▁wolf	-13.4521
▁layer	-13.4521
▁Kate	-13.4522
▁orbit	-13.4522
▁approaching	-13.4522
▁Highland	-13.4523
▁residents	-13.4527
dol	-13.4529
▁parking	-13.4529
▁races	-13.4532
ART	-13.4535
oil	-13.4535
▁tackle	-13.4538
tia	-13.4539
lN	-13.4542
▁goin	-13.4546
ork	-13.4546
▁founding	-13.4547
▁worker	-13.4556
▁Karl	-13.4561
fight	-13.4562
▁kindly	-13.4564
▁lighting	-13.4566
▁describes	-13.4567
▁Isle	-13.4579
uta	-13.4579
▁mechanical	-13.458
▁estimate	-13.4581
▁pause	-13.4581
▁Amazon	-13.4584
▁Apparently	-13.4584
▁Easy	-13.4584
▁Sarhadi	-13.4584
▁acceleration	-13.4584
▁faculty	-13.4584
▁hurried	-13.4584
▁liberty	-13.4584
Species	-13.4584
▁dragged	-13.4584
▁dropping	-13.4584
▁Gulf	-13.4584
▁flies	-13.4584
▁subsequently	-13.4585
▁Food	-13.4587
▁conductor	-13.4587
▁Nobel	-13.4587
God	-13.4588
▁rust	-13.4588
▁percentage	-13.4588
▁colours	-13.4589
▁maintained	-13.459
▁flows	-13.459
▁Lau	-13.4591
▁2001.	-13.4591
▁troubles	-13.4592
▁rolling	-13.4593
▁Regional	-13.4593
▁Rosa	-13.4593
▁united	-13.4594
▁meets	-13.4599
▁Age	-13.4603
▁sho	-13.4605
▁firms	-13.4607
uce	-13.4609
▁q	-13.4609
bor	-13.461
Of	-13.4612
ception	-13.4614
▁situations	-13.4615
▁hire	-13.4618
▁candy	-13.4625
▁topic	-13.4629
▁Sound	-13.463
▁Rich	-13.4633
yama	-13.4639
▁sits	-13.464
▁8.	-13.4642
▁Looking	-13.4644
▁Rad	-13.4645
▁adopt	-13.4652
▁unlike	-13.4653
▁Jefferson	-13.4654
▁Prefecture	-13.4654
▁Wisconsin	-13.4654
▁pupil	-13.4654
▁transaction	-13.4654
▁Clause	-13.4654
▁rubber	-13.4654
▁Diego	-13.4654
▁Francesco	-13.4654
▁Claire	-13.4654
▁Motor	-13.4655
▁Operation	-13.4655
▁Room	-13.4655
▁Dead	-13.4655
vat	-13.4657
▁Whoo	-13.466
▁chances	-13.466
▁blade	-13.4662
▁informed	-13.4666
▁Kirk	-13.4666
▁BA	-13.4669
ela	-13.4671
▁involves	-13.4676
▁neighbors	-13.4677
▁laying	-13.4679
vic	-13.468
post	-13.4682
▁lane	-13.4684
▁tables	-13.4686
▁pairs	-13.4687
▁Abd	-13.4691
▁occasions	-13.4702
▁1936	-13.4708
FL	-13.4709
UC	-13.4718
▁propose	-13.4721
▁constitution	-13.4724
▁interfere	-13.4724
▁Foreign	-13.4724
▁Frederick	-13.4724
▁expansion	-13.4724
▁sprang	-13.4724
▁mistress	-13.4724
▁Small	-13.4724
▁Fruit	-13.4724
▁raising	-13.4724
▁shade	-13.4724
▁mortal	-13.4724
▁comedian	-13.4725
▁Ring	-13.4725
▁Leonard	-13.4725
▁Terry	-13.4725
▁Upon	-13.4725
▁Tonight	-13.4725
▁await	-13.4725
▁executed	-13.4726
▁stove	-13.4726
▁recovery	-13.4726
▁processes	-13.473
▁gaze	-13.4733
▁considering	-13.4735
▁recorder	-13.4738
ssel	-13.4739
▁presently	-13.4741
▁Barr	-13.4744
▁taxi	-13.4751
▁Cam	-13.4751
logy	-13.4757
clo	-13.4761
▁religions	-13.4766
▁CON	-13.4767
▁stages	-13.4768
▁candidates	-13.4771
▁Lang	-13.4771
▁elect	-13.4782
▁1955	-13.4782
active	-13.479
▁consult	-13.4791
▁encounter	-13.4792
▁occurs	-13.4793
▁disagree	-13.4795
▁awkward	-13.4795
▁comrade	-13.4795
▁import	-13.4795
▁virtue	-13.4795
▁Agency	-13.4795
▁Emmy	-13.4795
▁clause	-13.4796
▁Lane	-13.4796
scribe	-13.4797
▁nearest	-13.4798
▁2004.	-13.4799
NC	-13.48
title	-13.4802
▁filling	-13.4805
▁lyrics	-13.4807
▁jumping	-13.4807
▁mammals	-13.4807
▁solar	-13.4808
▁returns	-13.4817
▁Euro	-13.4817
MO	-13.4819
oka	-13.4825
aa	-13.4831
▁Cox	-13.4835
meter	-13.4837
▁notion	-13.4837
▁Spring	-13.4838
▁employer	-13.4839
▁arc	-13.484
▁differently	-13.4844
▁theories	-13.4844
▁Thou	-13.4845
bai	-13.485
TY	-13.4858
hra	-13.486
bir	-13.4861
▁Jai	-13.4862
▁lend	-13.4862
▁Luther	-13.4863
▁speaks	-13.4864
▁Lai	-13.4864
free	-13.4864
GRUNTING	-13.4866
▁Manchester	-13.4866
▁Oklahoma	-13.4866
▁anxiety	-13.4866
▁distress	-13.4866
▁liberal	-13.4866
▁nasty	-13.4866
▁warrior	-13.4866
▁jungle	-13.4866
▁Solomon	-13.4867
▁Bernard	-13.4867
▁bounce	-13.4867
▁assistance	-13.4867
▁kidney	-13.4867
▁gender	-13.4867
▁Story	-13.4867
chuckles	-13.4867
▁Truth	-13.4867
▁echo	-13.4867
▁SHE	-13.4868
▁distinguished	-13.4868
▁cabinet	-13.4869
▁AM	-13.4872
▁wallet	-13.4877
▁Jew	-13.4882
▁Ang	-13.4888
vice	-13.4889
▁Jesse	-13.4891
▁opinions	-13.4893
loss	-13.4894
▁burnt	-13.4895
▁outer	-13.4904
▁bucks	-13.4912
ground	-13.4915
▁Command	-13.4917
LING	-13.4918
▁DC	-13.4921
▁Clo	-13.4923
▁Iron	-13.4935
▁advise	-13.4936
▁compare	-13.4936
itude	-13.4938
▁hay	-13.4938
▁Arizona	-13.4938
▁Malaysia	-13.4938
▁Suddenly	-13.4938
▁Unfortunately	-13.4938
▁facility	-13.4938
▁intelligent	-13.4938
▁Mohammad	-13.4938
▁fraction	-13.4938
▁Nathan	-13.4939
▁Katherine	-13.4939
▁mourn	-13.4939
Your	-13.494
▁blessed	-13.4942
▁output	-13.4942
arma	-13.4943
ME	-13.4944
▁golf	-13.4944
▁loaded	-13.4944
▁towel	-13.4944
▁Cy	-13.4945
▁Warren	-13.4946
▁measured	-13.4946
▁crowded	-13.4946
▁developer	-13.4949
▁locations	-13.4954
eus	-13.4956
▁Ale	-13.496
vie	-13.4962
grad	-13.4964
▁Bennet	-13.4964
▁novels	-13.4965
▁Near	-13.4969
lder	-13.4972
▁1953	-13.4973
rama	-13.4974
▁stays	-13.4976
▁Mora	-13.4977
▁directions	-13.4978
▁proposal	-13.4982
▁Palm	-13.4986
mea	-13.4987
▁bored	-13.4987
father	-13.4988
▁grip	-13.4993
▁1951	-13.4993
▁generations	-13.4996
apping	-13.4997
aker	-13.4997
conti	-13.4998
▁auto	-13.5002
▁Prior	-13.5005
▁Made	-13.5009
▁Einstein	-13.5011
▁Vienna	-13.5011
▁bundle	-13.5011
▁efficiency	-13.5011
▁savage	-13.5011
▁signature	-13.5011
▁trapped	-13.5011
▁employment	-13.5011
▁Brooklyn	-13.5011
▁Ground	-13.5011
▁Yorkshire	-13.5011
▁Mommy	-13.5011
▁Report	-13.5012
▁Space	-13.5012
PR	-13.5012
▁Calm	-13.5012
▁Perry	-13.5013
▁rejected	-13.5013
▁coins	-13.5013
▁Jackie	-13.5014
▁assure	-13.5016
▁trailer	-13.502
▁email	-13.5021
▁Bird	-13.5025
▁periods	-13.5031
▁freely	-13.5031
▁dreaming	-13.5032
▁rot	-13.5035
▁buck	-13.5036
▁rocket	-13.5039
▁trucks	-13.5041
▁Bab	-13.5044
osis	-13.5047
▁gum	-13.5049
▁foods	-13.506
when	-13.5062
▁construct	-13.5063
dig	-13.5064
kha	-13.5066
chu	-13.5068
▁mineral	-13.5069
eld	-13.5072
ffer	-13.5074
▁alter	-13.5075
▁Kid	-13.5078
▁hint	-13.508
▁Marshal	-13.5084
▁loyal	-13.5084
▁Stadium	-13.5084
▁portrait	-13.5084
▁wisdom	-13.5084
▁trigger	-13.5084
▁Mickey	-13.5084
▁motive	-13.5084
▁squad	-13.5084
▁charity	-13.5084
▁oath	-13.5085
▁disgusting	-13.5086
▁electrical	-13.5086
▁tragic	-13.5087
▁praised	-13.5087
come	-13.5087
▁Rev	-13.5087
▁fuckin	-13.5087
▁Maim	-13.5095
▁statements	-13.5096
▁worm	-13.5097
▁rug	-13.5098
▁Rica	-13.5098
▁Case	-13.5105
roy	-13.5111
▁Hope	-13.5111
▁Rogers	-13.5116
hall	-13.5121
▁grows	-13.5122
vari	-13.5123
MAN	-13.5124
▁technique	-13.5129
▁scientist	-13.5129
▁rats	-13.5131
▁Thi	-13.5133
Look	-13.5136
speaking	-13.5136
omme	-13.5136
style	-13.5136
▁3-	-13.5137
▁Colo	-13.5147
▁fist	-13.5148
▁emerge	-13.5154
▁descend	-13.5154
▁expectation	-13.5155
▁relate	-13.5155
having	-13.5156
▁Virgin	-13.5157
▁suburb	-13.5157
▁Abraham	-13.5157
▁Belgium	-13.5157
▁Cleveland	-13.5157
▁Hicks	-13.5157
▁Krishna	-13.5157
▁Moscow	-13.5157
▁Stewart	-13.5157
▁artificial	-13.5157
▁harsh	-13.5157
▁prospect	-13.5157
▁voyage	-13.5157
▁medication	-13.5157
▁barrier	-13.5157
▁console	-13.5157
▁Holland	-13.5158
▁HERE	-13.5158
▁Islamic	-13.5158
▁borders	-13.5161
▁delivery	-13.5161
▁vest	-13.5161
▁humanity	-13.5161
▁concerning	-13.5164
▁pretending	-13.5164
▁painful	-13.5164
▁shocked	-13.5164
▁waist	-13.5166
▁pub	-13.5167
hoe	-13.5171
▁Mino	-13.5171
DICA	-13.5173
▁hunger	-13.5174
▁sleepy	-13.5175
Thou	-13.5177
▁pockets	-13.5178
deh	-13.5179
▁sync	-13.5188
terior	-13.5206
▁Russ	-13.5206
feld	-13.5211
▁sorrow	-13.5216
headed	-13.5217
▁SW	-13.5217
▁Sala	-13.5218
▁kills	-13.5222
▁Follow	-13.5229
LAUGHS	-13.5231
▁Roosevelt	-13.5231
▁communist	-13.5231
▁elevator	-13.5231
▁fortunate	-13.5231
▁manifest	-13.5231
▁segment	-13.5231
▁suspicious	-13.5231
▁valid	-13.5232
▁collar	-13.5232
▁cartoon	-13.5232
▁ceiling	-13.5232
▁classroom	-13.5232
▁chess	-13.5232
▁selfish	-13.5232
▁Highness	-13.5233
▁Beautiful	-13.5234
▁Price	-13.5234
▁carries	-13.5234
▁cluster	-13.5235
▁fits	-13.5235
▁shouting	-13.5235
▁GOT	-13.5236
▁Hur	-13.5239
▁stealing	-13.5239
ivo	-13.524
▁Face	-13.5241
▁2021,	-13.5252
▁Bey	-13.5256
▁tribes	-13.5259
▁compounds	-13.526
▁noon	-13.5275
▁choices	-13.5275
wit	-13.5276
▁confess	-13.5282
ected	-13.5283
stop	-13.5287
▁arrow	-13.5295
▁Flo	-13.5298
El	-13.5299
▁punish	-13.5301
▁approve	-13.5303
▁associate	-13.5303
aux	-13.5304
EY	-13.5304
▁bullshit	-13.5306
▁qualified	-13.5306
▁investigate	-13.5306
▁confusion	-13.5306
▁grandmother	-13.5306
▁Catherine	-13.5306
▁Popeye	-13.5307
▁resigned	-13.5307
▁jaw	-13.5308
▁exhausted	-13.5308
▁membership	-13.5311
think	-13.5311
▁funding	-13.5314
▁Kiss	-13.5315
▁attraction	-13.5316
▁Bou	-13.5316
▁DI	-13.5317
Bu	-13.5317
liga	-13.5317
▁ancestors	-13.5319
TION	-13.5319
▁enjoying	-13.5319
▁belly	-13.5325
action	-13.5326
▁dated	-13.5326
▁consequences	-13.5328
▁Jess	-13.5329
▁fella	-13.533
GA	-13.5334
▁Championships	-13.5337
▁cheerful	-13.5353
▁Pala	-13.5355
ider	-13.5357
making	-13.536
▁vow	-13.5361
▁clients	-13.5369
▁Services	-13.537
gia	-13.5372
▁Demi	-13.5374
asi	-13.5375
▁fires	-13.5381
▁Belgian	-13.5381
▁DVD	-13.5381
▁Hockey	-13.5381
▁ambulance	-13.5381
▁concentration	-13.5381
▁disgrace	-13.5381
▁sleeve	-13.5381
▁terminal	-13.5381
▁Gilbert	-13.5381
▁rattle	-13.5381
▁weary	-13.5382
▁passport	-13.5382
▁slavery	-13.5382
▁Mis	-13.5382
▁Ul	-13.5383
▁Br	-13.5383
▁restored	-13.5384
▁feast	-13.5384
eek	-13.5384
▁IF	-13.5385
▁partnership	-13.5385
▁NHL	-13.5385
miss	-13.5386
▁mob	-13.5388
rock	-13.5388
▁lily	-13.5389
▁Hero	-13.539
▁trash	-13.5391
▁spark	-13.5391
▁Pick	-13.5394
▁commanded	-13.5395
▁Beat	-13.5398
▁reli	-13.5402
▁Shah	-13.5403
▁2020)	-13.5404
ylo	-13.541
▁babe	-13.541
metric	-13.5413
▁Neu	-13.5421
▁Thor	-13.5426
▁helpless	-13.5426
▁historian	-13.5428
▁compound	-13.5428
▁cuts	-13.5438
icle	-13.5441
▁Bang	-13.5443
▁verb	-13.5445
▁lung	-13.5445
▁Die	-13.5447
▁Wu	-13.5453
▁Marine	-13.5456
▁viola	-13.5456
MUSIC	-13.5457
▁Argentina	-13.5457
▁Atlanta	-13.5457
▁Convention	-13.5457
▁Dakota	-13.5457
▁Detroit	-13.5457
▁Mediterranean	-13.5457
▁Spirit	-13.5457
▁anniversary	-13.5457
▁athlete	-13.5457
▁behaviour	-13.5457
▁gloom	-13.5457
▁strategic	-13.5457
▁Ronald	-13.5457
▁turtle	-13.5457
▁reduction	-13.5457
▁evolved	-13.5458
▁mounted	-13.5459
▁Walker	-13.5461
▁Dennis	-13.5461
▁papa	-13.5462
▁argued	-13.5463
▁Jose	-13.5464
▁2019.	-13.5468
▁Horse	-13.5469
▁succession	-13.5469
lop	-13.5481
▁networks	-13.5487
▁Pole	-13.5489
▁10,000	-13.549
lice	-13.5495
IND	-13.5497
▁imm	-13.5497
only	-13.5498
▁Taka	-13.5508
▁Bol	-13.5511
▁FI	-13.5519
▁Roberts	-13.5519
▁strings	-13.5525
▁yay	-13.553
▁confident	-13.5533
▁Federation	-13.5533
▁acknowledge	-13.5533
▁delicate	-13.5533
▁inspiration	-13.5533
▁pizza	-13.5533
▁sympathy	-13.5533
▁whilst	-13.5533
▁Benjamin	-13.5533
▁Nixon	-13.5533
▁dialect	-13.5533
▁Square	-13.5533
▁plug	-13.5533
▁Darwin	-13.5533
▁immense	-13.5533
▁spider	-13.5533
▁Stanley	-13.5533
▁vague	-13.5533
▁Jenny	-13.5534
▁contrary	-13.5534
▁choir	-13.5534
▁Lucas	-13.5534
▁reception	-13.5534
▁Country	-13.5534
▁nursery	-13.5534
▁knot	-13.5535
▁punk	-13.5537
▁Medical	-13.5539
▁transformation	-13.5539
▁Bir	-13.5543
▁mag	-13.5544
▁artistic	-13.5551
tered	-13.5552
▁Springs	-13.5564
anta	-13.557
Did	-13.557
▁Ap	-13.5575
▁dose	-13.5577
▁Send	-13.5578
glass	-13.5589
▁dared	-13.5591
▁2003.	-13.5591
▁Set	-13.5594
▁souls	-13.5599
▁recommend	-13.5599
city	-13.5601
▁confirm	-13.5606
▁Sol	-13.5606
▁Rub	-13.5608
▁triumph	-13.561
▁Tayebi	-13.561
▁bargain	-13.561
▁embrace	-13.561
▁sediment	-13.561
▁terribly	-13.561
▁composition	-13.561
▁Eagle	-13.561
▁republic	-13.561
▁WANT	-13.5611
▁sank	-13.5611
▁Vivie	-13.5611
▁Jake	-13.5612
▁Boys	-13.5614
▁reaches	-13.5615
▁climbed	-13.5615
▁packed	-13.5617
▁Ain	-13.5617
uru	-13.562
▁hyper	-13.5624
Star	-13.5624
▁DR	-13.5627
▁formerly	-13.5635
LS	-13.5643
▁profession	-13.5648
such	-13.5651
▁1928	-13.5652
▁Roy	-13.5657
▁Vale	-13.5662
easing	-13.5662
▁Kl	-13.5664
▁Wh	-13.5668
▁Trade	-13.5669
▁Pas	-13.5672
uiet	-13.5673
▁lf	-13.5675
dad	-13.5685
▁Kor	-13.5687
▁Swedish	-13.5688
▁amateur	-13.5688
▁contemporary	-13.5688
▁dynamic	-13.5688
▁impulse	-13.5688
▁satellite	-13.5688
▁thrust	-13.5688
▁uncomfortable	-13.5688
▁nightmare	-13.5688
▁outfit	-13.5688
▁Denmark	-13.5688
▁Phillip	-13.5688
▁diaper	-13.5688
▁naima	-13.5688
▁Davy	-13.5688
▁embarrassing	-13.5689
▁establishment	-13.5691
▁Meet	-13.5692
force	-13.5696
▁Kind	-13.5696
hour	-13.5699
▁pressed	-13.5699
▁Fucking	-13.57
▁authors	-13.5713
▁Giant	-13.5716
▁Hills	-13.5716
bol	-13.5717
▁2003,	-13.5717
▁dealt	-13.5721
▁Kay	-13.5722
▁haste	-13.5724
▁2016)	-13.5727
loo	-13.5733
▁slap	-13.5737
▁tribe	-13.5738
▁2002.	-13.5739
▁hack	-13.575
▁links	-13.5755
person	-13.5762
▁correspond	-13.5763
▁nickname	-13.5763
▁betray	-13.5764
▁Grammy	-13.5766
▁Macedonia	-13.5766
▁Swiss	-13.5766
▁happily	-13.5766
▁identical	-13.5766
▁Front	-13.5766
▁descent	-13.5766
▁wrapped	-13.5766
▁Anybody	-13.5766
▁renew	-13.5766
▁foul	-13.5766
▁corporation	-13.5767
▁armies	-13.5767
▁derived	-13.5767
▁Christine	-13.5767
▁colony	-13.5768
▁conviction	-13.5768
▁popularity	-13.5769
▁surgeon	-13.5769
▁Lloyd	-13.5769
▁assert	-13.5769
▁cheaper	-13.5769
▁daylight	-13.5769
▁oven	-13.577
▁charming	-13.577
▁converted	-13.577
▁Republicans	-13.5771
▁ranked	-13.5771
▁walks	-13.5772
▁dependent	-13.5773
▁recommendation	-13.5774
isco	-13.5774
▁approached	-13.5775
▁Studios	-13.5782
▁Kil	-13.5782
▁1919	-13.5785
▁employees	-13.5787
▁ser	-13.5791
racking	-13.5792
▁measurement	-13.5793
▁Due	-13.5798
▁sections	-13.5801
";	-13.5802
▁freeze	-13.5803
▁Peru	-13.5808
▁prayers	-13.5809
▁adventures	-13.581
▁Dodge	-13.5811
▁vocal	-13.5816
▁Commissioner	-13.5816
maid	-13.5819
▁Sco	-13.5821
▁brains	-13.5826
▁Devon	-13.5827
▁communicate	-13.583
▁Cou	-13.583
▁Audi	-13.5832
▁cared	-13.5836
MEN	-13.5836
▁holidays	-13.5838
ounce	-13.5838
cop	-13.5839
▁retain	-13.5842
▁Affairs	-13.5845
▁CEO	-13.5845
▁Memorial	-13.5845
▁Usually	-13.5845
▁mathematics	-13.5845
▁separation	-13.5845
▁swept	-13.5845
Laughing	-13.5845
▁discharge	-13.5845
▁skirt	-13.5845
▁dignity	-13.5845
▁steep	-13.5845
▁Bengal	-13.5845
▁export	-13.5845
▁voting	-13.5845
▁measures	-13.5847
tone	-13.5847
▁bees	-13.5848
▁punished	-13.5848
▁Model	-13.5848
PD	-13.5848
▁Route	-13.5849
▁learnt	-13.5849
▁swa	-13.5851
ledge	-13.5854
▁gifts	-13.5855
▁cooked	-13.5857
▁divisions	-13.5857
▁upside	-13.5859
▁Doug	-13.5861
▁fruits	-13.5862
hong	-13.5865
▁resulting	-13.5865
wide	-13.5868
▁sailors	-13.587
▁Lind	-13.5871
▁Sum	-13.5872
bank	-13.5872
▁Juliet	-13.5875
DOOR	-13.5875
▁cameras	-13.5876
▁Youth	-13.588
▁bum	-13.5881
ij	-13.5882
huck	-13.5883
▁sil	-13.5888
UM	-13.5893
▁fossil	-13.5895
▁component	-13.5895
▁spaces	-13.5903
▁traditions	-13.5903
court	-13.5913
▁BL	-13.5913
HO	-13.5918
▁admire	-13.5921
▁phones	-13.5922
▁Census	-13.5924
▁Portugal	-13.5924
▁deputy	-13.5924
▁martial	-13.5924
▁beloved	-13.5924
▁pistol	-13.5924
▁william	-13.5924
▁kitten	-13.5924
▁Antonio	-13.5924
▁rainbow	-13.5924
▁joking	-13.5924
▁Ferrier	-13.5924
▁tourist	-13.5925
▁OUT	-13.5925
▁marine	-13.5925
▁extract	-13.5926
coat	-13.5931
▁warned	-13.5932
URE	-13.5932
▁1934	-13.5933
▁desired	-13.5934
▁Yama	-13.5935
▁gig	-13.5939
▁vet	-13.5939
▁protecting	-13.5941
▁insects	-13.5941
IP	-13.5954
racked	-13.5955
▁Falls	-13.596
▁cheeks	-13.596
aci	-13.5973
▁Lear	-13.5974
▁canoe	-13.5976
▁decade	-13.5976
▁nerve	-13.5976
▁strangers	-13.598
John	-13.5981
▁jet	-13.5985
▁erect	-13.5989
▁10.	-13.5989
▁whisper	-13.599
▁Belle	-13.599
lag	-13.599
look	-13.5992
version	-13.5992
▁flame	-13.5993
▁Hear	-13.5994
▁Cause	-13.6
▁torture	-13.6001
▁buttons	-13.6002
▁Hugh	-13.6004
▁Conservative	-13.6004
▁Craig	-13.6004
▁Thirty	-13.6004
▁Together	-13.6004
▁brutal	-13.6004
▁sunshine	-13.6004
▁vampire	-13.6004
▁protocol	-13.6004
▁Course	-13.6004
▁backpack	-13.6005
▁highlight	-13.6005
▁Allied	-13.6006
▁scheduled	-13.6008
▁encouraged	-13.6008
▁defendant	-13.6009
▁reader	-13.6009
▁Rem	-13.6011
AU	-13.6012
▁Allies	-13.6012
▁Week	-13.6013
igi	-13.6019
▁Lower	-13.6028
▁2002,	-13.6029
▁troubled	-13.6034
▁outta	-13.6035
polis	-13.6044
▁rider	-13.6047
▁creates	-13.6055
▁feather	-13.6056
asa	-13.606
▁hare	-13.6062
liness	-13.6065
elo	-13.6067
idal	-13.6068
▁Ny	-13.6075
▁ignore	-13.6082
▁lick	-13.6083
▁strict	-13.6083
utt	-13.6083
▁Jerusalem	-13.6085
▁Melbourne	-13.6085
▁Mississippi	-13.6085
▁explode	-13.6085
▁salary	-13.6085
▁Mongol	-13.6085
▁calculation	-13.6085
▁Barbara	-13.6085
▁denied	-13.6085
▁trauma	-13.6085
▁radical	-13.6085
▁earnest	-13.6085
▁nigga	-13.6085
▁fiber	-13.6085
▁spinning	-13.6086
▁layout	-13.6086
▁deaf	-13.6086
▁Upper	-13.6086
PRIO	-13.6087
▁concluded	-13.6087
▁flee	-13.6088
rial	-13.6088
▁Certainly	-13.6088
▁purchased	-13.6089
did	-13.6089
▁Surely	-13.6095
▁Lisbon	-13.6095
▁HA	-13.6095
▁shy	-13.6097
▁vegetables	-13.6102
▁catching	-13.6108
vious	-13.6112
▁Dark	-13.6114
▁deadly	-13.6119
▁Monk	-13.6119
▁marginal	-13.6124
know	-13.613
▁kit	-13.6131
▁prim	-13.6132
used	-13.6134
▁snap	-13.6136
▁volunteer	-13.6137
▁muscle	-13.6137
▁1932	-13.6141
▁Chase	-13.6142
world	-13.6143
script	-13.6143
borough	-13.6144
▁loads	-13.6147
▁complain	-13.6151
▁curl	-13.6154
DY	-13.6163
▁rig	-13.6163
EM	-13.6164
OK	-13.6164
▁Child	-13.6166
▁Administration	-13.6166
▁Library	-13.6166
▁Norwegian	-13.6166
▁Oriental	-13.6166
▁attribute	-13.6166
▁diameter	-13.6166
▁magnificent	-13.6166
▁motorcycle	-13.6166
▁neutral	-13.6166
▁advertising	-13.6166
▁Technology	-13.6166
▁ninth	-13.6166
▁Oscar	-13.6166
▁serial	-13.6166
▁WHO	-13.6166
▁tennis	-13.6166
▁Graham	-13.6166
▁altar	-13.6167
▁prick	-13.6167
▁coverage	-13.6167
▁THERE	-13.6167
▁PC	-13.6169
imper	-13.6169
SU	-13.617
▁quid	-13.617
▁Gaga	-13.617
BC	-13.6171
▁smallest	-13.6172
▁reporter	-13.6172
▁nobles	-13.6176
Take	-13.6176
▁gran	-13.6177
▁McG	-13.6179
link	-13.618
▁pills	-13.6188
uti	-13.619
▁procedures	-13.6201
▁Hands	-13.6201
▁alike	-13.6201
▁pinch	-13.6204
▁nicely	-13.6204
▁graphic	-13.6205
▁bury	-13.6208
tify	-13.621
▁logic	-13.6211
astic	-13.6223
▁sigh	-13.6229
handed	-13.6234
▁ward	-13.6234
▁detect	-13.6238
gene	-13.6242
here	-13.6243
ige	-13.6244
▁orphan	-13.6248
▁Capital	-13.6248
▁Video	-13.6248
▁frequency	-13.6248
▁invitation	-13.6248
▁naughty	-13.6248
▁striking	-13.6248
▁Austin	-13.6248
▁corpse	-13.6248
▁gossip	-13.6248
▁landlord	-13.6248
▁pathetic	-13.6248
▁criticized	-13.6248
▁Faith	-13.6248
▁Borough	-13.6248
▁alex	-13.6249
▁homework	-13.625
▁firing	-13.625
▁Cheers	-13.6251
▁earning	-13.6251
▁recognised	-13.6251
▁gathering	-13.6252
▁demands	-13.6252
▁treaty	-13.6253
▁handling	-13.6254
▁businessman	-13.6255
▁suspected	-13.6255
▁Chile	-13.6256
▁stab	-13.6259
▁Mira	-13.6261
Mu	-13.6265
MB	-13.6272
▁Mus	-13.6274
plain	-13.6277
▁doin	-13.6284
▁Pain	-13.6284
▁Reed	-13.6289
▁ranks	-13.6301
▁contribution	-13.6302
▁Drop	-13.6302
▁Dur	-13.6303
▁Strange	-13.6304
date	-13.6304
▁poster	-13.6304
Okay	-13.6308
sexual	-13.6308
▁heap	-13.6311
level	-13.6312
gli	-13.6314
▁Ice	-13.6317
▁bud	-13.6325
▁pose	-13.6327
▁declare	-13.6328
▁unfortunate	-13.6329
PO	-13.633
▁Relax	-13.6331
▁absurd	-13.6331
▁believing	-13.6331
▁demonstration	-13.6331
▁doctrine	-13.6331
▁initiative	-13.6331
▁mysteries	-13.6331
▁unexpected	-13.6331
▁circus	-13.6331
Fra	-13.6331
▁dee	-13.6331
▁stink	-13.6331
▁mummy	-13.6331
▁lemon	-13.6331
▁riot	-13.6331
▁urgent	-13.6331
▁shone	-13.6332
▁Merry	-13.6332
▁Medal	-13.6333
grade	-13.6333
▁sung	-13.6336
round	-13.6343
kaboo	-13.6343
▁makeup	-13.6349
FC	-13.6355
▁increases	-13.6358
▁Stu	-13.6361
▁rape	-13.6367
▁flights	-13.6368
LD	-13.6373
yi	-13.6373
See	-13.6374
▁Nazis	-13.6375
▁affiliate	-13.6377
▁Rei	-13.6377
angle	-13.6382
▁Disc	-13.6383
▁hath	-13.6385
▁ordering	-13.6385
zel	-13.6387
▁experiments	-13.6388
▁intent	-13.639
first	-13.6391
▁Mass	-13.6392
▁nail	-13.6397
▁Joo	-13.6403
▁pointing	-13.6407
▁collapse	-13.6407
▁Bet	-13.6408
▁Brit	-13.641
bid	-13.6411
▁preserve	-13.6411
▁attach	-13.6412
▁southeast	-13.6413
brook	-13.6414
▁Secret	-13.6414
▁optim	-13.6414
▁Manhattan	-13.6414
▁Samuel	-13.6414
▁agriculture	-13.6414
▁defensive	-13.6414
▁destiny	-13.6414
▁maintenance	-13.6414
▁polyhedron	-13.6414
▁satisfy	-13.6414
▁convey	-13.6414
▁Cambridge	-13.6414
▁scandal	-13.6414
▁Mitchell	-13.6414
▁mixture	-13.6414
▁array	-13.6414
▁furious	-13.6414
▁patron	-13.6414
▁ferry	-13.6414
▁Design	-13.6414
▁Burg	-13.6415
▁swell	-13.6415
▁jim	-13.6416
▁Puert	-13.6416
▁threatening	-13.6416
▁Hardy	-13.6417
▁preserved	-13.6417
▁thumb	-13.6419
▁parable	-13.6421
issa	-13.6423
▁Sca	-13.6425
▁rumor	-13.6427
▁Blake	-13.6429
▁traveling	-13.643
▁Democrats	-13.6431
▁aw	-13.6431
▁Add	-13.6432
▁companions	-13.6432
▁Break	-13.6433
▁Aah	-13.6434
MC	-13.6436
▁fucked	-13.6436
▁stared	-13.6438
▁cleaned	-13.6438
hang	-13.6439
▁tales	-13.6444
▁produces	-13.6444
ompa	-13.6447
▁Plant	-13.6448
▁mast	-13.645
▁Farm	-13.6454
▁Player	-13.6457
bro	-13.6457
▁Flor	-13.6461
▁drops	-13.6464
wall	-13.6464
ilia	-13.6465
▁oops	-13.6466
▁Steel	-13.6467
▁1,000	-13.6467
▁Champion	-13.6469
LC	-13.6471
▁Nam	-13.6475
reason	-13.6476
▁Nik	-13.6477
▁1935	-13.6479
▁oak	-13.6482
▁lectures	-13.6484
oured	-13.6484
▁arguments	-13.6489
▁edit	-13.6496
▁monarch	-13.6497
▁potato	-13.6497
▁Clinton	-13.6498
▁Ethiopia	-13.6498
▁Harvey	-13.6498
▁alliance	-13.6498
▁filter	-13.6498
▁Klein	-13.6498
▁Bradford	-13.6498
▁Natural	-13.6498
▁beggar	-13.6498
▁Joyce	-13.6498
▁Caroline	-13.6498
▁assets	-13.6498
▁slice	-13.6499
▁convicted	-13.6499
▁Joan	-13.6499
▁basement	-13.6501
▁Sharon	-13.6501
▁Jeffrey	-13.6502
▁Sex	-13.6505
▁regularly	-13.6506
lastic	-13.6508
▁2021)	-13.6509
▁spit	-13.6513
▁achievement	-13.6513
Total	-13.6514
▁males	-13.6515
▁Jam	-13.6516
▁Deal	-13.652
▁Rule	-13.6523
quet	-13.6524
▁Train	-13.653
TOR	-13.653
▁compil	-13.653
▁Sie	-13.6532
leg	-13.654
▁margin	-13.6541
uf	-13.6549
▁females	-13.6549
▁columns	-13.655
ower	-13.6552
▁practices	-13.6558
▁chemicals	-13.656
▁Bus	-13.657
▁Grandpa	-13.657
▁Mak	-13.6571
▁transform	-13.6574
zh	-13.6575
▁sto	-13.6579
▁Trent	-13.6581
▁Bea	-13.6581
IDE	-13.6582
▁Junior	-13.6583
▁Sebastian	-13.6583
▁Yankee	-13.6583
▁convenient	-13.6583
▁exploit	-13.6583
▁gorgeous	-13.6583
▁legislation	-13.6583
▁eternal	-13.6583
▁valve	-13.6583
▁shiver	-13.6583
involving	-13.6583
▁Marcus	-13.6583
LSB	-13.6583
▁classified	-13.6583
▁colonel	-13.6583
▁Nature	-13.6584
▁Tel	-13.6584
▁thoroughly	-13.6584
▁localities	-13.6584
▁arise	-13.6584
▁skip	-13.6586
▁realised	-13.6588
▁owl	-13.6588
▁bells	-13.659
lade	-13.6591
▁lean	-13.6592
▁challenged	-13.6593
▁signals	-13.6594
▁scores	-13.6595
lapping	-13.6595
▁terrorist	-13.6598
▁Owen	-13.6599
▁Pull	-13.66
▁nomi	-13.6606
six	-13.6611
▁Lamb	-13.6614
PC	-13.6615
▁adam	-13.6616
lang	-13.6616
▁stat	-13.6623
bow	-13.6631
▁Dec	-13.6635
▁prey	-13.6636
▁neighbor	-13.6636
through	-13.6646
▁sch	-13.6657
▁1918	-13.6662
▁thrill	-13.6662
▁expand	-13.6662
▁bullets	-13.6666
▁reactions	-13.6666
▁stra	-13.6667
▁robber	-13.6667
lab	-13.6668
▁ABOUT	-13.6668
▁Collins	-13.6668
▁Delaware	-13.6668
▁Glass	-13.6668
▁Liverpool	-13.6668
▁Spencer	-13.6668
▁physician	-13.6668
▁skull	-13.6668
▁squeeze	-13.6668
▁Adrian	-13.6668
▁Milton	-13.6668
▁Teddy	-13.6669
▁Delta	-13.6669
▁chapel	-13.6669
dodecahedron	-13.6669
▁bolt	-13.667
▁Coach	-13.667
▁Lion	-13.667
▁Around	-13.667
▁shine	-13.6671
▁paused	-13.6672
▁purely	-13.6673
▁Journal	-13.6673
▁Friends	-13.6674
whi	-13.6674
▁clerk	-13.6675
lane	-13.6675
▁coup	-13.6678
▁lime	-13.6682
▁teenager	-13.6682
▁yell	-13.6682
ady	-13.6683
▁10-	-13.6685
▁Branch	-13.6688
▁posted	-13.6692
▁wages	-13.6695
dha	-13.6699
▁Lav	-13.6707
▁COME	-13.6708
▁Member	-13.6709
IA	-13.6711
▁Members	-13.6714
▁vent	-13.6716
▁Gol	-13.6719
▁1929	-13.6724
Te	-13.6724
▁Record	-13.6731
▁rates	-13.6735
eight	-13.6736
ographic	-13.6737
▁Wy	-13.6737
Have	-13.674
Bi	-13.6743
▁liver	-13.6745
▁dive	-13.6749
▁recognise	-13.6751
▁drown	-13.6752
bug	-13.6754
▁prohibit	-13.6754
▁Alaska	-13.6754
▁Cemetery	-13.6754
▁Harvard	-13.6754
▁Microsoft	-13.6754
▁Sheriff	-13.6754
▁certificate	-13.6754
▁depressed	-13.6754
▁handkerchief	-13.6754
▁locomotive	-13.6754
▁terrified	-13.6754
▁virgin	-13.6754
▁elbow	-13.6754
▁Madrid	-13.6754
▁residence	-13.6755
▁respectively	-13.6755
▁ABC	-13.6757
▁remarked	-13.6757
▁modest	-13.6757
▁twisted	-13.6758
▁genre	-13.676
▁interaction	-13.6761
▁paw	-13.6762
▁switched	-13.6763
▁offence	-13.6763
▁bothered	-13.6764
▁tenth	-13.6765
gation	-13.6766
▁axis	-13.6766
▁Leader	-13.6767
▁scarce	-13.6771
▁Lily	-13.6773
▁Noah	-13.6774
▁danced	-13.6777
bru	-13.6782
organ	-13.6784
▁Lie	-13.6795
Art	-13.6796
CAR	-13.6799
▁contents	-13.6799
▁cliff	-13.6802
By	-13.6807
▁regards	-13.6808
▁Poll	-13.681
▁spots	-13.6816
▁AC	-13.6826
Ne	-13.6827
incorporated	-13.6829
▁explains	-13.683
story	-13.6831
▁politicians	-13.6832
▁Tall	-13.6833
▁Ohh	-13.6834
▁Morris	-13.6836
mil	-13.6837
▁depict	-13.6839
▁observe	-13.684
▁Animal	-13.6841
▁Caribbean	-13.6841
▁Dynasty	-13.6841
▁Student	-13.6841
▁Venezuela	-13.6841
▁controversy	-13.6841
▁exceed	-13.6841
▁licence	-13.6841
▁mathematical	-13.6841
▁pulse	-13.6841
▁resort	-13.6841
▁patriot	-13.6841
▁burial	-13.6841
▁corporate	-13.6841
▁socks	-13.6841
▁Croce	-13.6842
▁NBA	-13.6842
▁Guess	-13.6842
▁CBS	-13.6842
▁Marcel	-13.6842
▁vanished	-13.6843
▁fictional	-13.6843
▁insisted	-13.6846
▁buses	-13.6846
▁cargo	-13.6847
▁Angela	-13.6849
▁stem	-13.6849
▁hind	-13.6853
▁hostage	-13.6854
▁Boyd	-13.6854
▁hanged	-13.6857
▁tricks	-13.6858
▁Bud	-13.6858
▁visiting	-13.6859
▁requirements	-13.686
▁Pit	-13.686
▁OH	-13.6861
▁warming	-13.6861
▁delightful	-13.6862
rez	-13.6863
ecu	-13.6868
imo	-13.6874
ety	-13.6878
valu	-13.6884
type	-13.6885
aleh	-13.6891
hey	-13.69
SD	-13.6902
▁customer	-13.6903
▁sticks	-13.6904
related	-13.6907
etta	-13.691
OLD	-13.6919
sai	-13.6921
▁Afghanistan	-13.6929
▁Athletic	-13.6929
▁Executive	-13.6929
▁Pittsburgh	-13.6929
▁aggressive	-13.6929
▁artillery	-13.6929
▁comparison	-13.6929
▁diagram	-13.6929
▁disguise	-13.6929
▁emphasis	-13.6929
▁globe	-13.6929
▁hilda	-13.6929
▁invisible	-13.6929
▁mosque	-13.6929
▁profile	-13.6929
▁wolves	-13.6929
▁decrease	-13.6929
▁agencies	-13.6929
▁drummer	-13.6929
▁sins	-13.6929
▁agenda	-13.693
▁scout	-13.693
sthetic	-13.693
▁defect	-13.6931
▁adapted	-13.6931
▁accomplished	-13.6932
▁assured	-13.6933
▁solvent	-13.6933
▁climbing	-13.6935
▁kindness	-13.6938
▁Flowers	-13.6938
cream	-13.6938
ebra	-13.6939
▁alcoholic	-13.694
▁kissing	-13.6944
▁Nurse	-13.6944
anga	-13.6945
▁counted	-13.6947
unda	-13.6949
▁bottles	-13.695
owing	-13.6951
▁1890	-13.6951
▁confession	-13.6954
▁decides	-13.6959
▁muscles	-13.696
▁Hog	-13.6961
▁lungs	-13.6963
▁fewer	-13.6968
▁filmed	-13.6969
▁bonds	-13.6971
▁trend	-13.6973
▁triple	-13.6979
▁Gee	-13.6984
▁Fund	-13.6985
▁Luis	-13.699
Every	-13.6995
arra	-13.6997
wed	-13.6999
▁OR	-13.7004
jam	-13.7006
zzi	-13.7012
▁visits	-13.7013
GO	-13.7014
▁conquer	-13.7015
▁sandwich	-13.7017
liest	-13.7017
▁Alzheimer	-13.7018
▁Obviously	-13.7018
▁Wrestling	-13.7018
▁categories	-13.7018
▁democracy	-13.7018
▁harvest	-13.7018
▁nitrogen	-13.7018
▁survivor	-13.7018
▁Murphy	-13.7018
▁departure	-13.7018
▁Edith	-13.7018
▁biological	-13.7018
▁stitch	-13.7018
▁mankind	-13.7018
▁chasing	-13.7019
▁Joy	-13.7019
▁airline	-13.7019
▁announcement	-13.702
▁Production	-13.702
▁lowest	-13.702
▁Colin	-13.702
▁satisfaction	-13.7021
▁interrupted	-13.7022
▁reflection	-13.7025
▁Santo	-13.7026
▁Oak	-13.7027
▁Yar	-13.703
ATE	-13.703
▁contestant	-13.703
▁rational	-13.7031
uba	-13.7035
▁Need	-13.7039
▁Til	-13.7043
pod	-13.7045
mis	-13.7048
pop	-13.7051
love	-13.7052
▁sting	-13.7056
▁Code	-13.7062
dling	-13.7063
Ke	-13.7064
▁Catholics	-13.7065
▁strap	-13.7075
▁Garden	-13.7078
▁Chart	-13.7084
▁1994.	-13.7088
▁Clara	-13.7096
Au	-13.7097
lish	-13.7099
gha	-13.71
eni	-13.71
▁retire	-13.7104
▁organize	-13.7104
▁Mess	-13.7107
▁GOOD	-13.7107
▁Itanium	-13.7107
▁Magazine	-13.7107
▁bicycle	-13.7107
▁narrative	-13.7107
▁offensive	-13.7107
▁villain	-13.7107
▁leather	-13.7107
▁Oregon	-13.7107
▁Storm	-13.7107
▁brigade	-13.7107
▁substitute	-13.7107
▁Article	-13.7107
▁bronze	-13.7107
▁mythology	-13.7107
▁operator	-13.7107
▁saddle	-13.7107
▁Local	-13.7107
▁dried	-13.7107
▁banned	-13.7107
▁priority	-13.7108
▁Saudi	-13.7109
▁invaded	-13.7109
▁mainland	-13.7109
▁outcome	-13.711
▁Market	-13.7114
▁lightning	-13.7116
▁1933	-13.7117
▁careless	-13.7125
▁Bart	-13.7128
▁Perfect	-13.7129
▁writings	-13.7138
ood	-13.714
▁Ages	-13.7142
▁publisher	-13.7145
fold	-13.7148
Ta	-13.7149
▁pine	-13.7153
▁piss	-13.7153
▁smells	-13.7157
TRA	-13.7163
vu	-13.7164
may	-13.7165
▁Sah	-13.7165
▁involve	-13.7165
▁snakes	-13.7166
hwa	-13.7169
▁amid	-13.7176
▁Merc	-13.7177
▁flatter	-13.718
erry	-13.718
▁Lag	-13.7181
▁1924	-13.7184
▁index	-13.7194
atherine	-13.7196
▁Enjoy	-13.7197
▁consumption	-13.7197
▁dwarf	-13.7197
▁examination	-13.7197
▁harbour	-13.7197
▁petition	-13.7197
▁vulnerable	-13.7197
▁Believe	-13.7197
▁ruling	-13.7197
▁pursuit	-13.7197
▁revolt	-13.7197
▁preferred	-13.7197
▁referring	-13.7197
▁Ernest	-13.7197
▁Twin	-13.7198
▁counties	-13.7198
▁crept	-13.72
▁condenser	-13.7201
inch	-13.7203
▁Ike	-13.7203
▁Glad	-13.7206
▁appearing	-13.721
▁Pictures	-13.7212
▁gloves	-13.7212
ii	-13.7213
lett	-13.7214
itter	-13.7216
_)	-13.7218
▁auditor	-13.7219
▁shorter	-13.7221
▁Allan	-13.7221
▁Ward	-13.7223
▁markets	-13.7223
grow	-13.7226
▁Inside	-13.7226
osi	-13.7229
▁Scar	-13.7233
▁worrying	-13.7233
▁battles	-13.7234
▁answering	-13.7236
▁Bach	-13.7236
▁1927	-13.724
ACK	-13.7243
▁resting	-13.7253
▁sailor	-13.7261
screen	-13.7265
mouth	-13.7265
▁mac	-13.7267
▁spine	-13.7269
appa	-13.7271
cloth	-13.7277
▁Bit	-13.728
taking	-13.7286
▁swift	-13.7286
▁kettle	-13.7288
▁survival	-13.7288
▁Amsterdam	-13.7288
▁Either	-13.7288
▁Malcolm	-13.7288
▁RIGHT	-13.7288
▁Sofla	-13.7288
▁Utah	-13.7288
▁Vancouver	-13.7288
▁accompany	-13.7288
▁ambition	-13.7288
▁assumption	-13.7288
▁coalition	-13.7288
▁explosive	-13.7288
▁intimate	-13.7288
▁relevant	-13.7288
▁rubbish	-13.7288
▁Jessica	-13.7288
▁organised	-13.7288
▁sustainable	-13.7288
▁Olya	-13.7288
▁digging	-13.7288
▁Harold	-13.7288
▁Brandon	-13.7288
▁Riley	-13.7289
▁diary	-13.7289
▁Anyone	-13.7289
▁penny	-13.7289
▁wandering	-13.729
▁Harper	-13.729
▁controlling	-13.729
▁bucket	-13.7291
▁invention	-13.7291
▁marching	-13.7293
▁swap	-13.7293
▁promises	-13.7294
▁physically	-13.7294
NK	-13.7295
▁wrestler	-13.7295
▁Plain	-13.7295
▁requested	-13.7298
▁frighten	-13.7303
▁jokes	-13.7304
▁curtains	-13.7306
▁Emil	-13.7308
color	-13.7308
▁Note	-13.7311
▁contribute	-13.7312
▁bob	-13.7313
▁junk	-13.7314
wig	-13.7315
▁characteristics	-13.7316
▁Deep	-13.7319
eous	-13.7323
pac	-13.7324
disc	-13.7326
yeh	-13.7328
▁blows	-13.7331
▁filming	-13.7331
▁groan	-13.7332
▁compact	-13.7334
arrot	-13.7336
gard	-13.7341
▁lovers	-13.7348
▁Kai	-13.7351
rink	-13.7355
asted	-13.7361
iting	-13.7362
etto	-13.7362
▁Fir	-13.7364
▁Classic	-13.7366
▁1999,	-13.7367
▁Justin	-13.7375
▁quo	-13.7375
▁collaborat	-13.7376
leigh	-13.7377
▁infant	-13.738
▁acquaintance	-13.738
▁circum	-13.738
▁Birmingham	-13.738
▁Czech	-13.738
▁Diamond	-13.738
▁Management	-13.738
▁Suppose	-13.738
▁alleged	-13.738
▁cemetery	-13.738
▁elaborate	-13.738
▁indigenous	-13.738
▁sculpture	-13.738
▁struggling	-13.738
▁substantial	-13.738
▁sworn	-13.738
▁vertices	-13.738
cott	-13.738
▁Lionel	-13.738
▁polish	-13.738
▁Admiralty	-13.738
▁passionate	-13.738
▁designated	-13.7381
▁forgetting	-13.7381
▁jar	-13.7381
▁mice	-13.7382
▁Abby	-13.7382
▁download	-13.7382
Some	-13.7382
▁donkey	-13.7383
▁loudly	-13.7385
▁responded	-13.7385
▁Came	-13.7386
▁collecting	-13.7386
▁sticky	-13.7388
▁Action	-13.7389
lov	-13.7398
▁blend	-13.74
▁outline	-13.7406
▁cult	-13.7411
LM	-13.7418
ego	-13.7431
ania	-13.7433
lene	-13.7438
▁wage	-13.7442
▁characteristic	-13.7444
▁restaurants	-13.7447
iko	-13.7447
Saint	-13.745
cross	-13.7452
ambi	-13.7458
▁foe	-13.7459
glo	-13.7459
▁Wor	-13.7461
▁deer	-13.7462
kle	-13.7465
▁announce	-13.7467
▁confront	-13.7469
▁extinct	-13.7469
▁reject	-13.747
opping	-13.7471
▁compute	-13.7471
rough	-13.7472
▁southwest	-13.7472
▁sovereign	-13.7472
▁Different	-13.7472
▁Michelle	-13.7472
▁Private	-13.7472
▁athletic	-13.7472
▁democratic	-13.7472
▁mushroom	-13.7472
▁patience	-13.7472
▁penalty	-13.7472
▁queer	-13.7472
▁SOME	-13.7472
▁parameter	-13.7472
▁Madison	-13.7472
▁Baseball	-13.7472
▁vertical	-13.7472
▁recycling	-13.7472
▁lazy	-13.7472
▁Ottoman	-13.7472
▁polar	-13.7473
▁diagnosed	-13.7473
▁Brazilian	-13.7474
▁exile	-13.7474
▁managing	-13.7474
game	-13.7475
▁Reserve	-13.7475
▁registered	-13.7477
▁Yang	-13.7477
media	-13.7477
▁adaptation	-13.7479
▁sexy	-13.7482
beat	-13.7486
▁pier	-13.7487
▁handled	-13.7491
▁dressing	-13.7491
▁PRO	-13.7492
▁Carr	-13.7494
▁sober	-13.7496
▁attacking	-13.7501
lessness	-13.7505
agi	-13.7507
▁Kho	-13.7507
▁operates	-13.7511
▁Actor	-13.7514
▁utter	-13.7516
MI	-13.752
▁objection	-13.753
card	-13.7534
▁bridges	-13.7549
▁Others	-13.755
▁lighter	-13.7556
▁producers	-13.7557
▁Abdul	-13.7559
stock	-13.756
▁lid	-13.756
▁greet	-13.7563
core	-13.7564
▁faction	-13.7564
SIGHS	-13.7566
▁Eventually	-13.7566
▁Hampshire	-13.7566
▁Jamaica	-13.7566
▁compromise	-13.7566
▁inflation	-13.7566
▁influential	-13.7566
▁puppy	-13.7566
▁scrub	-13.7566
▁terrific	-13.7566
▁puppet	-13.7566
▁Sleep	-13.7566
▁bloom	-13.7566
▁Mumbai	-13.7566
▁tendency	-13.7566
▁Felix	-13.7566
▁moderate	-13.7566
▁rugby	-13.7566
▁summit	-13.7566
▁bulk	-13.7566
▁frankly	-13.7566
▁Burke	-13.7566
▁Wright	-13.7567
▁Diana	-13.7567
unction	-13.7567
▁overcome	-13.7567
▁pissed	-13.7569
▁dining	-13.7569
▁recommended	-13.7569
▁attain	-13.7569
▁losses	-13.7569
▁maps	-13.757
gang	-13.757
▁sealed	-13.7573
▁coral	-13.7575
▁discussing	-13.7575
▁secretly	-13.7578
▁moan	-13.7578
▁manners	-13.758
▁planted	-13.7586
▁dreamed	-13.7591
▁Esp	-13.7595
▁oc	-13.7599
▁Word	-13.7606
▁Maha	-13.7607
enter	-13.7608
▁liter	-13.761
▁HER	-13.7613
▁3:	-13.7617
▁peasants	-13.7618
▁Nah	-13.7622
▁photographer	-13.7625
pra	-13.7628
▁engineers	-13.7631
▁Change	-13.7635
girl	-13.7637
white	-13.7638
▁Wing	-13.7639
▁Ole	-13.7643
▁Ec	-13.7647
▁Sme	-13.7649
stick	-13.7654
Will	-13.7658
▁excess	-13.766
▁Gentlemen	-13.766
▁Isaac	-13.766
▁Peninsula	-13.766
▁Support	-13.766
▁featuring	-13.766
▁fragment	-13.766
▁guidance	-13.766
▁illusion	-13.766
▁pioneer	-13.766
▁surviving	-13.766
▁Railroad	-13.766
▁overseas	-13.766
▁Rhode	-13.766
▁Hungary	-13.766
▁JUST	-13.766
▁automatically	-13.766
▁wrist	-13.766
▁batteries	-13.766
▁Arnold	-13.766
▁Finland	-13.766
▁loyalty	-13.766
▁timber	-13.766
▁Radha	-13.766
▁flock	-13.7661
▁realm	-13.7661
▁NOW	-13.7661
▁evidently	-13.7661
▁Bloody	-13.7661
▁betrayed	-13.7663
▁Easter	-13.7664
▁marble	-13.7665
▁dresses	-13.7665
▁Beau	-13.7666
▁begging	-13.767
▁cigar	-13.7672
▁molecules	-13.768
▁searched	-13.7681
▁shallow	-13.7684
▁instrumental	-13.7685
▁tweet	-13.769
▁Might	-13.7701
▁Linda	-13.7707
▁exceptions	-13.7707
▁Bagh	-13.7707
anti	-13.7708
▁Fran	-13.7708
▁boast	-13.7714
Ex	-13.7714
▁wig	-13.7718
▁inward	-13.772
III	-13.7721
▁ruins	-13.7724
present	-13.7732
▁Common	-13.7734
▁Berg	-13.7735
hearted	-13.7744
▁Italians	-13.7747
▁Program	-13.7748
eyes	-13.775
▁combine	-13.7752
lva	-13.7753
▁restore	-13.7754
Cambrian	-13.7755
▁Basketball	-13.7755
▁biscuit	-13.7755
▁medieval	-13.7755
▁preparing	-13.7755
▁squeak	-13.7755
▁Bureau	-13.7755
▁oppress	-13.7755
▁laboratory	-13.7755
▁boundaries	-13.7755
▁hydro	-13.7755
▁Authority	-13.7755
▁flung	-13.7756
▁Kam	-13.7756
▁Ellis	-13.7756
▁headache	-13.7756
▁HOW	-13.7756
▁brass	-13.7757
▁Write	-13.7757
▁devoted	-13.7757
▁cruise	-13.7758
▁idle	-13.7758
▁Kara	-13.7759
▁borrowed	-13.776
▁Along	-13.7761
▁secured	-13.7762
APP	-13.7771
▁heels	-13.7776
ask	-13.7777
▁manufacturer	-13.7778
▁icon	-13.7778
▁cooling	-13.7782
lace	-13.7784
▁bombs	-13.7788
▁Martha	-13.779
▁Cham	-13.779
OVER	-13.7791
▁Sri	-13.7792
▁1-	-13.7793
onne	-13.7794
▁lodge	-13.7795
▁diamonds	-13.78
▁graves	-13.7802
▁Kids	-13.7807
▁gardens	-13.7808
aper	-13.7809
IST	-13.7813
oodle	-13.7816
▁composers	-13.7816
▁py	-13.7819
▁mist	-13.7822
AND	-13.7823
PP	-13.7824
ctic	-13.7828
▁winners	-13.7828
▁Saw	-13.7833
▁audio	-13.784
Hu	-13.7843
inter	-13.7843
▁symbols	-13.7847
▁drift	-13.7849
▁precise	-13.785
▁shadows	-13.7851
▁Draft	-13.7851
▁Fremantle	-13.7851
▁LAUGHTER	-13.7851
▁PlayStation	-13.7851
▁browser	-13.7851
▁exposure	-13.7851
▁intestine	-13.7851
▁physicist	-13.7851
▁privacy	-13.7851
▁scenario	-13.7851
▁cottage	-13.7851
▁qualities	-13.7851
▁Sparta	-13.7851
▁pancake	-13.7851
▁thomas	-13.7851
▁Venice	-13.7851
▁suppress	-13.7851
▁generator	-13.7851
▁gleam	-13.7851
▁forehead	-13.7851
▁traitor	-13.7851
▁profound	-13.7851
▁squire	-13.7851
▁Metropolitan	-13.7852
▁steak	-13.7852
▁Trump	-13.7852
▁Wheat	-13.7852
▁WELL	-13.7852
▁cheating	-13.7852
▁endure	-13.7856
▁UH	-13.7856
▁finest	-13.7858
▁electrons	-13.7859
▁cinema	-13.786
▁CL	-13.786
▁bowed	-13.7861
rium	-13.7865
raw	-13.7866
▁prose	-13.7866
▁spreading	-13.7867
▁enters	-13.7868
SL	-13.7868
▁Away	-13.7868
Ga	-13.7879
▁planes	-13.7883
final	-13.7886
dimensional	-13.7893
Temp	-13.7897
arrow	-13.7898
▁ballet	-13.7899
▁Mut	-13.7901
▁Tal	-13.7909
▁badge	-13.791
▁processor	-13.7913
eti	-13.7918
▁consequence	-13.792
▁Sciences	-13.792
▁axe	-13.7922
tech	-13.7922
idi	-13.7922
lift	-13.7928
shore	-13.793
eyed	-13.7933
▁Cond	-13.7933
▁ghosts	-13.7934
▁NE	-13.7938
▁Blood	-13.7947
▁Bulgaria	-13.7948
▁Electric	-13.7948
▁Forgive	-13.7948
▁Global	-13.7948
▁Plymouth	-13.7948
▁Rebecca	-13.7948
▁abundant	-13.7948
▁chimney	-13.7948
▁commerce	-13.7948
▁testimony	-13.7948
clusion	-13.7948
▁Gerald	-13.7948
▁paragraph	-13.7949
▁Chandler	-13.7949
▁Honour	-13.7949
▁casual	-13.7949
▁permitted	-13.7949
▁wilt	-13.7949
▁progressive	-13.7949
order	-13.7949
▁embarrassed	-13.7949
▁minority	-13.7949
▁domain	-13.795
▁sitcom	-13.795
▁robbery	-13.795
▁relieved	-13.795
▁LEO	-13.795
▁guitarist	-13.7951
▁wealthy	-13.7951
good	-13.7952
▁subway	-13.7953
▁illustration	-13.7953
▁marched	-13.7954
▁commitment	-13.7954
▁patent	-13.7955
▁traditionally	-13.7956
stained	-13.7958
▁Diet	-13.7959
▁kicking	-13.796
▁marketing	-13.7972
▁regulations	-13.7972
▁publicly	-13.7972
shalt	-13.7976
▁Tia	-13.7977
▁drums	-13.7979
▁footballer	-13.798
raj	-13.7981
▁contributions	-13.7982
▁tourists	-13.7984
Bar	-13.7985
Pi	-13.799
dev	-13.7995
▁Abb	-13.7999
▁wasting	-13.8009
▁grabb	-13.8009
▁Rud	-13.8016
▁sheets	-13.8016
▁hood	-13.8025
▁Ivan	-13.8027
▁complaint	-13.8029
hine	-13.803
▁stella	-13.804
▁accomplish	-13.8044
▁decline	-13.8044
ivi	-13.8045
▁exclusive	-13.8045
▁Fight	-13.8045
AME	-13.8046
bbie	-13.8046
inaudible	-13.8047
▁Gabriel	-13.8047
▁Jeremy	-13.8047
▁density	-13.8047
▁geometry	-13.8047
▁manufacturing	-13.8047
▁peanut	-13.8047
▁scoring	-13.8047
▁swore	-13.8047
▁vitamin	-13.8047
▁tobacco	-13.8047
▁psychological	-13.8047
▁Yugoslavia	-13.8047
▁pepper	-13.8047
▁plague	-13.8047
prehensi	-13.8047
▁Voice	-13.8047
▁straw	-13.8047
▁blink	-13.8047
▁Review	-13.8047
▁reef	-13.8048
▁slot	-13.8048
▁Shar	-13.8049
▁calculated	-13.8049
▁Auto	-13.8049
▁drowned	-13.805
▁Highway	-13.805
▁Mul	-13.8051
Dear	-13.8052
▁chased	-13.8053
▁glanced	-13.8053
▁Burma	-13.8056
▁flank	-13.8058
Col	-13.8059
▁imagined	-13.8064
▁circles	-13.8064
amba	-13.8071
▁signing	-13.8071
▁processing	-13.8076
▁successor	-13.8079
ido	-13.8081
▁Side	-13.8082
▁Greeks	-13.8084
uga	-13.8086
itia	-13.8093
▁Web	-13.8093
▁Turk	-13.8101
VO	-13.8104
course	-13.8107
▁4-	-13.8108
▁strengthen	-13.8113
▁procession	-13.8114
▁colleague	-13.8117
profit	-13.8123
▁Catch	-13.8123
Tell	-13.8128
▁Bow	-13.8132
dog	-13.8133
▁concentrate	-13.8143
▁ultimate	-13.8144
▁assassin	-13.8144
▁definite	-13.8144
Applause	-13.8146
▁Alabama	-13.8146
▁Cricket	-13.8146
▁Gibbs	-13.8146
▁Giralda	-13.8146
▁Globe	-13.8146
▁adjacent	-13.8146
▁cathedral	-13.8146
▁continuing	-13.8146
▁fascinating	-13.8146
▁absent	-13.8146
▁criteria	-13.8146
▁ribbon	-13.8146
▁Promise	-13.8146
▁resent	-13.8146
▁occasional	-13.8146
▁accessible	-13.8146
▁spear	-13.8146
▁basin	-13.8146
amine	-13.8146
▁Rhine	-13.8146
▁ditch	-13.8147
▁ascend	-13.8147
▁Vance	-13.8148
▁examined	-13.8148
▁sighed	-13.8149
▁severely	-13.815
▁sup	-13.8151
▁frost	-13.8152
▁chains	-13.8152
▁Troll	-13.8152
▁pronounced	-13.8153
▁Joey	-13.8155
▁bombing	-13.8159
▁grapes	-13.8161
▁treating	-13.8163
▁Pot	-13.8167
▁creator	-13.8169
▁Raw	-13.8172
▁rely	-13.8176
▁sentiment	-13.8178
inary	-13.8179
▁Milan	-13.818
▁Staff	-13.8192
▁arrangements	-13.8192
ologists	-13.8197
▁Works	-13.8198
▁habits	-13.8203
Pol	-13.8214
▁Anton	-13.8219
▁instruction	-13.8222
space	-13.8223
school	-13.8224
▁forming	-13.8231
▁EP	-13.8233
▁namely	-13.8236
rice	-13.8238
▁refuge	-13.8244
cosidodecahedron	-13.8244
▁Bali	-13.8245
▁Transport	-13.8245
▁inaugura	-13.8246
▁Hudson	-13.8246
▁Medicine	-13.8246
▁Sophie	-13.8246
▁advisor	-13.8246
▁arguing	-13.8246
▁rebellion	-13.8246
▁soccer	-13.8246
▁worries	-13.8246
▁neighbourhood	-13.8246
▁yummy	-13.8246
▁Hannah	-13.8246
▁framework	-13.8246
▁fiddle	-13.8246
▁obliged	-13.8246
ML	-13.8247
▁honourable	-13.8247
▁undertake	-13.8247
▁hither	-13.8247
▁dismissed	-13.8247
▁Mister	-13.8248
▁collections	-13.8248
▁increasingly	-13.8249
▁offense	-13.8249
▁heroes	-13.8249
▁poured	-13.8251
▁Mater	-13.8251
▁Clay	-13.8251
▁delayed	-13.8251
▁defended	-13.8251
▁liar	-13.8252
▁rescued	-13.8252
▁Care	-13.8252
▁crashed	-13.8256
Door	-13.8259
▁traveled	-13.8264
▁SP	-13.8265
▁texts	-13.8267
▁suits	-13.8273
▁brake	-13.8274
▁Sai	-13.8277
ION	-13.8278
▁employ	-13.8281
▁rave	-13.8281
▁Tur	-13.8288
▁Seeing	-13.8288
▁Blu	-13.8294
▁DA	-13.8295
suit	-13.8298
▁Seth	-13.8301
agh	-13.8303
▁arrives	-13.8306
▁max	-13.831
ref	-13.8313
▁Imp	-13.8313
▁Choi	-13.8314
▁meals	-13.8319
election	-13.8322
▁mod	-13.8323
▁Mega	-13.8323
writing	-13.8324
digit	-13.8326
▁Mason	-13.8328
▁Georg	-13.833
▁Sang	-13.8332
station	-13.8341
▁Aboriginal	-13.8347
▁Bristol	-13.8347
▁Crawford	-13.8347
▁Language	-13.8347
▁Pearl	-13.8347
▁apprentice	-13.8347
▁christmas	-13.8347
▁currency	-13.8347
▁glorious	-13.8347
▁homosexual	-13.8347
▁pyramid	-13.8347
▁queue	-13.8347
▁mutual	-13.8347
▁Derek	-13.8347
▁sphere	-13.8347
▁tattoo	-13.8347
▁Perkins	-13.8347
▁Thailand	-13.8347
▁Keith	-13.8347
▁Abbey	-13.8347
▁snack	-13.8347
▁Alexandria	-13.8347
▁stalk	-13.8347
▁Logan	-13.8347
▁Village	-13.8347
▁Whoever	-13.8348
▁Helena	-13.8349
▁institute	-13.8351
▁reflected	-13.8352
▁sharply	-13.8353
▁scales	-13.8353
▁folded	-13.8353
uestion	-13.8354
▁firmly	-13.8354
▁Herman	-13.8354
▁Examples	-13.8355
▁alternate	-13.8356
▁spur	-13.8357
isha	-13.8357
▁reactor	-13.8357
cH	-13.8358
▁toxic	-13.8361
▁dual	-13.8362
▁fuss	-13.8363
▁fianc	-13.8364
ICK	-13.8365
▁Nope	-13.8369
▁crayons	-13.837
▁colored	-13.8371
▁puff	-13.8371
▁mall	-13.8373
▁flames	-13.8383
hab	-13.8391
cup	-13.8396
▁guessed	-13.8399
NES	-13.84
▁dread	-13.8405
▁Mara	-13.8409
▁lest	-13.8413
▁logical	-13.8415
▁troop	-13.8421
LES	-13.8421
kind	-13.8422
para	-13.8422
▁Sport	-13.8423
VEN	-13.8426
Give	-13.843
found	-13.8434
▁channels	-13.8437
▁interpret	-13.844
▁sunk	-13.8443
kara	-13.8443
▁apparent	-13.8447
▁distribu	-13.8448
▁roller	-13.8448
."--_	-13.8449
▁Gallery	-13.8449
▁Hebrew	-13.8449
▁Nigeria	-13.8449
▁Yvonne	-13.8449
▁database	-13.8449
▁disciple	-13.8449
▁fantasy	-13.8449
▁legitimate	-13.8449
▁prejudice	-13.8449
▁significance	-13.8449
▁racial	-13.8449
▁tornado	-13.8449
▁eagle	-13.8449
▁Leslie	-13.8449
▁zinc	-13.8449
▁interference	-13.8449
▁trousers	-13.8449
▁Maggie	-13.8449
▁bribe	-13.8449
▁magnetic	-13.8449
▁misery	-13.8449
▁parrot	-13.8449
▁bacon	-13.8449
▁Buzz	-13.8449
▁Rangers	-13.8449
▁subtle	-13.8449
▁Broad	-13.8449
▁stout	-13.845
▁scholarship	-13.8451
▁witnesses	-13.8451
▁inspector	-13.8451
▁peril	-13.8452
▁equi	-13.8452
▁ranking	-13.8456
▁butcher	-13.846
▁temperatures	-13.8463
osse	-13.8464
▁sticking	-13.8467
stle	-13.8468
▁explaining	-13.8468
▁Nina	-13.8473
▁Nag	-13.8475
▁reporting	-13.8476
hit	-13.8481
▁atomic	-13.8485
▁nails	-13.849
▁openly	-13.849
▁Lea	-13.8491
▁Shri	-13.8492
▁kilo	-13.8494
▁horns	-13.8498
enberg	-13.8498
anger	-13.8499
▁Dong	-13.8503
▁Nana	-13.8503
▁Hm	-13.8509
still	-13.8513
olli	-13.8516
▁Hunt	-13.8519
▁charts	-13.8522
ailed	-13.8522
ete	-13.8525
▁twins	-13.8528
minute	-13.853
▁Hasan	-13.8531
ucker	-13.8534
factor	-13.8535
child	-13.8537
ittle	-13.854
▁ministers	-13.8541
▁adapt	-13.8541
bear	-13.8547
.[1	-13.8547
bie	-13.8549
▁subsequent	-13.855
gne	-13.8551
▁corrupt	-13.8551
LAUGHING	-13.8552
▁Chelsea	-13.8552
▁Imagine	-13.8552
▁Orthodox	-13.8552
▁assembly	-13.8552
▁graduation	-13.8552
▁immortal	-13.8552
▁liquor	-13.8552
▁societies	-13.8552
▁petrol	-13.8552
▁Obama	-13.8552
▁thither	-13.8552
▁Express	-13.8552
▁ancestr	-13.8552
▁onwards	-13.8552
▁starving	-13.8552
▁Kyle	-13.8552
▁ashes	-13.8552
▁Aaron	-13.8552
▁slaughter	-13.8552
▁Mitch	-13.8552
▁grandson	-13.8553
▁Danish	-13.8553
▁resolved	-13.8554
▁leaning	-13.8555
▁Edgar	-13.8556
▁shortest	-13.8556
▁coffin	-13.8556
bah	-13.8558
▁Shir	-13.8558
▁defending	-13.8558
▁plainly	-13.856
▁screwed	-13.856
▁pretended	-13.8561
▁sentenced	-13.8563
uche	-13.8563
fulness	-13.8564
▁songwriter	-13.8567
▁blocked	-13.8568
▁Ming	-13.8573
▁Cary	-13.8575
wang	-13.8577
▁borough	-13.8581
IES	-13.8583
▁Opera	-13.8584
▁marsh	-13.8586
▁roast	-13.859
obble	-13.859
▁cakes	-13.8593
▁topics	-13.8595
▁Ful	-13.8597
▁Spo	-13.8602
▁explorer	-13.8602
motion	-13.8603
▁Tai	-13.8611
▁shells	-13.862
dolph	-13.8621
▁themes	-13.8623
▁workshop	-13.8625
▁champions	-13.8628
seven	-13.863
▁Nation	-13.8631
people	-13.8633
Hello	-13.8633
later	-13.8637
▁Speak	-13.8638
▁choke	-13.8638
green	-13.8639
illi	-13.8642
▁CHA	-13.8648
▁engage	-13.8651
▁Ard	-13.8651
▁AB	-13.8652
▁magazines	-13.8653
▁examine	-13.8654
▁lobby	-13.8656
CHUCKLES	-13.8656
responsibilities	-13.8656
▁Answer	-13.8656
▁Buddhist	-13.8656
▁DOWN	-13.8656
▁Nebraska	-13.8656
▁imperial	-13.8656
▁persist	-13.8656
▁refresh	-13.8656
▁unsuccessful	-13.8656
▁regain	-13.8656
▁hydrogen	-13.8656
▁stabbed	-13.8656
▁copyright	-13.8656
▁perception	-13.8656
▁veil	-13.8656
▁uni	-13.8656
Cotton	-13.8656
▁brew	-13.8657
▁crushed	-13.8657
▁slim	-13.8657
▁humour	-13.8657
▁precisely	-13.8658
▁interface	-13.8658
▁AFC	-13.8658
▁mystic	-13.8658
hydra	-13.8658
▁Somers	-13.8661
▁Whose	-13.8664
▁solved	-13.8666
▁Raj	-13.8666
▁FM	-13.8667
▁MR	-13.8671
▁damned	-13.8671
▁organisms	-13.8675
▁Marco	-13.8679
AH	-13.8679
▁Careful	-13.8686
unting	-13.8699
▁moo	-13.8702
▁Bryan	-13.8703
▁loser	-13.8708
▁container	-13.8711
aboo	-13.8711
hawk	-13.8715
▁Salt	-13.8717
mart	-13.872
▁Cer	-13.8729
ONE	-13.8731
▁Kaz	-13.8734
▁Bil	-13.8737
Please	-13.8738
shirt	-13.8739
▁shh	-13.8744
duction	-13.8749
hear	-13.8759
▁Cambodia	-13.8761
▁Emerson	-13.8761
▁Information	-13.8761
▁Salzburg	-13.8761
▁gratitude	-13.8761
▁measuring	-13.8761
▁plunder	-13.8761
▁presumably	-13.8761
▁reducing	-13.8761
▁gauge	-13.8761
▁obstacle	-13.8761
▁Miranda	-13.8761
▁forbidden	-13.8761
▁interchange	-13.8761
▁Lennon	-13.8761
▁Russell	-13.8761
▁patrol	-13.8761
▁compassion	-13.8761
▁vomit	-13.8761
▁waking	-13.8762
▁Portland	-13.8762
▁thirsty	-13.8762
▁Living	-13.8762
▁mature	-13.8762
▁controller	-13.8762
▁whatsoever	-13.8763
▁lust	-13.8763
▁footage	-13.8764
▁manufactured	-13.8764
▁collaboration	-13.8765
▁emerged	-13.8765
▁norm	-13.8766
▁vein	-13.8766
▁overnight	-13.8767
▁breeding	-13.8767
▁timing	-13.8767
▁manual	-13.8768
step	-13.8768
▁carrier	-13.8768
front	-13.8769
▁dart	-13.8769
▁viewers	-13.877
▁filed	-13.8772
▁Kenta	-13.8776
▁remarks	-13.8788
arry	-13.8789
MU	-13.8794
▁indoor	-13.8796
Char	-13.8797
kel	-13.8799
▁Mack	-13.88
▁ensu	-13.8805
uarter	-13.8811
▁experts	-13.8819
▁organs	-13.882
▁Ll	-13.8822
▁8-	-13.8822
▁photographs	-13.8823
▁hypo	-13.8825
▁Lor	-13.8829
eira	-13.8833
▁AP	-13.8833
▁Wick	-13.8835
▁employee	-13.8839
▁fog	-13.8854
▁mount	-13.886
▁conclude	-13.8864
▁Municipal	-13.8867
▁entrepreneur	-13.8867
▁Attorney	-13.8867
▁Communication	-13.8867
▁Excellent	-13.8867
▁Sierra	-13.8867
▁Testament	-13.8867
▁bachelor	-13.8867
▁curiosity	-13.8867
▁equipped	-13.8867
▁jurisdiction	-13.8867
▁monastery	-13.8867
▁nowadays	-13.8867
▁supreme	-13.8867
▁animation	-13.8867
▁veteran	-13.8867
▁injection	-13.8867
▁awoke	-13.8868
▁kidnapped	-13.8868
▁HIM	-13.8868
▁coincidence	-13.8868
▁generate	-13.8868
▁ginger	-13.8868
▁elementary	-13.8868
▁gym	-13.8868
▁foster	-13.8868
▁Horace	-13.8868
▁Walsh	-13.8868
▁hatred	-13.8868
▁personnel	-13.8868
▁suspended	-13.8869
▁grandpa	-13.8869
▁Foon	-13.8871
▁contributed	-13.8872
▁coastal	-13.8872
▁Getting	-13.8872
▁overhead	-13.8873
▁partial	-13.8873
tale	-13.8876
▁goose	-13.8876
▁shelf	-13.8877
▁deserted	-13.8877
▁Daw	-13.8877
▁Nash	-13.8877
▁reminded	-13.888
jur	-13.888
▁messed	-13.8882
▁honored	-13.8883
▁Bless	-13.8883
▁Anglo	-13.8884
hari	-13.8887
wash	-13.8888
▁dimensions	-13.8891
▁Donna	-13.8894
▁quiz	-13.8898
iri	-13.8899
thic	-13.8904
▁readers	-13.8905
▁freed	-13.8923
osaur	-13.8926
▁cannon	-13.8929
▁usage	-13.893
▁angels	-13.893
human	-13.8933
sided	-13.8934
▁championships	-13.8935
▁Wha	-13.8937
rinda	-13.8938
AST	-13.8938
▁Petr	-13.8944
▁nurses	-13.8945
▁volumes	-13.8945
▁wires	-13.8946
▁fails	-13.8947
▁Hyde	-13.8958
▁cricketer	-13.8958
▁Tea	-13.8963
would	-13.8968
▁Charu	-13.8971
▁Fig	-13.8971
ibi	-13.8972
▁prompt	-13.8973
▁Enterprise	-13.8975
▁Richmond	-13.8975
▁compliment	-13.8975
▁supplement	-13.8975
▁Columbus	-13.8975
▁Covenant	-13.8975
▁Olympia	-13.8975
▁ceremonies	-13.8975
▁inclined	-13.8975
▁presidency	-13.8975
▁resemble	-13.8975
▁solicitor	-13.8975
▁warehouse	-13.8975
▁Control	-13.8975
▁arriving	-13.8975
▁specimen	-13.8975
▁Nicola	-13.8975
▁conversion	-13.8975
▁therapy	-13.8975
▁farewell	-13.8975
▁modified	-13.8975
▁predator	-13.8975
▁splash	-13.8975
▁pluck	-13.8975
▁Tyler	-13.8975
▁cancelled	-13.8975
▁NBC	-13.8975
▁humble	-13.8975
▁biology	-13.8975
▁Chair	-13.8976
▁compel	-13.8978
▁yelling	-13.8979
▁likewise	-13.898
▁outdoor	-13.8981
▁Pea	-13.8981
▁gown	-13.8982
▁Rocky	-13.8982
▁ankle	-13.8982
▁wholly	-13.8983
▁detailed	-13.8983
▁detector	-13.8985
▁undergo	-13.8988
▁Economics	-13.8997
▁bowel	-13.9001
▁ounce	-13.9006
▁weekly	-13.901
▁moth	-13.9013
▁fare	-13.9013
▁-(	-13.9014
▁Seo	-13.9016
▁historians	-13.9016
▁Sire	-13.9018
▁Ox	-13.9019
▁dash	-13.9023
muni	-13.903
chel	-13.9037
plex	-13.9042
▁Gang	-13.9046
▁dense	-13.9047
CP	-13.9049
▁Roth	-13.9052
▁wail	-13.9057
uber	-13.906
▁Dora	-13.9064
▁backup	-13.9066
▁regime	-13.9071
▁sim	-13.9073
▁pill	-13.9075
▁Bark	-13.908
▁buzz	-13.9083
dez	-13.9083
▁authentic	-13.9084
▁qualify	-13.9084
▁Commonwealth	-13.9084
▁Kurdish	-13.9084
▁adequate	-13.9084
▁cavalry	-13.9084
▁devotion	-13.9084
▁dialogue	-13.9084
▁enterprise	-13.9084
▁heritage	-13.9084
▁immigrant	-13.9084
▁incredibly	-13.9084
▁nevertheless	-13.9084
▁possibilities	-13.9084
▁replacing	-13.9084
▁salad	-13.9084
▁venue	-13.9084
▁flavor	-13.9084
▁Cameron	-13.9084
▁clergy	-13.9084
▁Arctic	-13.9084
▁jelly	-13.9084
▁meteor	-13.9084
▁Jenna	-13.9084
▁transmitter	-13.9084
▁glue	-13.9084
▁Search	-13.9084
▁deeds	-13.9084
▁freezing	-13.9084
▁hostile	-13.9084
▁classification	-13.9084
▁chef	-13.9085
RED	-13.9085
▁tutor	-13.9086
▁publishing	-13.9086
▁Touch	-13.9087
▁Bomb	-13.9087
▁Scandinavia	-13.9087
▁wider	-13.9089
▁closest	-13.9089
lung	-13.9091
▁correctly	-13.9092
▁Indies	-13.9092
▁flute	-13.9094
▁Dal	-13.9094
grunting	-13.9097
▁hence	-13.9101
▁Cai	-13.9103
▁coordinates	-13.9104
▁Semi	-13.9105
▁Canal	-13.9111
▁Hide	-13.9111
King	-13.9125
▁8:	-13.9128
▁infections	-13.9132
▁Lab	-13.9133
▁habitat	-13.9134
▁beasts	-13.9138
▁4:	-13.914
uddy	-13.9149
▁epic	-13.9154
talk	-13.9155
▁equations	-13.9156
▁yer	-13.9156
▁Rama	-13.9157
▁manufacture	-13.9164
rror	-13.9168
▁Tale	-13.9171
Super	-13.9171
▁Gill	-13.9172
▁Abu	-13.9176
▁grind	-13.9178
wal	-13.9182
▁Row	-13.9183
AGE	-13.9183
▁lone	-13.9185
Wait	-13.9185
▁abandon	-13.9191
▁Elliot	-13.9194
▁Natalie	-13.9194
▁Nevertheless	-13.9194
▁Westminster	-13.9194
▁complications	-13.9194
▁helmet	-13.9194
▁pianist	-13.9194
▁pneumonia	-13.9194
▁steadily	-13.9194
▁Bahrain	-13.9194
▁TWO	-13.9194
▁Maurice	-13.9194
▁mischief	-13.9194
▁necklace	-13.9194
▁admission	-13.9194
▁Goddamn	-13.9194
▁induce	-13.9194
▁Ghost	-13.9194
▁incur	-13.9194
▁Esther	-13.9194
▁submit	-13.9194
▁Southeast	-13.9194
▁Archie	-13.9194
▁Arabic	-13.9194
▁Salem	-13.9194
▁installed	-13.9195
▁intersection	-13.9195
▁utterly	-13.9196
▁wandered	-13.9196
▁Duck	-13.9196
▁yup	-13.9197
▁Paulie	-13.9198
▁Miles	-13.9198
▁Vietnamese	-13.9198
▁WOMAN	-13.9199
▁Mall	-13.9201
▁deserved	-13.9204
▁Hence	-13.9205
▁knocking	-13.9205
▁Vel	-13.9206
oids	-13.9209
▁farming	-13.9214
▁Canon	-13.9214
▁boarding	-13.9222
▁Turks	-13.9226
yst	-13.9233
anza	-13.9243
▁Race	-13.9244
opho	-13.9252
▁dug	-13.9258
▁Fil	-13.9266
abby	-13.9274
▁heating	-13.9277
alf	-13.9277
▁lined	-13.9278
▁visitor	-13.928
▁Bry	-13.9281
▁Poe	-13.9285
▁Teach	-13.9287
second	-13.9288
▁resolve	-13.9302
angled	-13.9302
▁smash	-13.9302
▁Tree	-13.9302
uebec	-13.9305
▁Alliance	-13.9305
▁Baldwin	-13.9305
▁Bundesliga	-13.9305
▁Ferdinand	-13.9305
▁GONNA	-13.9305
▁Hemingway	-13.9305
▁Military	-13.9305
▁NCAA	-13.9305
▁Sophia	-13.9305
▁Stupid	-13.9305
▁autumn	-13.9305
▁happier	-13.9305
▁picnic	-13.9305
▁rainforest	-13.9305
▁soundtrack	-13.9305
▁surplus	-13.9305
▁territories	-13.9305
▁Majnun	-13.9305
▁niece	-13.9305
▁parcel	-13.9305
▁Facebook	-13.9305
▁meadow	-13.9305
▁forecast	-13.9305
▁cowboy	-13.9305
▁Legend	-13.9305
▁Finance	-13.9305
▁clutch	-13.9305
▁blacksmith	-13.9305
▁frown	-13.9305
▁pearl	-13.9305
▁Freddy	-13.9305
▁resignation	-13.9305
▁hardware	-13.9305
▁lump	-13.9305
▁mansion	-13.9305
▁DID	-13.9306
▁allowance	-13.9306
▁Math	-13.9306
▁shipping	-13.9306
▁fitting	-13.9306
▁swiftly	-13.9307
▁Stock	-13.9307
▁eliminated	-13.9308
Chi	-13.931
▁proceeded	-13.9312
taine	-13.9313
▁Magic	-13.9314
▁snip	-13.9314
▁Comm	-13.9316
▁Wong	-13.9317
yang	-13.9319
▁behold	-13.9321
drop	-13.9322
jack	-13.9328
▁Type	-13.933
▁Eyes	-13.933
logical	-13.9334
▁dial	-13.9335
articula	-13.9336
▁Parker	-13.9337
▁Past	-13.934
▁dye	-13.934
check	-13.9341
▁Range	-13.9342
▁shooter	-13.9343
intercept	-13.9349
▁wool	-13.9353
osa	-13.9357
shaw	-13.9357
▁layers	-13.9358
opped	-13.9362
▁Historic	-13.9366
▁samples	-13.937
▁Kali	-13.9373
▁Unit	-13.9381
▁remark	-13.9386
kill	-13.9387
asket	-13.9391
SW	-13.9392
Tra	-13.9403
▁Late	-13.9404
▁Def	-13.9412
▁Box	-13.9414
▁Fellow	-13.9417
▁Mercury	-13.9417
utonomous	-13.9417
▁Algeria	-13.9417
▁Barcelona	-13.9417
▁Gospel	-13.9417
▁Senior	-13.9417
▁WORK	-13.9417
▁competing	-13.9417
▁continually	-13.9417
▁intervention	-13.9417
▁legislature	-13.9417
▁luxury	-13.9417
▁manuscript	-13.9417
▁motivation	-13.9417
▁recipe	-13.9417
▁removal	-13.9417
▁sensible	-13.9417
▁sergeant	-13.9417
▁cartridge	-13.9417
▁Dublin	-13.9417
▁transmission	-13.9417
▁conquest	-13.9417
▁compelled	-13.9417
▁Petty	-13.9417
▁Mustang	-13.9417
▁Powell	-13.9417
Saxon	-13.9418
▁Leima	-13.9418
▁sunset	-13.9418
▁retail	-13.9418
▁Taking	-13.9418
▁inherited	-13.9418
▁Iranian	-13.942
▁Kir	-13.942
▁approaches	-13.9421
▁retained	-13.9421
▁Fern	-13.9424
▁collapsed	-13.9426
▁Romeo	-13.9426
▁printing	-13.9428
▁Hari	-13.9432
▁cited	-13.9434
▁Dia	-13.9435
UP	-13.9441
▁coaching	-13.9441
▁Oi	-13.9444
▁saints	-13.9446
▁Hop	-13.9449
▁complaints	-13.945
▁Champions	-13.9456
▁fossils	-13.9458
▁stare	-13.9462
▁McCa	-13.9462
rose	-13.9463
hina	-13.9465
▁poems	-13.9474
▁Sue	-13.9475
▁Fly	-13.9479
▁runner	-13.9481
avyweight	-13.949
▁saint	-13.9502
▁Prof	-13.9506
wife	-13.9509
▁lame	-13.9511
▁whale	-13.9513
atta	-13.9515
▁interact	-13.9522
▁Flu	-13.9527
▁Hoo	-13.9527
▁demonstrate	-13.9528
▁calculate	-13.9528
▁exhaust	-13.9528
▁Tournament	-13.9531
▁amusement	-13.9531
▁centimeters	-13.9531
▁competitive	-13.9531
▁competitor	-13.9531
▁encouraging	-13.9531
▁penguin	-13.9531
▁phenomenon	-13.9531
▁turbine	-13.9531
▁torpedo	-13.9531
▁SPEAKER	-13.9531
▁URL	-13.9531
▁Speed	-13.9531
▁freight	-13.9531
▁Pierre	-13.9531
footsteps	-13.9531
▁residential	-13.9531
▁Thunder	-13.9531
▁jolly	-13.9531
▁moonlight	-13.9531
text	-13.9531
▁chaos	-13.9531
▁Factor	-13.9531
▁shaft	-13.9531
▁LET	-13.9531
▁Potter	-13.9531
▁Moreover	-13.9531
▁scorn	-13.9531
▁Workers	-13.9532
▁voters	-13.9532
▁inquired	-13.9532
▁Annie	-13.9532
▁Batman	-13.9532
▁idol	-13.9534
▁Stoke	-13.9534
▁Whenever	-13.9534
▁desperately	-13.9534
▁surrendered	-13.9536
▁wiped	-13.9536
▁Normal	-13.9537
▁handful	-13.9537
▁safer	-13.9539
▁suggesting	-13.9542
▁SEE	-13.9545
▁scent	-13.9545
▁threaten	-13.9546
▁Pink	-13.9548
▁printer	-13.9548
▁Speaking	-13.955
PORT	-13.9555
▁neighbours	-13.9557
▁specially	-13.9558
▁whales	-13.956
▁hyp	-13.9561
▁owing	-13.9561
▁viewed	-13.9564
operative	-13.9568
▁sip	-13.957
▁clinic	-13.9574
▁arrows	-13.9575
doo	-13.9576
▁lightly	-13.9577
▁DEA	-13.9579
pond	-13.9579
▁homeless	-13.9584
FT	-13.9586
ugu	-13.9588
uka	-13.9594
▁observer	-13.9596
wald	-13.9603
▁Tama	-13.9608
▁particle	-13.9618
including	-13.9623
third	-13.9623
Black	-13.9623
▁Todd	-13.9625
ACH	-13.9626
Wi	-13.9627
guh	-13.9632
▁informal	-13.9634
▁parade	-13.9637
▁implement	-13.964
▁depart	-13.9641
▁Nova	-13.9641
▁Cathedral	-13.9646
▁Celtic	-13.9646
▁Ottawa	-13.9646
▁THINK	-13.9646
▁TIME	-13.9646
▁Twitter	-13.9646
▁altitude	-13.9646
▁ambassador	-13.9646
▁antibiotics	-13.9646
▁crucial	-13.9646
▁predecessor	-13.9646
▁relativity	-13.9646
▁trembling	-13.9646
▁unpleasant	-13.9646
▁dentist	-13.9646
▁fortnight	-13.9646
▁Female	-13.9646
▁disrupt	-13.9646
▁Harbor	-13.9646
▁Thames	-13.9646
▁Lucky	-13.9646
▁Clement	-13.9646
▁wheat	-13.9646
▁Tamil	-13.9646
▁colonial	-13.9646
▁lawsuit	-13.9646
▁HBO	-13.9646
▁automatic	-13.9646
▁Scout	-13.9646
▁boundary	-13.9646
▁sunlight	-13.9646
▁flick	-13.9647
▁transportation	-13.9647
▁absorbed	-13.9648
▁ANY	-13.9649
▁premiered	-13.9649
▁transformed	-13.965
▁elderly	-13.965
▁render	-13.965
▁speeches	-13.965
▁addresses	-13.9651
▁drafted	-13.9651
▁Holly	-13.9651
▁supporters	-13.9653
▁Dex	-13.9653
▁significantly	-13.9654
train	-13.9656
▁ingredients	-13.9657
▁destroying	-13.9657
▁Return	-13.9657
pool	-13.9658
▁claiming	-13.9658
▁bothering	-13.9658
atsu	-13.9659
▁monthly	-13.9662
▁unity	-13.9665
▁mechanics	-13.9665
▁Commons	-13.9681
▁volunteers	-13.9687
▁Ahh	-13.9689
▁proposals	-13.9692
NG	-13.9693
▁Historical	-13.9698
▁Torre	-13.9703
▁Lost	-13.9709
▁customs	-13.9709
▁demons	-13.9715
mok	-13.9722
TED	-13.9724
▁Maid	-13.9729
▁Corr	-13.9738
why	-13.974
July	-13.9742
June	-13.9742
▁Ava	-13.9742
▁magical	-13.9745
▁Elm	-13.9746
▁Tag	-13.9747
▁transmit	-13.9762
▁solitary	-13.9762
▁Axel	-13.9762
▁Computer	-13.9762
▁Scientists	-13.9762
▁congregation	-13.9762
▁deceive	-13.9762
▁denomination	-13.9762
▁hormone	-13.9762
▁leisure	-13.9762
▁limbs	-13.9762
▁query	-13.9762
▁syndrome	-13.9762
▁velocity	-13.9762
▁Adolf	-13.9762
▁shrink	-13.9762
▁Trevor	-13.9762
EVER	-13.9762
▁navy	-13.9762
▁Sallie	-13.9762
▁unfair	-13.9762
▁revolutionary	-13.9762
▁Movie	-13.9762
▁integrated	-13.9763
▁lifestyle	-13.9763
▁Eden	-13.9764
▁exclusively	-13.9764
▁pillar	-13.9767
▁commissioned	-13.9767
▁masses	-13.9768
▁Gul	-13.9769
▁awfully	-13.9769
▁Porter	-13.9769
▁prayed	-13.977
▁Peak	-13.977
▁struggled	-13.9772
▁Warner	-13.9772
▁flashed	-13.9773
▁Worth	-13.9774
▁sooth	-13.9779
Che	-13.9782
▁bald	-13.9782
▁Pack	-13.9782
▁bail	-13.9793
▁doorway	-13.9797
agged	-13.9803
▁vocals	-13.9805
▁hurting	-13.9805
▁Ahmad	-13.981
▁Pitt	-13.981
Engine	-13.9812
▁heck	-13.9815
zio	-13.9816
▁Fast	-13.983
start	-13.9833
▁Bond	-13.9851
correct	-13.9857
because	-13.9858
▁Oil	-13.986
▁Der	-13.9867
▁stain	-13.9868
▁Tara	-13.9869
▁absorb	-13.9877
control	-13.9877
▁dwell	-13.9877
▁guilt	-13.9878
www	-13.988
▁prevail	-13.988
GRUNTS	-13.988
▁Android	-13.988
▁Buffalo	-13.988
▁Corsica	-13.988
▁LIKE	-13.988
▁Previously	-13.988
▁Prussia	-13.988
▁Radhika	-13.988
▁amazed	-13.988
▁conspiracy	-13.988
▁enhance	-13.988
▁ignorance	-13.988
▁industries	-13.988
▁phenomena	-13.988
▁prefecture	-13.988
▁recycle	-13.988
▁rehearsal	-13.988
▁swung	-13.988
▁widespread	-13.988
▁yogurt	-13.988
▁delegate	-13.988
▁Plummer	-13.988
▁Gregory	-13.988
▁Freddie	-13.988
▁Cruz	-13.988
▁cupboard	-13.988
▁healing	-13.988
▁Delhi	-13.988
▁Throw	-13.988
▁Concha	-13.988
▁trumpet	-13.988
▁Plot	-13.9881
▁laser	-13.9881
▁Movement	-13.9882
▁delete	-13.9882
▁Pavel	-13.9882
▁fastest	-13.9883
▁generated	-13.9883
▁replacement	-13.9884
ACE	-13.9885
▁taller	-13.9885
▁Starting	-13.9886
indian	-13.9886
▁dorm	-13.9887
scape	-13.9887
▁Mikey	-13.9889
▁poop	-13.9892
yah	-13.9892
▁Tate	-13.9894
MON	-13.9895
▁cellar	-13.9896
▁Gau	-13.9897
▁garments	-13.9897
▁Fish	-13.9899
ATION	-13.9901
▁Beg	-13.9902
coloured	-13.9903
▁FE	-13.9906
▁ramp	-13.9908
▁Ama	-13.9918
▁Ravens	-13.992
scale	-13.9928
arri	-13.9937
▁5:	-13.9944
▁specialist	-13.9946
migr	-13.9965
▁Rah	-13.9969
stream	-13.9978
hei	-13.998
orpor	-13.998
▁AV	-13.9981
▁Sony	-13.9992
eau	-13.9995
▁execute	-13.9996
▁CLARE	-13.9999
▁Meredith	-13.9999
▁Nicholas	-13.9999
▁Wagner	-13.9999
▁YEAH	-13.9999
▁computing	-13.9999
▁dagger	-13.9999
▁dioxide	-13.9999
▁essence	-13.9999
▁evaluation	-13.9999
▁feminist	-13.9999
▁kilometers	-13.9999
▁oatmeal	-13.9999
▁offspring	-13.9999
▁withdrew	-13.9999
▁Athens	-13.9999
▁Munich	-13.9999
▁flirt	-13.9999
▁pigeon	-13.9999
quantum	-13.9999
▁horizontal	-13.9999
▁Shirley	-13.9999
▁mindfulness	-13.9999
▁waving	-13.9999
▁Style	-13.9999
▁Smart	-13.9999
▁Independent	-13.9999
▁dislike	-14
▁scold	-14
▁dominated	-14
cylinder	-14
▁Chess	-14
▁blah	-14
▁senator	-14
ummer	-14.0001
▁dwelling	-14.0002
▁respectable	-14.0002
▁halfway	-14.0002
▁conquered	-14.0002
▁complained	-14.0003
▁researchers	-14.0003
▁stating	-14.0004
▁Reform	-14.0006
▁aimed	-14.0008
▁Stro	-14.0011
▁blamed	-14.0011
▁Ariel	-14.0012
▁focusing	-14.0014
▁packet	-14.0018
ichi	-14.0024
insky	-14.0024
ador	-14.0031
▁Iike	-14.0034
▁Lay	-14.0036
▁tips	-14.0043
▁Nava	-14.0049
flower	-14.0051
▁clearing	-14.0052
▁bade	-14.0055
▁shaped	-14.006
▁publish	-14.0062
▁canton	-14.0062
▁perish	-14.0064
▁questioning	-14.0067
bha	-14.0071
▁Eng	-14.0074
oster	-14.0085
▁inventor	-14.0088
▁regulation	-14.009
Woman	-14.0097
▁Baba	-14.0101
ATT	-14.0103
rump	-14.0106
▁disturb	-14.0113
March	-14.0116
▁thorough	-14.0118
▁functional	-14.0119
▁Cardinal	-14.0119
▁GEORGE	-14.0119
▁Latvia	-14.0119
▁Sussex	-14.0119
▁Universe	-14.0119
▁admiration	-14.0119
▁consecutive	-14.0119
▁enthusiasm	-14.0119
▁grammar	-14.0119
▁irregular	-14.0119
▁pussy	-14.0119
▁situated	-14.0119
▁squirrel	-14.0119
▁supplied	-14.0119
▁umbrella	-14.0119
▁Punjab	-14.0119
▁automobile	-14.0119
▁Weather	-14.0119
▁contradict	-14.0119
▁insight	-14.0119
▁constitutional	-14.012
abbage	-14.012
▁disappointment	-14.012
▁readily	-14.0121
▁outstanding	-14.0121
▁perceived	-14.0121
male	-14.0122
▁stripes	-14.0122
▁erase	-14.0123
▁descended	-14.0124
▁altered	-14.0124
▁advised	-14.0124
▁Making	-14.0124
▁acute	-14.0124
▁advertisement	-14.0126
▁canvas	-14.0126
▁packing	-14.013
▁socio	-14.0131
▁flowing	-14.0133
▁bog	-14.0139
▁hopeless	-14.0145
▁Mission	-14.0145
▁wept	-14.0147
▁hedge	-14.0148
endo	-14.0149
page	-14.0153
ante	-14.0164
etch	-14.0168
▁6:	-14.0173
▁hail	-14.0178
▁Dig	-14.0179
broke	-14.0186
▁Bala	-14.0187
MM	-14.0189
escu	-14.0192
member	-14.0205
▁Sultan	-14.0207
▁Kol	-14.0207
▁2"	-14.0208
jour	-14.0214
thus	-14.0218
worm	-14.0218
Raw	-14.022
▁Boul	-14.0221
▁Java	-14.0222
irk	-14.0224
▁Lib	-14.0236
great	-14.0236
▁Bid	-14.0238
▁reinforce	-14.0241
▁contempt	-14.0241
▁Atlantis	-14.0241
▁Century	-14.0241
▁Infantry	-14.0241
▁Mandalay	-14.0241
▁Naples	-14.0241
▁Organization	-14.0241
▁astronaut	-14.0241
▁breeze	-14.0241
▁fishermen	-14.0241
▁fountain	-14.0241
▁imprisoned	-14.0241
▁infrastructure	-14.0241
▁inquiry	-14.0241
▁isolated	-14.0241
▁mathematician	-14.0241
▁smack	-14.0241
▁streak	-14.0241
▁twentieth	-14.0241
▁circulation	-14.0241
▁Further	-14.0241
▁Hopkins	-14.0241
▁Manager	-14.0241
▁prostitute	-14.0241
▁prophet	-14.0241
▁tremble	-14.0241
▁indication	-14.0241
▁NEED	-14.0241
▁Garcia	-14.0241
▁Seems	-14.0241
▁Travis	-14.0241
▁keyboard	-14.0241
▁Tracy	-14.0241
▁dispose	-14.0242
▁Cairo	-14.0242
▁deliberately	-14.0242
▁Somalia	-14.0242
▁Labor	-14.0242
uaker	-14.0242
▁cheated	-14.0242
▁Jump	-14.0242
▁Originally	-14.0242
▁confined	-14.0243
▁Roland	-14.0243
▁disturbed	-14.0244
tropolitan	-14.0244
▁leaned	-14.0245
▁euro	-14.0246
▁formally	-14.0247
▁dusk	-14.0248
▁alarmed	-14.0249
▁Assyrians	-14.025
▁maintaining	-14.0252
▁Bul	-14.0257
dged	-14.0259
▁parked	-14.0266
▁Bass	-14.0269
gawa	-14.027
Per	-14.027
fashioned	-14.0278
▁Hour	-14.0289
grapher	-14.0308
Cr	-14.0314
MD	-14.0315
VA	-14.0316
▁Rep	-14.0318
▁runway	-14.0325
rik	-14.0326
▁exclude	-14.0327
Big	-14.0331
▁neighbour	-14.0333
▁conventional	-14.0337
▁cleaner	-14.0338
serving	-14.0339
▁Yong	-14.0342
want	-14.0343
rug	-14.0348
Our	-14.0351
RD	-14.0353
▁instruct	-14.0353
trust	-14.0355
storm	-14.0358
▁heroin	-14.0359
▁disgust	-14.0362
▁flush	-14.0363
▁affirm	-14.0364
▁Higgins	-14.0364
▁Tamsui	-14.0364
▁Ukraine	-14.0364
▁auction	-14.0364
▁diversity	-14.0364
▁gracious	-14.0364
▁hazard	-14.0364
▁nonconvex	-14.0364
▁probable	-14.0364
▁relating	-14.0364
▁sausage	-14.0364
▁sophisticated	-14.0364
▁shrine	-14.0365
▁regulate	-14.0365
▁swarm	-14.0365
▁Consider	-14.0365
▁Melissa	-14.0365
▁Register	-14.0365
▁descendants	-14.0365
▁rotten	-14.0365
▁Culture	-14.0365
▁uncertainty	-14.0365
▁sarah	-14.0365
▁Oakland	-14.0365
▁Montana	-14.0365
▁ownership	-14.0365
▁Geoff	-14.0365
▁Kenya	-14.0365
▁corruption	-14.0365
▁Outside	-14.0365
▁stepping	-14.0365
▁subtract	-14.0365
▁diesel	-14.0366
▁Wilbur	-14.0366
▁Foster	-14.0366
▁strictly	-14.0367
▁mining	-14.0367
▁persuaded	-14.0367
▁repeatedly	-14.0369
▁Arena	-14.0369
▁Midland	-14.037
▁kite	-14.0373
▁acquire	-14.0376
▁Ober	-14.0377
▁stag	-14.0377
▁Kah	-14.038
▁dough	-14.038
▁lass	-14.0383
▁fixing	-14.0385
▁swamp	-14.0387
▁CR	-14.0393
▁respected	-14.0394
▁traded	-14.0396
DO	-14.0396
▁visa	-14.04
▁Socialist	-14.0407
boro	-14.0427
▁holder	-14.0427
▁Dock	-14.043
▁Dee	-14.0435
▁crayon	-14.0461
▁Israeli	-14.0467
▁flap	-14.0469
founded	-14.0471
▁Viv	-14.0474
Best	-14.0478
▁accord	-14.0486
▁expose	-14.0487
▁Person	-14.0487
▁enforce	-14.0489
PEOPLE	-14.0489
indistinct	-14.0489
▁Adventure	-14.0489
▁Cincinnati	-14.0489
▁Construction	-14.0489
▁Crystal	-14.0489
▁Dunkirk	-14.0489
▁Miyamoto	-14.0489
▁Nottingham	-14.0489
▁Phoenix	-14.0489
▁bankrupt	-14.0489
▁blossom	-14.0489
▁derivative	-14.0489
▁dominant	-14.0489
▁fracture	-14.0489
▁lizard	-14.0489
▁motherfucker	-14.0489
▁rhyme	-14.0489
▁Rapid	-14.049
▁presume	-14.049
▁Dasht	-14.049
▁lantern	-14.049
▁whirl	-14.049
▁involvement	-14.049
▁restless	-14.049
▁cloak	-14.049
▁cereal	-14.049
▁accidentally	-14.049
▁Often	-14.049
▁Trude	-14.049
▁Presently	-14.0491
▁Regan	-14.0491
IF	-14.0491
▁unlock	-14.0491
▁virtually	-14.0491
▁morality	-14.0491
▁damp	-14.0491
▁bushes	-14.0491
▁Artie	-14.0492
▁eagerly	-14.0493
▁strongest	-14.0493
▁analog	-14.0493
pati	-14.0493
▁bitterly	-14.0494
pathy	-14.0494
▁mentally	-14.0495
▁linger	-14.0496
▁Apart	-14.0496
▁Franco	-14.0497
▁gee	-14.0497
▁Lex	-14.0497
▁attending	-14.0499
▁Lovely	-14.0501
▁Palmer	-14.0502
▁Turner	-14.0503
▁broadcasting	-14.0504
▁forbid	-14.0506
MENT	-14.0506
▁ross	-14.0507
▁Dana	-14.0509
▁marking	-14.0511
▁marrying	-14.0513
chair	-14.0521
▁Buy	-14.0521
▁poorly	-14.0522
▁fry	-14.0522
▁Intel	-14.0537
▁Pig	-14.0538
▁bunk	-14.0539
TON	-14.0545
▁Por	-14.0549
DD	-14.0551
kie	-14.0552
beck	-14.0554
▁Thy	-14.0567
▁Josh	-14.0568
▁performer	-14.0568
▁Cub	-14.057
▁charter	-14.0575
▁distinguish	-14.058
▁Till	-14.0583
▁Continu	-14.0589
Nothing	-14.0594
proof	-14.0594
ADE	-14.0598
▁persuade	-14.0613
▁municipal	-14.0616
▁Airlines	-14.0616
▁Broadcasting	-14.0616
▁Definitely	-14.0616
▁Gaelic	-14.0616
▁Honestly	-14.0616
▁Regiment	-14.0616
▁WOULD	-14.0616
▁exponent	-14.0616
▁kilometres	-14.0616
▁mattress	-14.0616
▁membrane	-14.0616
▁obligation	-14.0616
▁participant	-14.0616
▁siege	-14.0616
▁surveillance	-14.0616
▁width	-14.0616
SmackDown	-14.0616
▁Bermuda	-14.0616
▁Mustafa	-14.0616
▁Shutterstock	-14.0616
▁telescope	-14.0616
▁Buddha	-14.0616
▁constitute	-14.0616
▁chronic	-14.0616
▁ferment	-14.0616
▁Studies	-14.0616
▁Preston	-14.0616
▁witchcraft	-14.0616
▁Bailey	-14.0616
▁pedal	-14.0616
▁Nepal	-14.0616
▁flutter	-14.0616
▁colonies	-14.0616
▁Bravo	-14.0616
spiring	-14.0617
▁potatoes	-14.0617
▁spotted	-14.0618
▁Syriac	-14.0618
▁fitted	-14.0618
▁offended	-14.0618
▁VII	-14.0618
▁condemned	-14.0618
▁Drew	-14.0619
▁declined	-14.062
half	-14.062
▁sufficiently	-14.062
▁greeting	-14.062
▁sue	-14.062
▁Rice	-14.062
▁ignored	-14.0621
▁thriller	-14.0621
▁screamed	-14.0622
▁Evans	-14.0623
faced	-14.0624
▁Bai	-14.0625
▁failing	-14.0626
both	-14.0626
▁separately	-14.0626
▁Matter	-14.0629
▁corrected	-14.0633
acco	-14.0635
▁collector	-14.0637
▁noun	-14.0639
▁honk	-14.064
▁jewels	-14.064
minating	-14.0651
legged	-14.0654
▁boiler	-14.0655
▁arse	-14.0657
▁Guide	-14.0687
oga	-14.0719
▁Saba	-14.072
source	-14.0721
keeping	-14.0722
August	-14.0722
trained	-14.0725
▁Nur	-14.0728
clear	-14.073
ovich	-14.0731
▁Eye	-14.0731
▁recon	-14.0744
▁Alpha	-14.0744
▁FOUR	-14.0744
▁Montreal	-14.0744
▁Yellow	-14.0744
▁accommodate	-14.0744
▁assuming	-14.0744
▁custody	-14.0744
▁filthy	-14.0744
▁impatient	-14.0744
▁infected	-14.0744
▁massacre	-14.0744
▁muttered	-14.0744
▁paradox	-14.0744
▁sibling	-14.0744
▁theoretical	-14.0744
▁volcano	-14.0744
▁regulator	-14.0744
extraterrestrial	-14.0744
▁cautious	-14.0744
▁hastily	-14.0744
▁robbed	-14.0744
▁Freedom	-14.0744
▁Hawkins	-14.0744
▁Desert	-14.0744
▁Lydia	-14.0744
▁bruise	-14.0744
▁radar	-14.0744
▁crane	-14.0745
stadt	-14.0745
▁Alexandr	-14.0745
▁yawn	-14.0745
▁Canyon	-14.0745
▁fridge	-14.0745
▁Boots	-14.0745
▁cunning	-14.0745
▁tossed	-14.0745
▁diverse	-14.0745
▁Travel	-14.0745
▁Lilly	-14.0745
▁wretched	-14.0745
oronation	-14.0746
▁blog	-14.0746
▁VIII	-14.0746
▁Hamlet	-14.0746
▁Murder	-14.0746
▁neighbouring	-14.0747
▁playoff	-14.0748
▁Marx	-14.0748
▁Frankie	-14.0748
▁skate	-14.0749
▁anyhow	-14.0749
▁LEA	-14.0749
eux	-14.0749
▁Bess	-14.075
▁rapper	-14.0751
▁talented	-14.0752
▁Using	-14.0752
came	-14.0753
▁guardian	-14.0756
▁Rest	-14.0759
▁attempting	-14.076
▁pressing	-14.0765
enstein	-14.0766
▁practiced	-14.0767
amma	-14.0768
▁Rao	-14.0768
▁merit	-14.0769
▁stored	-14.0771
Continues	-14.0772
▁claws	-14.0772
▁stunt	-14.0776
HS	-14.0787
▁Rank	-14.0788
▁suite	-14.0789
▁dimension	-14.079
▁Richie	-14.0792
▁7:	-14.0793
code	-14.0795
▁reside	-14.0799
riving	-14.0802
▁Bone	-14.0818
eye	-14.0819
minded	-14.082
▁plank	-14.0821
wear	-14.083
▁Brent	-14.0831
PT	-14.0831
▁Jung	-14.0832
▁surf	-14.0849
April	-14.0851
General	-14.0851
January	-14.0851
South	-14.0852
ALE	-14.0859
working	-14.0862
▁sustain	-14.0871
▁addict	-14.0872
▁seize	-14.0872
▁glitter	-14.0874
▁occupy	-14.0874
▁Andersen	-14.0874
▁Argentine	-14.0874
▁Buddhism	-14.0874
▁Independence	-14.0874
▁Treasure	-14.0874
▁Violet	-14.0874
▁abdomen	-14.0874
▁bamboo	-14.0874
▁cooperation	-14.0874
▁meanwhile	-14.0874
▁necessity	-14.0874
▁paradise	-14.0874
▁premises	-14.0874
▁vacuum	-14.0874
▁voluntary	-14.0874
▁apology	-14.0874
▁inscription	-14.0874
▁jingle	-14.0874
▁relics	-14.0874
▁confusing	-14.0874
▁variant	-14.0874
▁IBM	-14.0874
▁psychology	-14.0874
▁Urban	-14.0874
▁deceased	-14.0874
▁investors	-14.0874
▁vault	-14.0874
▁vivid	-14.0874
▁replica	-14.0874
▁decay	-14.0874
▁lumber	-14.0875
▁Morton	-14.0875
▁feudal	-14.0875
▁Jamie	-14.0875
▁greedy	-14.0875
▁digest	-14.0876
▁Antarctica	-14.0876
▁tractor	-14.0876
▁Chp	-14.0876
▁Villa	-14.0876
▁Daily	-14.0876
▁Andrea	-14.0877
▁unlikely	-14.0877
▁Verde	-14.0878
▁Rico	-14.0878
▁Circle	-14.0879
▁encountered	-14.0879
▁Push	-14.0881
▁merge	-14.0884
▁Louise	-14.0884
▁Alberta	-14.0884
mania	-14.0884
▁Understand	-14.0887
▁Sav	-14.0888
▁deity	-14.089
▁Table	-14.0898
▁lowered	-14.09
▁Singh	-14.0902
▁Wish	-14.0903
MER	-14.0907
ondo	-14.0913
▁Artist	-14.0916
▁Cala	-14.0916
▁nope	-14.0929
▁Lyon	-14.093
▁Pam	-14.0945
fal	-14.095
fess	-14.0956
▁mash	-14.0956
hock	-14.0961
▁Tink	-14.0969
essa	-14.0973
season	-14.0983
Great	-14.0983
trans	-14.0993
▁Large	-14.0995
▁baron	-14.1002
▁lease	-14.1003
Love	-14.1006
▁Bastard	-14.1006
GASPS	-14.1006
▁Darreh	-14.1006
▁Jimmie	-14.1006
▁LOVE	-14.1006
▁Olivia	-14.1006
▁Pradesh	-14.1006
▁abrupt	-14.1006
▁analyze	-14.1006
▁cooperate	-14.1006
▁enlighten	-14.1006
▁gallery	-14.1006
▁integer	-14.1006
▁portfolio	-14.1006
▁prosecution	-14.1006
▁retiring	-14.1006
▁despise	-14.1006
▁proceedings	-14.1006
▁Shaolin	-14.1006
▁Halvor	-14.1006
▁Background	-14.1006
▁Lavender	-14.1006
▁hull	-14.1006
▁shovel	-14.1006
▁Derby	-14.1006
▁Funny	-14.1006
PHONE	-14.1006
▁Geneva	-14.1006
▁submitted	-14.1006
▁Iceland	-14.1006
▁feedback	-14.1006
▁Denver	-14.1006
▁Standard	-14.1006
▁stool	-14.1006
▁traveller	-14.1007
▁Snake	-14.1007
▁pest	-14.1007
▁Rather	-14.1007
▁awareness	-14.1007
▁madness	-14.1008
▁pasture	-14.1008
▁slit	-14.1008
▁acceptable	-14.1008
▁transit	-14.1008
▁departed	-14.1009
▁implementation	-14.1009
▁louder	-14.1013
▁Milk	-14.1013
▁crosses	-14.1015
▁truncate	-14.1015
▁calmly	-14.1016
▁hooked	-14.1016
▁Cult	-14.1016
▁negotiations	-14.1017
▁Stage	-14.1022
▁watches	-14.1023
▁someday	-14.1026
ucci	-14.1028
▁COM	-14.1029
▁flourish	-14.1034
▁Tyr	-14.1038
hurst	-14.1039
▁Marsh	-14.1052
hausen	-14.1053
kai	-14.1053
▁Dai	-14.1059
▁zip	-14.1061
▁Rip	-14.1063
robe	-14.1073
▁cracker	-14.1077
misunderstanding	-14.1077
▁Pir	-14.1078
Her	-14.1084
lord	-14.1088
▁fig	-14.1092
▁Usta	-14.1093
▁Saul	-14.1103
turned	-14.1104
▁Oz	-14.1106
▁molecule	-14.111
▁vegetable	-14.111
▁insect	-14.1111
▁requirement	-14.1111
▁Grim	-14.1112
BER	-14.1112
Stop	-14.112
mile	-14.1122
vir	-14.1125
▁spar	-14.1129
▁decor	-14.1132
▁wander	-14.1135
▁evident	-14.1137
▁uncertain	-14.1139
▁Album	-14.1139
▁Ambassador	-14.1139
▁Audrey	-14.1139
▁Behind	-14.1139
▁Correct	-14.1139
▁Discovery	-14.1139
▁Hogarth	-14.1139
▁Hundred	-14.1139
▁Jennifer	-14.1139
▁Laxminarayan	-14.1139
▁Raymond	-14.1139
▁Symphony	-14.1139
▁Territory	-14.1139
▁Twelve	-14.1139
▁Wrong	-14.1139
▁abdominal	-14.1139
▁inferior	-14.1139
▁investigating	-14.1139
▁nucleus	-14.1139
▁nursing	-14.1139
▁portrayed	-14.1139
▁refrigerator	-14.1139
▁trustees	-14.1139
▁Afterwards	-14.1139
▁Finnish	-14.1139
▁tribute	-14.1139
▁Release	-14.1139
▁aloud	-14.1139
▁gallop	-14.1139
▁grams	-14.1139
▁Folk	-14.1139
▁bulb	-14.1139
▁singular	-14.1139
▁Randy	-14.1139
▁attendance	-14.114
▁Gharb	-14.114
▁Southwest	-14.114
Gasps	-14.114
▁originated	-14.114
▁chorus	-14.114
▁slam	-14.1141
▁partially	-14.1141
▁audition	-14.1142
▁annoying	-14.1142
teau	-14.1142
▁concentrated	-14.1143
▁penis	-14.1144
▁admired	-14.1144
▁pence	-14.1145
▁publicity	-14.1146
▁Vincent	-14.1146
▁Working	-14.1146
▁Vladimir	-14.1146
▁Lance	-14.1147
▁Spaniards	-14.1148
▁praying	-14.1149
▁rushing	-14.1149
▁switching	-14.1152
▁Forty	-14.1155
▁sofa	-14.116
▁Egg	-14.1162
▁cruiser	-14.1165
▁messing	-14.1168
▁neo	-14.1171
▁haul	-14.1175
▁illustrate	-14.1179
▁gardener	-14.1183
▁Solo	-14.1188
ICE	-14.1197
▁straighten	-14.1198
▁poke	-14.1204
▁sticker	-14.121
rrier	-14.121
▁Paper	-14.1213
illion	-14.1221
pia	-14.1224
▁boxer	-14.1224
▁defender	-14.1225
RIS	-14.1235
▁Via	-14.1244
▁pastor	-14.1245
▁armor	-14.1249
Girl	-14.1252
▁disk	-14.1256
▁Pont	-14.1256
▁dame	-14.126
origin	-14.1263
▁assess	-14.1273
Cam	-14.1274
▁mercury	-14.1274
▁screech	-14.1274
▁Double	-14.1274
▁Eisenhower	-14.1274
▁Eleanor	-14.1274
▁Episode	-14.1274
▁Heritage	-14.1274
▁Liberal	-14.1274
▁academy	-14.1274
▁evaluate	-14.1274
▁fugitive	-14.1274
▁misfortune	-14.1274
▁recursive	-14.1274
▁removing	-14.1274
▁stubborn	-14.1274
▁thieves	-14.1274
▁prototype	-14.1274
▁innovation	-14.1274
▁foetus	-14.1274
▁revival	-14.1274
▁limestone	-14.1274
▁prestig	-14.1274
grunts	-14.1274
▁revolve	-14.1274
▁accordance	-14.1274
▁Sandford	-14.1274
▁Jobling	-14.1274
▁Beatles	-14.1274
▁dependence	-14.1274
▁Silence	-14.1275
▁legendary	-14.1275
▁simultaneously	-14.1275
▁underwear	-14.1275
▁collective	-14.1275
▁initiated	-14.1275
▁Hughes	-14.1276
▁Ahmed	-14.1276
▁dissolved	-14.1276
▁urged	-14.1277
odice	-14.1277
▁buzzing	-14.1278
▁violation	-14.1278
▁invade	-14.1279
▁chemist	-14.1279
▁spoiled	-14.128
▁teaches	-14.1281
▁reserved	-14.1282
▁rumour	-14.1283
▁==	-14.1286
▁Trinity	-14.1287
▁applause	-14.1287
▁mustard	-14.1289
▁sadly	-14.1289
▁Mali	-14.1289
▁Blow	-14.1291
▁credited	-14.1292
▁suited	-14.1294
▁attendant	-14.1297
▁Dame	-14.1297
ANG	-14.1308
▁Musical	-14.1318
brand	-14.1334
▁sweater	-14.1334
▁ripe	-14.1335
TW	-14.134
PL	-14.1344
oiled	-14.1357
▁receiver	-14.1359
selling	-14.1378
▁plantation	-14.1378
▁Cock	-14.1379
October	-14.1389
written	-14.1389
Music	-14.1389
▁Vera	-14.139
Right	-14.139
fur	-14.1396
▁tomato	-14.1411
▁Otto	-14.1411
SCREAMING	-14.1411
▁Associate	-14.1411
▁Climate	-14.1411
▁Confederation	-14.1411
▁Harriet	-14.1411
▁Panthoibi	-14.1411
▁Prophet	-14.1411
▁Shelton	-14.1411
▁Treaty	-14.1411
▁Tropical	-14.1411
▁Yesterday	-14.1411
▁awhile	-14.1411
▁caterpillar	-14.1411
▁circular	-14.1411
▁fisherman	-14.1411
▁huntsman	-14.1411
▁hybrid	-14.1411
▁laundry	-14.1411
▁promising	-14.1411
▁reluctant	-14.1411
▁reservoir	-14.1411
▁stimulate	-14.1411
▁sympathetic	-14.1411
▁Goddess	-14.1411
▁urine	-14.1411
▁Duncan	-14.1411
▁Calvin	-14.1411
▁rubbed	-14.1411
▁milita	-14.1411
▁harmony	-14.1411
▁Webster	-14.1411
▁pagan	-14.1411
▁sandstone	-14.1411
▁Cabinet	-14.1412
▁Wonderful	-14.1412
▁bugger	-14.1412
▁pledge	-14.1412
▁slash	-14.1412
▁welding	-14.1413
▁Lightning	-14.1413
▁clasp	-14.1413
▁realistic	-14.1413
▁tenure	-14.1414
▁annoyed	-14.1414
▁Job	-14.1414
▁elite	-14.1414
▁sustained	-14.1414
▁sunny	-14.1414
▁100,000	-14.1414
▁flushed	-14.1414
▁Bloom	-14.1415
▁startled	-14.1415
▁expanding	-14.1416
▁repent	-14.1416
▁eliminate	-14.1418
▁someplace	-14.1418
▁Reid	-14.1419
▁hunted	-14.142
▁endless	-14.1421
▁spelled	-14.1423
▁decoration	-14.1423
▁Englishman	-14.1424
▁Psycho	-14.1425
▁pork	-14.1426
▁gaining	-14.1428
▁prevented	-14.1429
▁apron	-14.1429
▁Gyu	-14.1433
▁Cul	-14.1438
▁quad	-14.1439
▁tolerate	-14.1444
FM	-14.1451
▁blaze	-14.1455
OH	-14.1463
▁commissioner	-14.1466
▁boost	-14.1469
product	-14.1481
▁Devi	-14.1483
▁Amen	-14.1487
▁porch	-14.1493
▁Shore	-14.1498
▁crust	-14.1501
▁SCH	-14.1503
▁sentimental	-14.1505
titu	-14.1506
formed	-14.1509
[...]
