<unk>	0
<s>	0
</s>	0
<mask>	0
<cls>	0
<pad>	0
0	-1.82815
n	-1.9446
▁c	-1.95691
▁t	-2.021
1	-3.94219
2	-4.31442
3	-4.38092
5	-4.38988
4	-4.44503
6	-4.6014
8	-4.70362
7	-4.75418
9	-4.87721
.	-5.00945
,	-5.23906
62	-5.3907
67	-5.39321
▁the	-5.40804
65	-5.44837
64	-5.47235
69	-5.47804
72	-5.51907
12	-5.53263
55	-5.54075
63	-5.54274
11	-5.54406
74	-5.55068
57	-5.5582
58	-5.56413
68	-5.59428
61	-5.62337
13	-5.62815
59	-5.62873
66	-5.64332
71	-5.66383
56	-5.68732
73	-5.70123
76	-5.72494
53	-5.73976
75	-5.7445
77	-5.76479
'	-5.78169
14	-5.813
79	-5.81669
52	-5.8417
60	-5.87016
54	-5.88383
48	-5.9126
51	-5.94798
78	-5.98988
15	-6.01208
70	-6.04466
49	-6.05899
▁a	-6.08197
81	-6.09467
s	-6.10272
▁to	-6.10863
▁	-6.14618
▁of	-6.15221
46	-6.1538
▁I	-6.1614
43	-6.16223
▁and	-6.16325
45	-6.16453
47	-6.1783
16	-6.22231
82	-6.26521
44	-6.26632
18	-6.30556
17	-6.34176
84	-6.35344
83	-6.36627
▁you	-6.39642
19	-6.40494
41	-6.44239
▁in	-6.44865
36	-6.47261
39	-6.48203
42	-6.48908
38	-6.5201
37	-6.52515
86	-6.54761
85	-6.58777
22	-6.60167
34	-6.62267
33	-6.62997
21	-6.66589
24	-6.68859
29	-6.69281
87	-6.70219
35	-6.70552
25	-6.71743
28	-6.73033
▁that	-6.7335
?	-6.73381
23	-6.73657
32	-6.73889
27	-6.74418
31	-6.75186
▁is	-6.76465
▁it	-6.78977
88	-6.79561
26	-6.79953
89	-6.91175
▁was	-6.98902
t	-7.06679
▁.	-7.19559
▁-	-7.24667
▁for	-7.28853
91	-7.30087
▁on	-7.34256
92	-7.36488
-	-7.4107
!	-7.43997
▁he	-7.46777
▁with	-7.49161
▁The	-7.51689
93	-7.53077
▁"	-7.57716
▁have	-7.58199
▁be	-7.63849
94	-7.64006
▁this	-7.65065
▁are	-7.65311
▁me	-7.67472
▁we	-7.69354
▁as	-7.69696
▁not	-7.76213
▁do	-7.79036
▁at	-7.83407
▁,	-7.84117
95	-7.90515
▁You	-7.91976
▁his	-7.92364
▁It	-7.92799
▁they	-7.94239
▁what	-7.95071
▁know	-7.95991
97	-7.98031
...	-7.99445
▁?	-8.00156
re	-8.00251
▁can	-8.0101
m	-8.03841
▁from	-8.04707
▁by	-8.05507
96	-8.06819
▁one	-8.0886
▁all	-8.09165
▁there	-8.09591
▁my	-8.09867
▁your	-8.12942
▁had	-8.13669
▁but	-8.13672
99	-8.14054
▁He	-8.15062
▁so	-8.15716
▁(	-8.17677
▁her	-8.18905
▁like	-8.21589
▁him	-8.2623
▁were	-8.26268
98	-8.26275
▁And	-8.27338
▁up	-8.27343
▁about	-8.2831
▁or	-8.29377
▁out	-8.29981
▁she	-8.32024
ll	-8.40485
▁just	-8.40728
▁here	-8.41897
▁What	-8.46989
▁no	-8.47299
▁get	-8.48046
▁go	-8.48902
▁would	-8.49277
d	-8.50887
▁if	-8.51211
▁see	-8.5167
▁will	-8.5528
▁them	-8.55938
"	-8.57003
;	-8.59222
:	-8.59465
▁which	-8.59626
▁right	-8.61666
▁who	-8.62105
▁has	-8.62268
ve	-8.62711
▁don	-8.63299
▁think	-8.64996
▁said	-8.65476
▁when	-8.66749
)	-8.67682
▁did	-8.68297
▁=	-8.69548
▁We	-8.69773
▁time	-8.70596
ing	-8.7066
▁No	-8.71409
▁got	-8.7188
▁So	-8.72853
▁been	-8.73096
▁But	-8.73372
▁now	-8.74253
▁their	-8.78085
▁A	-8.78521
▁want	-8.80717
▁some	-8.82432
▁more	-8.82476
▁going	-8.8353
▁Oh	-8.83639
▁Yeah	-8.84036
101	-8.85049
▁people	-8.86073
▁could	-8.86527
▁That	-8.87263
ed	-8.88554
▁very	-8.91856
▁two	-8.95567
▁'	-8.96308
▁back	-8.97826
▁over	-9.00071
▁good	-9.0034
▁They	-9.00373
▁other	-9.00979
▁first	-9.01706
▁This	-9.01887
▁into	-9.02221
▁where	-9.05815
▁come	-9.06141
▁take	-9.06628
▁also	-9.07351
▁down	-9.07472
▁Well	-9.08084
▁She	-9.08202
▁how	-9.09358
▁well	-9.09808
▁say	-9.10413
▁i	-9.1081
▁only	-9.13748
▁way	-9.14071
102	-9.14212
▁little	-9.14455
e	-9.14922
▁us	-9.15913
▁our	-9.18899
▁because	-9.20513
a	-9.21641
▁man	-9.25378
▁make	-9.25917
▁`	-9.26933
103	-9.27743
o	-9.27925
▁any	-9.28073
▁really	-9.28252
▁than	-9.28669
."	-9.29158
▁these	-9.32045
▁There	-9.32519
▁look	-9.32834
▁should	-9.33079
▁[	-9.33264
▁much	-9.35823
▁too	-9.36997
▁something	-9.37664
▁after	-9.37831
▁off	-9.38336
▁gonna	-9.40193
▁Yes	-9.40449
▁let	-9.40793
I	-9.41903
104	-9.42102
--	-9.42272
▁made	-9.42669
▁put	-9.42875
ly	-9.42969
`	-9.43398
]	-9.44931
▁''	-9.47696
▁mean	-9.48318
▁If	-9.48495
▁before	-9.49407
y	-9.4987
▁need	-9.49902
▁never	-9.50235
▁again	-9.51204
▁its	-9.52469
▁work	-9.5367
▁tell	-9.55065
er	-9.55091
▁day	-9.55239
107	-9.55373
▁many	-9.55565
105	-9.56953
▁life	-9.57543
▁years	-9.57825
▁okay	-9.57918
▁give	-9.58472
▁!	-9.59875
▁er	-9.60108
108	-9.60172
▁still	-9.61957
109	-9.62
▁even	-9.62019
▁those	-9.62031
▁thing	-9.62732
106	-9.6289
▁things	-9.6309
i	-9.63132
▁three	-9.64683
▁How	-9.64767
▁went	-9.65669
▁away	-9.66612
▁through	-9.67017
▁Do	-9.67343
▁yeah	-9.67446
▁long	-9.67683
▁came	-9.67996
▁used	-9.68093
▁thought	-9.68198
▁called	-9.6839
▁most	-9.68743
▁am	-9.68919
▁new	-9.69241
▁does	-9.70108
▁doing	-9.70306
▁must	-9.708
S	-9.72258
▁oh	-9.72446
▁last	-9.72939
▁being	-9.73812
▁Now	-9.74933
▁great	-9.75667
▁home	-9.76261
▁such	-9.76976
▁why	-9.77749
▁Why	-9.778
▁may	-9.78013
".	-9.78148
▁old	-9.7864
▁same	-9.79637
▁love	-9.7964
▁name	-9.79676
▁When	-9.80552
▁All	-9.81326
▁find	-9.83254
▁part	-9.84191
▁won	-9.85884
▁place	-9.87276
▁didn	-9.90158
▁Mr	-9.90298
▁night	-9.90363
▁world	-9.90814
▁found	-9.90842
▁Come	-9.90917
▁Let	-9.90969
▁might	-9.91005
▁around	-9.9175
th	-9.92164
amp	-9.92685
▁another	-9.93383
▁own	-9.94964
▁always	-9.94986
▁lot	-9.95542
▁Okay	-9.96109
▁help	-9.9762
",	-9.98186
▁left	-9.98209
▁use	-9.98284
▁better	-9.99059
▁money	-9.99101
▁My	-9.99192
▁Hey	-9.99494
▁anything	-9.99583
▁United	-9.9987
▁show	-10.0121
▁under	-10.0222
▁sure	-10.028
▁done	-10.0328
▁kind	-10.0352
▁between	-10.0362
▁house	-10.039
▁every	-10.0432
▁year	-10.0504
es	-10.0507
▁told	-10.0531
▁big	-10.0691
▁uh	-10.0701
▁erm	-10.0713
▁while	-10.074
▁different	-10.0784
▁Don	-10.0816
▁God	-10.0876
,"	-10.0903
▁ever	-10.0954
▁took	-10.1084
▁city	-10.1102
r	-10.1184
▁States	-10.1198
The	-10.1217
▁talk	-10.1249
▁As	-10.1281
▁end	-10.1289
▁water	-10.1334
▁;	-10.1337
▁next	-10.1513
▁course	-10.1558
▁Is	-10.1583
▁both	-10.1657
▁nothing	-10.169
▁--	-10.1825
▁head	-10.1863
).	-10.188
▁call	-10.1888
▁until	-10.1914
▁each	-10.1957
▁saw	-10.1979
▁For	-10.2021
▁best	-10.2039
▁New	-10.2075
▁At	-10.2108
▁actually	-10.2147
▁number	-10.2148
▁Where	-10.2162
▁four	-10.2207
▁keep	-10.2265
▁second	-10.2292
▁later	-10.2366
▁father	-10.2436
▁Are	-10.2454
▁Just	-10.2489
▁play	-10.249
al	-10.2515
▁school	-10.2544
▁once	-10.2619
▁yes	-10.2717
▁wanted	-10.275
l	-10.2795
▁against	-10.2797
▁_	-10.2856
▁family	-10.2941
A	-10.2988
▁On	-10.3003
to	-10.3011
▁enough	-10.3012
▁One	-10.3046
▁hand	-10.305
▁mother	-10.3092
▁became	-10.3105
▁Who	-10.3125
),	-10.3145
▁together	-10.3178
▁everything	-10.3275
▁feel	-10.3288
▁else	-10.3294
▁says	-10.3358
▁without	-10.3363
▁bit	-10.3387
▁American	-10.3405
▁quite	-10.3458
▁His	-10.3513
▁girl	-10.3552
▁few	-10.3586
▁sorry	-10.3596
▁Not	-10.3601
▁C	-10.363
▁S	-10.3666
▁To	-10.3678
▁since	-10.3692
▁died	-10.3699
▁side	-10.3716
▁Thank	-10.3801
▁looking	-10.3806
▁car	-10.3853
▁five	-10.3854
▁coming	-10.3856
▁during	-10.3888
▁leave	-10.3914
▁set	-10.392
▁live	-10.395
▁though	-10.3984
▁believe	-10.4013
▁happened	-10.403
▁room	-10.4058
▁Go	-10.4121
▁whole	-10.4126
▁point	-10.4135
in	-10.4146
▁today	-10.4161
▁face	-10.4181
▁small	-10.4188
▁Good	-10.4191
c	-10.421
▁please	-10.4216
▁children	-10.4233
▁Did	-10.4246
▁Uh	-10.4335
▁days	-10.4351
▁...	-10.4365
▁getting	-10.4372
▁sir	-10.4385
▁John	-10.4387
▁Right	-10.4398
▁Look	-10.4403
▁asked	-10.4445
▁heard	-10.4498
▁times	-10.451
▁himself	-10.4516
▁far	-10.4595
▁morning	-10.4667
▁woman	-10.4685
▁Can	-10.471
▁person	-10.4817
▁eyes	-10.4821
▁mind	-10.4828
▁nice	-10.4843
▁gave	-10.4852
▁yet	-10.4881
▁having	-10.4964
▁hear	-10.5002
▁B	-10.5017
▁stop	-10.5018
▁care	-10.5031
▁book	-10.5048
▁state	-10.5061
▁U	-10.507
▁Mm	-10.5072
▁country	-10.508
▁already	-10.5083
▁bad	-10.5118
▁doesn	-10.5153
▁high	-10.5157
▁boy	-10.5162
▁knew	-10.5176
▁important	-10.5179
▁understand	-10.5244
?"	-10.5252
▁upon	-10.5276
▁young	-10.5324
▁saying	-10.5335
▁case	-10.5361
▁half	-10.5382
▁remember	-10.5405
▁wrong	-10.5407
▁After	-10.542
▁game	-10.5428
▁real	-10.5447
▁ask	-10.5456
▁try	-10.5458
gt	-10.5492
▁hard	-10.5497
▁Your	-10.5555
▁death	-10.5577
▁talking	-10.5583
▁began	-10.56
▁town	-10.563
▁guy	-10.5635
▁means	-10.5646
the	-10.5677
▁start	-10.5685
▁born	-10.5695
▁shall	-10.5716
▁Here	-10.574
▁dead	-10.577
u	-10.5774
ers	-10.5811
▁Get	-10.5815
▁trying	-10.5816
▁started	-10.5827
▁E	-10.5846
▁open	-10.595
C	-10.5951
▁often	-10.5966
▁sort	-10.5967
▁T	-10.5987
▁friend	-10.5998
▁music	-10.602
h	-10.6029
_	-10.6039
▁idea	-10.6071
▁job	-10.6166
▁gone	-10.617
▁wife	-10.6189
▁word	-10.6208
or	-10.6233
man	-10.624
▁wanna	-10.6291
▁change	-10.6326
▁run	-10.6426
▁heart	-10.6464
▁soon	-10.648
▁door	-10.6493
▁pretty	-10.6522
▁played	-10.6532
▁line	-10.6545
▁war	-10.6549
▁O	-10.6568
▁team	-10.658
▁matter	-10.6609
▁Because	-10.6612
▁de	-10.6612
▁goes	-10.6661
▁eat	-10.6665
▁light	-10.669
▁able	-10.6716
ie	-10.6777
▁turn	-10.6843
▁along	-10.6864
▁women	-10.6898
▁stay	-10.6908
▁King	-10.6928
▁six	-10.6929
T	-10.6933
▁area	-10.6968
▁problem	-10.6972
▁round	-10.6985
▁someone	-10.6991
▁story	-10.6995
▁lost	-10.7021
▁R	-10.7061
▁fact	-10.7101
▁making	-10.7108
▁P	-10.7142
▁moment	-10.7174
▁probably	-10.7197
▁full	-10.7256
▁wait	-10.7325
▁power	-10.7345
▁yourself	-10.7357
▁true	-10.7357
▁looked	-10.7362
▁English	-10.7394
▁comes	-10.7405
!"	-10.7407
▁order	-10.741
and	-10.7435
▁D	-10.7457
▁guys	-10.7495
▁read	-10.7504
▁bring	-10.7533
▁become	-10.7553
▁ago	-10.7588
▁May	-10.7588
▁fine	-10.7609
▁ready	-10.761
▁working	-10.7615
▁almost	-10.7632
▁maybe	-10.7666
B	-10.7706
▁baby	-10.7714
▁move	-10.7788
▁University	-10.7799
▁body	-10.7825
▁France	-10.7894
k	-10.7909
▁These	-10.7909
g	-10.791
▁hands	-10.7918
▁Please	-10.7941
▁group	-10.7962
▁kill	-10.7973
▁early	-10.7994
▁G	-10.803
▁Mrs	-10.8069
▁movie	-10.8106
▁M	-10.8108
▁late	-10.8113
▁large	-10.8136
▁re	-10.8153
▁myself	-10.8243
▁brought	-10.8273
▁Have	-10.8295
▁Some	-10.8322
▁released	-10.8325
▁week	-10.8362
▁least	-10.8369
▁friends	-10.8423
▁age	-10.8429
▁top	-10.8443
▁K	-10.8447
▁killed	-10.8468
▁rest	-10.8492
▁system	-10.8517
▁brother	-10.8517
▁daughter	-10.8522
▁business	-10.8523
▁South	-10.8548
▁January	-10.8571
▁County	-10.8601
at	-10.8602
▁words	-10.8603
▁government	-10.8702
▁white	-10.8708
▁child	-10.8711
▁pay	-10.8713
▁stuff	-10.8716
▁example	-10.8716
▁behind	-10.8727
▁Ah	-10.8736
▁happy	-10.8791
▁Me	-10.8804
▁company	-10.8817
▁York	-10.8833
▁St	-10.885
▁million	-10.886
▁hope	-10.8877
▁Or	-10.8885
▁less	-10.894
▁near	-10.8961
D	-10.8966
▁rather	-10.8968
▁several	-10.8973
le	-10.8995
▁married	-10.9022
▁land	-10.9032
▁taking	-10.9088
▁station	-10.9098
▁front	-10.9104
▁either	-10.9165
▁question	-10.9173
▁alone	-10.9193
born	-10.9198
▁food	-10.9203
▁makes	-10.9218
▁thank	-10.9218
▁hold	-10.9246
▁bed	-10.9294
▁air	-10.9296
▁black	-10.9312
▁turned	-10.9328
▁THE	-10.9334
▁Hello	-10.9367
▁World	-10.9388
de	-10.9395
▁series	-10.9468
▁party	-10.9524
▁March	-10.9538
▁fire	-10.9545
▁living	-10.9548
▁song	-10.9596
▁meet	-10.9619
▁thinking	-10.9622
▁close	-10.9624
▁guess	-10.9631
▁With	-10.9653
▁Of	-10.9696
▁free	-10.9696
▁British	-10.9698
You	-10.9734
▁War	-10.9767
p	-10.9792
▁F	-10.9815
▁sometimes	-10.9835
able	-10.9839
▁others	-10.984
M	-10.984
▁looks	-10.9879
▁form	-10.9915
▁L	-10.9932
▁red	-10.9955
▁un	-10.9969
▁sit	-10.9989
▁history	-11.0017
▁within	-11.003
▁named	-11.0036
▁sent	-11.0045
▁human	-11.0063
▁happen	-11.0076
▁held	-11.0114
▁beautiful	-11.0168
lt	-11.0198
▁main	-11.0199
▁reason	-11.0243
▁President	-11.0249
▁third	-11.026
▁America	-11.026
▁North	-11.03
▁minute	-11.0301
ic	-11.0302
▁short	-11.0339
▁built	-11.036
▁usually	-11.036
▁inside	-11.0377
▁N	-11.0428
▁wants	-11.0449
▁single	-11.0456
▁sleep	-11.0465
▁film	-11.0498
▁September	-11.0504
▁across	-11.0549
▁outside	-11.0593
▁July	-11.0594
▁past	-11.0602
▁Hi	-11.0639
▁possible	-11.0656
▁months	-11.0675
▁watch	-11.0685
up	-11.0694
▁hit	-11.0698
▁minutes	-11.0699
▁playing	-11.0705
▁National	-11.0715
▁e	-11.0732
▁Her	-11.0754
▁gotta	-11.0799
P	-11.0827
▁ship	-11.0837
▁fight	-11.0845
▁using	-11.085
▁dear	-11.0855
▁including	-11.0865
▁Maybe	-11.0869
▁sea	-11.0888
▁building	-11.0895
▁cut	-11.0925
▁poor	-11.0934
▁London	-11.0949
▁French	-11.0956
▁public	-11.0968
▁season	-11.097
▁met	-11.0986
▁stand	-11.0998
▁huh	-11.1055
▁Dr	-11.1055
▁king	-11.1073
▁buy	-11.1075
▁June	-11.1103
E	-11.1104
b	-11.1107
▁tried	-11.1111
▁Sir	-11.1126
▁England	-11.1149
▁lived	-11.1181
▁population	-11.1187
▁drink	-11.1199
▁However	-11.121
▁office	-11.122
▁following	-11.1224
N	-11.1236
▁Like	-11.1244
▁felt	-11.125
▁written	-11.1251
ry	-11.1264
▁album	-11.1283
▁die	-11.1312
ness	-11.1325
us	-11.1333
▁Take	-11.1334
▁voice	-11.1356
▁law	-11.1372
▁anyone	-11.1374
▁answer	-11.1375
▁deal	-11.1376
▁April	-11.1437
▁local	-11.1476
▁By	-11.1488
▁blood	-11.1496
ye	-11.1508
▁certain	-11.1518
ra	-11.1544
▁August	-11.1562
it	-11.1596
▁seven	-11.1632
ity	-11.1635
▁language	-11.1638
▁clear	-11.1643
What	-11.1645
st	-11.1655
▁worked	-11.1681
▁member	-11.1681
▁ten	-11.1682
▁From	-11.1691
ation	-11.1693
▁hell	-11.1702
▁October	-11.1703
▁hundred	-11.1723
one	-11.1737
▁chance	-11.1744
▁hair	-11.1749
▁walk	-11.1755
▁cannot	-11.176
▁City	-11.1767
▁See	-11.1788
▁hours	-11.1795
▁common	-11.1802
▁whether	-11.1803
▁everyone	-11.1803
huh	-11.1813
▁till	-11.1817
▁century	-11.1819
▁gets	-11.1825
▁December	-11.1832
▁band	-11.1834
▁based	-11.1837
▁husband	-11.1874
▁special	-11.1879
▁north	-11.1883
▁sound	-11.1886
▁police	-11.1903
▁wrote	-11.1911
▁seems	-11.1921
te	-11.1922
▁couple	-11.1931
▁write	-11.1939
▁service	-11.194
▁easy	-11.194
▁November	-11.1941
▁speak	-11.1945
▁tomorrow	-11.195
▁works	-11.1955
▁information	-11.1969
▁mine	-11.1971
▁wish	-11.2002
▁however	-11.2021
la	-11.2035
all	-11.2057
▁sense	-11.2131
▁members	-11.2132
▁boys	-11.2148
▁Miss	-11.2153
▁dad	-11.2159
▁present	-11.2183
▁lives	-11.219
▁worry	-11.2197
▁feet	-11.2214
▁fell	-11.2228
▁changed	-11.2254
▁German	-11.2259
▁twenty	-11.2266
▁February	-11.2282
▁James	-11.2304
R	-11.2308
▁road	-11.2318
▁among	-11.2334
▁OK	-11.2343
▁moved	-11.2352
▁phone	-11.2366
▁West	-11.2372
▁career	-11.239
▁exactly	-11.2395
▁Thanks	-11.2418
▁paper	-11.2434
▁longer	-11.2444
▁alright	-11.2471
▁Be	-11.2479
▁ground	-11.2526
▁hour	-11.2527
▁news	-11.2536
▁ones	-11.2537
▁fun	-11.2552
em	-11.2568
▁former	-11.2575
▁control	-11.2581
▁themselves	-11.2587
O	-11.2589
am	-11.2589
▁dog	-11.2618
▁George	-11.2619
▁commune	-11.2643
▁send	-11.2696
▁knows	-11.2708
▁Peter	-11.2721
▁Wait	-11.2729
▁W	-11.2737
▁eight	-11.276
▁p	-11.2768
ar	-11.278
▁V	-11.2795
▁afraid	-11.2823
co	-11.2831
▁region	-11.286
▁hurt	-11.2863
▁perhaps	-11.2871
▁general	-11.2872
▁Ha	-11.2884
▁drive	-11.2896
▁per	-11.2918
▁listen	-11.2924
▁picture	-11.2929
▁sister	-11.2969
▁lady	-11.2976
▁truth	-11.299
z	-11.2992
▁ran	-11.2998
▁supposed	-11.3
▁cried	-11.3004
▁letter	-11.3012
▁kept	-11.3024
▁television	-11.3024
▁strong	-11.3031
▁YOU	-11.3046
▁trouble	-11.3051
▁received	-11.3082
ha	-11.3096
▁H	-11.3111
▁running	-11.3115
▁India	-11.3116
▁seemed	-11.3123
▁shot	-11.3134
▁kids	-11.3174
▁video	-11.319
▁needs	-11.3202
▁lay	-11.3203
▁Great	-11.3208
K	-11.3256
▁hot	-11.3268
▁tonight	-11.3269
ism	-11.3274
▁type	-11.3276
▁above	-11.3279
▁break	-11.3282
▁space	-11.329
▁list	-11.3302
is	-11.3359
▁level	-11.3367
▁fall	-11.3383
▁Sorry	-11.3389
▁whatever	-11.3405
▁instead	-11.3423
▁village	-11.3424
▁tree	-11.3426
▁Er	-11.3436
ist	-11.3456
▁due	-11.3481
▁pick	-11.351
ch	-11.3553
▁People	-11.3558
▁include	-11.3559
▁check	-11.3566
▁waiting	-11.3569
less	-11.3573
▁Erm	-11.3575
▁itself	-11.3601
▁Tell	-11.3606
▁State	-11.3632
▁J	-11.3632
▁fast	-11.3651
ling	-11.3661
▁countries	-11.3661
▁piece	-11.3667
▁somebody	-11.3687
est	-11.3703
▁created	-11.3706
▁return	-11.3714
▁blue	-11.3731
▁doctor	-11.3743
▁department	-11.3752
▁cold	-11.3753
▁gold	-11.3757
▁Stop	-11.3757
▁ball	-11.3778
▁everybody	-11.3783
▁player	-11.3789
▁national	-11.3822
▁Give	-11.3823
▁major	-11.3862
▁o	-11.3866
▁Man	-11.3871
as	-11.3914
▁fucking	-11.3917
▁House	-11.3941
▁Captain	-11.3943
▁position	-11.3947
▁support	-11.3952
▁dark	-11.3976
▁Co	-11.3998
F	-11.4026
▁Even	-11.4034
▁shit	-11.4053
▁low	-11.4084
▁l	-11.4089
▁girls	-11.4095
x	-11.4099
▁District	-11.4103
▁Two	-11.4104
▁plan	-11.4126
▁nine	-11.4145
▁Japan	-11.4149
▁art	-11.4151
▁feeling	-11.4167
▁um	-11.4168
▁stood	-11.4185
No	-11.4191
▁football	-11.4195
▁weeks	-11.4198
▁horse	-11.4218
▁served	-11.4223
It	-11.4241
▁court	-11.4242
▁role	-11.4254
▁seem	-11.43
▁takes	-11.4301
▁famous	-11.4304
▁forget	-11.4305
▁popular	-11.4323
▁passed	-11.4324
▁]	-11.4331
▁future	-11.4332
L	-11.4339
ri	-11.4354
▁Will	-11.436
▁anyway	-11.4371
▁class	-11.4378
▁funny	-11.4378
▁period	-11.438
▁evening	-11.4385
he	-11.4404
▁books	-11.4409
▁led	-11.4439
▁Michael	-11.4445
▁further	-11.4453
▁telling	-11.4456
▁decided	-11.4462
▁table	-11.4468
▁David	-11.4472
▁De	-11.4477
▁green	-11.4501
▁Dad	-11.451
▁thousand	-11.4525
▁games	-11.4548
f	-11.4558
▁problems	-11.4566
▁box	-11.4576
▁given	-11.4598
▁win	-11.463
▁herself	-11.4642
▁kid	-11.4649
▁returned	-11.4653
▁figure	-11.4666
▁ahead	-11.4687
▁mommy	-11.469
▁county	-11.47
▁followed	-11.4701
▁meeting	-11.4718
▁First	-11.473
G	-11.4731
▁record	-11.4744
▁sat	-11.4751
▁Japanese	-11.4787
▁ain	-11.4792
▁During	-11.4796
▁learn	-11.4801
▁fish	-11.4817
▁attack	-11.4834
▁Germany	-11.4836
▁eye	-11.4875
▁beginning	-11.4904
▁opened	-11.4907
▁parents	-11.4909
▁whose	-11.4964
go	-11.4997
▁animals	-11.5009
ul	-11.5017
▁save	-11.5019
▁2010	-11.5022
▁capital	-11.5023
▁island	-11.5049
▁happens	-11.5069
▁Lord	-11.5081
▁cause	-11.5088
▁species	-11.5091
▁La	-11.5107
da	-11.5127
▁sun	-11.5133
▁mom	-11.5134
▁match	-11.5148
▁crazy	-11.5151
▁interest	-11.5167
▁whom	-11.5169
ies	-11.5186
▁straight	-11.5221
▁Virginia	-11.5222
▁mm	-11.523
▁East	-11.5232
▁moving	-11.5232
▁cos	-11.5238
▁School	-11.524
▁original	-11.5244
ur	-11.5246
▁field	-11.5249
ion	-11.5259
▁parts	-11.5261
▁force	-11.5312
▁Really	-11.5314
▁clean	-11.532
▁certainly	-11.5325
▁floor	-11.5345
el	-11.5356
▁foot	-11.5361
▁honey	-11.5375
▁term	-11.5378
▁character	-11.5393
▁Illinois	-11.5396
▁sitting	-11.5406
▁Nothing	-11.5408
▁middle	-11.5416
▁River	-11.5416
▁towards	-11.5427
▁quickly	-11.5427
▁interesting	-11.5438
▁forward	-11.5487
▁paid	-11.5489
▁finished	-11.5489
▁s	-11.549
▁throw	-11.5494
▁mouth	-11.5519
▁social	-11.5521
▁train	-11.5538
▁places	-11.5556
▁difficult	-11.5561
do	-11.5562
▁bear	-11.5571
▁answered	-11.5574
ro	-11.5574
▁giving	-11.5582
▁Europe	-11.5593
▁process	-11.5595
▁General	-11.5604
▁leaving	-11.5614
▁d	-11.5623
▁broke	-11.5635
▁gun	-11.5639
you	-11.564
▁south	-11.5645
▁questions	-11.5646
▁view	-11.5655
ia	-11.5655
▁touch	-11.5665
▁club	-11.5679
▁daddy	-11.5688
▁Henry	-11.5689
▁total	-11.5698
▁Which	-11.571
▁rock	-11.5713
▁church	-11.5719
_,	-11.5721
▁final	-11.5748
▁suppose	-11.575
li	-11.5761
▁lose	-11.5761
ING	-11.5778
w	-11.5791
▁reached	-11.5795
▁TO	-11.5813
▁cost	-11.5813
▁political	-11.5815
▁California	-11.5816
▁amount	-11.5818
▁Park	-11.5838
▁students	-11.5839
▁experience	-11.5856
▁("	-11.5857
▁river	-11.5877
▁terms	-11.5882
▁community	-11.5891
▁Most	-11.5891
▁modern	-11.5913
▁various	-11.5956
ge	-11.5981
▁Was	-11.5981
▁follow	-11.5996
▁Many	-11.6003
rs	-11.6008
▁sick	-11.6011
▁street	-11.6011
ment	-11.6014
▁particular	-11.6032
▁report	-11.6037
be	-11.6039
▁wind	-11.6044
▁100	-11.6059
▁Paul	-11.6059
▁catch	-11.6073
We	-11.6074
▁hm	-11.6077
▁published	-11.6088
▁act	-11.6103
▁numbers	-11.6112
▁pass	-11.612
▁lead	-11.612
land	-11.6153
▁equal	-11.6153
▁League	-11.6155
▁allowed	-11.6167
▁window	-11.6176
▁fuck	-11.6196
▁natural	-11.621
▁ways	-11.6213
▁meant	-11.6225
ent	-11.6231
W	-11.6248
▁anymore	-11.6266
")	-11.6284
▁thou	-11.6285
Oh	-11.629
▁month	-11.6301
▁miles	-11.6306
▁Jack	-11.6319
▁TV	-11.6333
▁serious	-11.6333
▁safe	-11.6333
▁study	-11.6355
ueen	-11.6362
▁involved	-11.6368
ine	-11.6371
▁hey	-11.6372
▁dinner	-11.6379
▁size	-11.6387
▁step	-11.6389
▁draw	-11.6401
▁similar	-11.6413
▁Our	-11.6419
▁especially	-11.6425
▁caught	-11.6435
▁)	-11.6437
▁nature	-11.6439
▁somewhere	-11.6447
ey	-11.6451
▁shows	-11.647
▁bar	-11.647
▁glad	-11.647
ta	-11.6472
▁Mary	-11.6472
▁Only	-11.6486
▁clothes	-11.6494
▁boat	-11.6498
▁Re	-11.6502
▁simple	-11.6504
▁Florida	-11.6505
▁m	-11.6505
▁located	-11.6516
▁Would	-11.6518
▁II	-11.6523
▁dream	-11.6553
▁Um	-11.6556
▁value	-11.6561
se	-11.6561
▁stage	-11.6597
▁alive	-11.661
▁result	-11.6618
▁Union	-11.6621
▁seat	-11.6621
▁build	-11.663
▁needed	-11.6632
▁finally	-11.6656
▁anybody	-11.6667
ting	-11.6672
et	-11.6685
▁Since	-11.6691
▁gives	-11.6722
▁situation	-11.6727
H	-11.6747
▁sweet	-11.677
▁appeared	-11.6773
▁energy	-11.6785
U	-11.6785
▁program	-11.6791
▁ring	-11.6813
▁strange	-11.6819
▁worth	-11.6819
▁added	-11.6845
▁considered	-11.6856
▁title	-11.6869
▁mhm	-11.688
▁spent	-11.6903
▁grow	-11.6914
▁Tom	-11.6916
son	-11.6933
▁action	-11.6944
▁thanks	-11.6952
▁self	-11.6954
▁deep	-11.6963
▁stopped	-11.6964
▁army	-11.6964
▁except	-11.6964
day	-11.6967
▁Church	-11.6975
▁1,	-11.6978
▁spoke	-11.699
▁summer	-11.7
▁dance	-11.7001
▁professional	-11.7001
▁Listen	-11.7013
▁bought	-11.7024
▁Africa	-11.7029
▁wall	-11.7029
▁standing	-11.704
▁grew	-11.7048
old	-11.7049
▁indeed	-11.7073
▁perfect	-11.7084
▁private	-11.7096
▁Party	-11.7098
▁Very	-11.7124
▁writing	-11.7124
▁produced	-11.7135
▁hospital	-11.7135
▁president	-11.7136
▁Australia	-11.7156
▁attention	-11.7158
▁y	-11.7171
▁b	-11.7182
▁19	-11.719
ate	-11.7194
▁event	-11.7203
▁San	-11.7222
▁shut	-11.7223
ya	-11.7244
▁Mom	-11.7251
▁wonder	-11.7255
▁fear	-11.7258
▁sign	-11.7259
▁Does	-11.7261
▁Robert	-11.7271
▁Frank	-11.7284
▁x	-11.7291
▁god	-11.7299
V	-11.7308
um	-11.7346
ty	-11.7351
▁date	-11.7386
▁lie	-11.7401
▁sold	-11.7405
▁earth	-11.7407
▁seeing	-11.741
▁tea	-11.7438
▁entire	-11.7456
by	-11.7457
v	-11.7458
time	-11.7464
▁yours	-11.7476
Y	-11.7478
▁simply	-11.7482
▁Sure	-11.7492
▁although	-11.7509
▁wear	-11.7524
▁science	-11.7537
▁2006	-11.7566
▁military	-11.7572
ley	-11.7573
▁William	-11.7574
▁trust	-11.7574
▁college	-11.7575
ted	-11.7577
▁ice	-11.7583
▁Alan	-11.7621
▁included	-11.7627
ful	-11.7629
ter	-11.7645
▁ye	-11.7648
me	-11.7652
▁difference	-11.7652
▁groups	-11.7656
▁Red	-11.7658
▁fair	-11.7662
▁marriage	-11.7665
▁captain	-11.7674
▁milk	-11.7675
▁White	-11.7676
▁project	-11.7677
▁carried	-11.7681
▁arms	-11.7685
▁cross	-11.7687
▁largest	-11.7689
▁officer	-11.7693
▁asking	-11.7695
▁development	-11.7699
j	-11.7701
ma	-11.7705
▁miss	-11.7747
ti	-11.7754
▁district	-11.7757
ish	-11.7758
▁completely	-11.7766
▁blow	-11.7778
▁education	-11.779
▁While	-11.7792
▁loved	-11.7793
▁arm	-11.7795
▁points	-11.7801
▁bag	-11.783
▁cool	-11.7835
▁computer	-11.7836
▁reach	-11.7842
▁Street	-11.7844
▁Excuse	-11.7845
▁beat	-11.7861
▁version	-11.7863
os	-11.7865
▁key	-11.7884
▁Black	-11.7886
▁subject	-11.7886
ce	-11.7914
ka	-11.7926
▁watching	-11.7927
▁Court	-11.7928
▁AND	-11.7939
▁joined	-11.7951
▁secret	-11.7954
▁Three	-11.7965
▁names	-11.7968
▁design	-11.7975
▁hate	-11.7989
▁below	-11.8004
ous	-11.8026
▁search	-11.8027
▁ha	-11.8053
▁animal	-11.8061
▁evidence	-11.807
▁Richard	-11.8075
Yes	-11.8076
▁board	-11.8094
▁color	-11.8097
▁Washington	-11.8098
▁Charles	-11.8098
▁expect	-11.8108
▁plus	-11.8111
▁lying	-11.8115
▁plays	-11.815
▁College	-11.8151
▁suddenly	-11.8152
▁pain	-11.8161
age	-11.8162
▁happening	-11.8168
▁talked	-11.8172
▁nearly	-11.8208
▁forest	-11.8217
▁Dick	-11.822
▁battle	-11.8223
▁race	-11.8226
we	-11.8228
▁cover	-11.8231
▁caused	-11.8236
▁carry	-11.8247
▁Master	-11.8248
▁market	-11.8264
▁current	-11.8266
▁quiet	-11.8273
▁OF	-11.8279
▁site	-11.828
▁oil	-11.8317
▁page	-11.8329
▁bird	-11.8335
▁heavy	-11.8343
▁fellow	-11.8349
▁Its	-11.8352
▁west	-11.8354
▁rich	-11.8359
▁higher	-11.8373
▁post	-11.8374
▁areas	-11.8379
ir	-11.838
▁la	-11.839
ci	-11.8393
▁US	-11.8396
▁sex	-11.8399
▁Al	-11.84
▁promise	-11.8402
▁trade	-11.8405
▁health	-11.8412
▁normal	-11.8412
▁census	-11.8426
▁personal	-11.8468
▁pull	-11.8471
▁square	-11.8472
▁trees	-11.8481
▁families	-11.8482
▁fly	-11.8483
▁Cup	-11.8497
▁International	-11.8497
▁murder	-11.8497
▁interested	-11.8498
▁2012	-11.8502
▁coffee	-11.8524
▁f	-11.8525
▁Jesus	-11.8525
▁()	-11.8531
▁Got	-11.8534
▁effect	-11.8544
He	-11.8545
▁European	-11.8545
▁nor	-11.8555
▁Island	-11.856
▁radio	-11.8567
▁scene	-11.8587
▁master	-11.8591
▁continued	-11.8596
▁length	-11.8601
▁formed	-11.8601
▁speaking	-11.8602
▁cases	-11.8609
▁quick	-11.8622
▁developed	-11.8625
▁China	-11.8626
▁share	-11.8628
▁showed	-11.8632
▁available	-11.8638
that	-11.8644
▁songs	-11.865
▁Earth	-11.8652
di	-11.8656
▁join	-11.8656
il	-11.8684
▁spend	-11.8693
▁bottom	-11.8695
▁actor	-11.8708
▁center	-11.872
▁peace	-11.8726
▁media	-11.8728
▁announced	-11.8738
▁movement	-11.8744
▁data	-11.8774
▁birthday	-11.8781
▁worse	-11.8795
▁track	-11.8813
▁movies	-11.8817
▁helped	-11.8819
▁research	-11.8837
of	-11.8843
▁eating	-11.8846
out	-11.8852
▁Christian	-11.8856
▁lines	-11.8859
▁wonderful	-11.8868
▁Christ	-11.887
And	-11.8878
▁states	-11.8879
but	-11.8883
▁Jo	-11.8896
▁stupid	-11.8897
▁founded	-11.8909
▁dress	-11.891
▁Mo	-11.8913
▁sell	-11.8925
▁Am	-11.8929
▁ma	-11.8935
▁doubt	-11.8954
▁east	-11.896
▁scared	-11.8971
▁tired	-11.8971
▁Their	-11.8976
▁dry	-11.8976
▁respect	-11.8977
▁High	-11.8985
sa	-11.8987
ah	-11.8996
▁formula	-11.8996
▁stories	-11.9
▁visit	-11.9003
▁ended	-11.9012
▁store	-11.902
▁pieces	-11.9023
▁society	-11.9029
▁About	-11.9031
▁account	-11.9033
▁Every	-11.906
ive	-11.9063
▁bus	-11.9083
▁careful	-11.9089
▁ah	-11.9093
▁huge	-11.9093
▁fit	-11.9104
▁raised	-11.9105
▁sounds	-11.9114
▁star	-11.9121
▁mistake	-11.9123
▁closed	-11.9124
▁Award	-11.9126
▁push	-11.9129
year	-11.913
▁learned	-11.9136
▁walked	-11.9136
▁wood	-11.9139
▁Could	-11.9149
▁putting	-11.9149
▁starting	-11.9155
ad	-11.9155
▁Italian	-11.9156
▁charge	-11.9156
if	-11.9169
▁training	-11.9196
▁sight	-11.9217
▁sub	-11.9219
▁sing	-11.9222
▁ex	-11.9226
▁teacher	-11.9232
▁complete	-11.9239
▁changes	-11.9244
▁decision	-11.9247
im	-11.9248
▁Indian	-11.9253
▁History	-11.9255
▁politician	-11.9262
▁birds	-11.9265
▁nobody	-11.9269
▁choice	-11.927
▁Roman	-11.9276
▁shoot	-11.9285
▁distance	-11.9293
▁Province	-11.9299
▁IN	-11.9313
▁Before	-11.9315
▁chair	-11.9317
▁model	-11.9322
▁likely	-11.9332
▁Put	-11.9337
▁brain	-11.9339
▁Father	-11.934
▁letters	-11.9357
▁yesterday	-11.936
▁Central	-11.936
▁mad	-11.9363
▁disease	-11.9369
▁success	-11.937
▁afternoon	-11.9376
▁g	-11.9378
▁Paris	-11.9387
▁snow	-11.9391
▁Ka	-11.9392
▁Lee	-11.9398
▁finish	-11.9403
▁explain	-11.9412
▁Y	-11.9414
▁Minister	-11.9415
▁ride	-11.9417
▁ancient	-11.9422
▁angry	-11.9422
▁thirty	-11.9422
▁lower	-11.9426
▁double	-11.9429
▁stone	-11.9429
▁Ma	-11.9448
▁ought	-11.9455
▁hat	-11.946
men	-11.946
▁believed	-11.9462
for	-11.9467
▁meaning	-11.9471
▁issue	-11.9476
▁calling	-11.9478
▁glass	-11.9501
▁mostly	-11.9507
▁soul	-11.9516
▁allow	-11.9523
les	-11.953
▁Those	-11.9532
▁Se	-11.9532
▁fourth	-11.9534
▁create	-11.954
▁Anne	-11.9543
▁university	-11.9546
ba	-11.9569
▁message	-11.957
▁leader	-11.9573
▁schools	-11.9575
▁style	-11.9575
▁necessary	-11.9577
▁Army	-11.9577
▁Bo	-11.9583
▁speed	-11.9585
ab	-11.9587
▁bloody	-11.9594
▁ideas	-11.9601
▁events	-11.9605
▁immediately	-11.9608
▁Thomas	-11.9609
▁bet	-11.9631
▁Other	-11.9634
▁theory	-11.9637
▁busy	-11.9641
▁extra	-11.9647
ja	-11.9654
▁wild	-11.9671
▁bridge	-11.9671
▁Dan	-11.968
▁director	-11.9686
▁:	-11.9687
ard	-11.9701
▁rain	-11.9709
▁rule	-11.971
▁enemy	-11.9719
▁Italy	-11.9719
▁covered	-11.9737
▁lovely	-11.9742
ary	-11.9749
▁therefore	-11.9751
▁rights	-11.977
▁stars	-11.9792
▁production	-11.9793
▁broken	-11.9796
▁Another	-11.9799
▁luck	-11.9799
▁arrived	-11.9815
▁offer	-11.9825
▁marry	-11.9829
ak	-11.9829
▁Mark	-11.9829
▁earlier	-11.983
▁Canada	-11.983
▁plant	-11.9832
▁continue	-11.9854
[	-11.9859
au	-11.9874
▁Ho	-11.9876
▁welcome	-11.9876
▁Pyr	-11.9879
ant	-11.9882
oo	-11.9887
so	-11.9887
▁price	-11.9888
▁corner	-11.9909
▁terrible	-11.9911
▁Royal	-11.9916
▁aha	-11.9942
▁official	-11.9954
▁Sea	-11.9955
▁election	-11.9956
▁Once	-11.9971
▁path	-11.9974
▁holding	-11.9982
▁sad	-11.9983
▁begin	-11.9996
▁add	-12.0003
▁Alright	-12.0008
▁established	-12.001
▁successful	-12.0025
▁Everything	-12.0026
▁park	-12.0035
▁hi	-12.0059
ga	-12.006
like	-12.0063
▁reading	-12.0064
▁Keep	-12.0076
▁fighting	-12.0079
▁knowledge	-12.009
▁drop	-12.0091
▁Ba	-12.0093
▁Hall	-12.0103
▁policy	-12.0107
▁relationship	-12.0117
▁code	-12.0121
mo	-12.0129
▁weight	-12.0135
gu	-12.0144
▁escape	-12.0145
▁prison	-12.0166
▁warm	-12.0175
▁none	-12.0185
▁international	-12.0189
▁average	-12.0189
▁absolutely	-12.019
▁agree	-12.0196
▁minus	-12.0223
▁forces	-12.0228
sh	-12.0238
▁Scotland	-12.024
▁forced	-12.0243
▁Bye	-12.0243
ke	-12.0258
▁Ok	-12.0269
▁regular	-12.0272
▁Ooh	-12.0273
▁Spanish	-12.0274
▁Wow	-12.0274
▁liked	-12.0281
▁wide	-12.0293
▁leg	-12.0298
lo	-12.0299
▁practice	-12.0299
▁purpose	-12.0301
▁thus	-12.0311
ca	-12.0314
▁Kingdom	-12.0323
▁crew	-12.0334
▁stick	-12.0352
▁Any	-12.0354
▁IT	-12.037
▁walking	-12.0378
▁rate	-12.0382
▁Over	-12.0384
ig	-12.0393
led	-12.0401
▁machine	-12.0404
▁coach	-12.0404
▁accept	-12.0405
▁fault	-12.0419
Atlantiques	-12.0425
▁beyond	-12.0425
▁chief	-12.0426
▁imagine	-12.044
▁directed	-12.0444
ally	-12.0461
▁1.	-12.0467
▁Bob	-12.047
▁More	-12.0472
▁spirit	-12.0472
▁According	-12.0493
▁surface	-12.0522
▁2013	-12.0524
▁twice	-12.0528
▁signed	-12.0531
That	-12.0542
▁unless	-12.0545
▁services	-12.0546
▁opening	-12.0547
▁Doctor	-12.0547
▁pre	-12.0547
bo	-12.0549
▁protect	-12.0553
ville	-12.0556
▁material	-12.0557
▁spot	-12.0561
ian	-12.0562
▁Tony	-12.0565
▁Love	-12.0568
▁Today	-12.0597
▁pounds	-12.0599
▁wine	-12.0611
▁dropped	-12.0614
▁dangerous	-12.0617
▁kinds	-12.0627
▁rose	-12.0628
▁ill	-12.063
▁tells	-12.0631
▁Iran	-12.0637
ff	-12.0642
▁singer	-12.0645
▁leaves	-12.0647
▁discovered	-12.065
▁shop	-12.0655
▁yellow	-12.0667
▁release	-12.0677
▁flowers	-12.0679
But	-12.069
▁opportunity	-12.0701
▁Joe	-12.0708
▁pop	-12.0727
▁nose	-12.0729
▁kiss	-12.0734
▁winter	-12.0737
▁Sa	-12.074
▁legs	-12.0742
▁count	-12.0748
▁lots	-12.0748
ho	-12.0758
ial	-12.0766
▁Le	-12.0774
▁Big	-12.0786
▁biggest	-12.0789
▁religious	-12.079
▁dollars	-12.0797
ac	-12.0807
▁gas	-12.0811
▁systems	-12.0812
ow	-12.0818
▁driving	-12.0824
▁fifty	-12.0825
rd	-12.0837
▁Congress	-12.0842
▁Although	-12.0842
▁Western	-12.0843
bi	-12.0851
▁soldiers	-12.0857
▁bank	-12.0857
▁Sometimes	-12.086
▁Council	-12.086
▁2,	-12.0873
vi	-12.0874
▁anywhere	-12.0878
▁Help	-12.0879
▁mass	-12.0896
▁base	-12.0905
per	-12.0909
▁female	-12.091
▁sides	-12.0913
▁entered	-12.0914
▁elected	-12.0916
om	-12.0931
▁mountain	-12.0931
▁highest	-12.0932
▁skin	-12.0933
ER	-12.0949
▁cities	-12.0962
▁memory	-12.0967
▁Prince	-12.0968
▁Perhaps	-12.0969
▁calls	-12.0976
▁dogs	-12.0983
▁Mike	-12.0987
▁growing	-12.0989
▁forth	-12.0995
▁sky	-12.101
ex	-12.1012
▁religion	-12.1017
▁slow	-12.1018
▁easily	-12.1039
▁Chinese	-12.104
way	-12.105
▁twelve	-12.1057
▁throughout	-12.1058
▁Life	-12.106
▁characters	-12.106
▁smaller	-12.1061
▁dis	-12.1083
▁ear	-12.1084
▁2005	-12.1089
ized	-12.1109
▁percent	-12.1111
▁Act	-12.1112
ger	-12.1117
▁currently	-12.1131
▁Day	-12.1137
▁teams	-12.1138
▁risk	-12.1141
▁patient	-12.1144
▁episode	-12.1145
▁Hold	-12.1155
▁Association	-12.1167
▁culture	-12.1182
▁note	-12.1201
▁laid	-12.1205
▁expected	-12.1205
▁test	-12.1208
pa	-12.1211
▁plants	-12.1211
ee	-12.122
▁remained	-12.1223
▁da	-12.1232
▁missing	-12.1243
ze	-12.1244
ji	-12.1247
▁older	-12.125
▁industry	-12.1259
▁coast	-12.1261
▁neck	-12.1262
▁Hill	-12.1268
▁includes	-12.127
▁teach	-12.127
▁garden	-12.1275
▁spread	-12.1277
▁players	-12.1289
▁fix	-12.1295
▁originally	-12.1298
▁Mother	-12.1299
▁wearing	-12.13
▁prove	-12.1307
▁campaign	-12.1311
▁direction	-12.1314
▁hang	-12.1316
▁rules	-12.1322
▁2016	-12.1333
ance	-12.1335
▁condition	-12.1345
▁enjoy	-12.1348
▁trip	-12.1351
▁wedding	-12.1353
▁Saint	-12.1353
▁provide	-12.1364
▁crime	-12.1367
▁particularly	-12.1372
ons	-12.1391
▁Show	-12.1392
ina	-12.1399
▁forty	-12.1399
cause	-12.14
▁birth	-12.1408
▁Time	-12.1413
▁definitely	-12.1446
▁Steve	-12.1446
▁uses	-12.1465
▁Mi	-12.1477
▁pictures	-12.1498
▁duty	-12.1503
▁address	-12.1518
▁staff	-12.1522
Well	-12.1523
line	-12.153
▁choose	-12.1537
▁notice	-12.1537
▁Next	-12.1541
pe	-12.1546
▁ass	-12.1572
▁Say	-12.1579
▁Never	-12.1581
▁Lake	-12.1582
▁flat	-12.1584
▁pleasure	-12.1597
▁negative	-12.1598
▁Jim	-12.1598
▁Republic	-12.1598
▁Smith	-12.1599
▁Something	-12.1599
▁Cos	-12.1611
▁vote	-12.1611
▁strength	-12.1615
▁access	-12.1615
▁boss	-12.1616
▁slowly	-12.1618
▁moon	-12.1618
ated	-12.162
▁fresh	-12.162
▁placed	-12.1621
▁degree	-12.1634
▁eggs	-12.1652
▁spring	-12.1652
▁hello	-12.1658
▁powerful	-12.1665
▁lawyer	-12.1671
▁according	-12.1674
▁Spain	-12.1674
▁larger	-12.1676
▁Old	-12.1692
▁thee	-12.1707
J	-12.1709
▁mentioned	-12.1715
ut	-12.172
▁2015	-12.1725
▁worried	-12.1732
▁press	-12.1734
II	-12.1748
▁proud	-12.1751
▁agreed	-12.1754
▁Air	-12.1761
▁contract	-12.1762
▁pair	-12.1768
▁dreams	-12.177
▁influence	-12.1786
▁student	-12.1788
▁addition	-12.179
▁southwestern	-12.1791
▁range	-12.18
▁Bill	-12.1808
▁security	-12.1811
▁fat	-12.1813
▁killing	-12.1817
▁Road	-12.183
▁Little	-12.1832
▁pound	-12.1848
▁medical	-12.1851
▁picked	-12.1853
ating	-12.1858
▁issues	-12.1858
▁cars	-12.186
▁El	-12.1865
▁Los	-12.1866
my	-12.1867
▁weather	-12.1869
▁individual	-12.1886
▁pressure	-12.1887
▁bigger	-12.1889
▁Chicago	-12.189
▁Shut	-12.1893
▁acting	-12.1893
▁Na	-12.1901
▁orders	-12.1906
▁source	-12.1907
▁Also	-12.1909
▁Fuck	-12.191
▁totally	-12.191
▁heat	-12.191
▁designed	-12.1911
▁consist	-12.1911
▁author	-12.1914
▁Both	-12.1921
▁forms	-12.1925
▁product	-12.1927
▁lucky	-12.1929
▁contact	-12.1945
▁section	-12.1948
▁Texas	-12.1948
▁records	-12.1954
▁serve	-12.1963
▁Catholic	-12.1966
▁flight	-12.1967
▁empty	-12.1968
▁related	-12.1972
▁troops	-12.1972
▁brothers	-12.1974
▁laugh	-12.1984
▁companies	-12.1988
▁conditions	-12.1992
▁command	-12.2004
▁Christmas	-12.2008
▁replaced	-12.2009
▁Fine	-12.201
▁Di	-12.2018
▁cry	-12.202
▁bye	-12.2022
▁smile	-12.2023
▁becomes	-12.2024
▁houses	-12.2024
▁honest	-12.2026
▁mum	-12.2027
▁waste	-12.2038
▁hill	-12.2042
▁performance	-12.2046
▁civil	-12.205
▁generally	-12.205
▁mainly	-12.2051
▁apart	-12.2053
▁Jackson	-12.2068
▁Nice	-12.207
=	-12.2083
▁reported	-12.209
▁leading	-12.2091
abad	-12.2099
ov	-12.2108
▁basically	-12.2108
▁weird	-12.2109
▁writer	-12.2109
ier	-12.2109
▁tape	-12.2114
▁plans	-12.2118
▁partner	-12.2119
▁bread	-12.2129
▁Chief	-12.2129
▁filled	-12.2131
▁surprise	-12.2146
▁teeth	-12.2148
▁obviously	-12.2149
▁performed	-12.2149
lu	-12.2155
▁Out	-12.2171
▁di	-12.2181
▁appear	-12.2184
▁ya	-12.2185
wa	-12.2195
▁Bay	-12.2195
▁brown	-12.2195
▁accident	-12.2207
▁thinks	-12.2207
▁medicine	-12.2207
▁bill	-12.2207
▁Majesty	-12.2209
▁truck	-12.221
▁soft	-12.221
▁Huh	-12.2211
▁taught	-12.2213
▁Sha	-12.2217
▁travel	-12.2224
▁Championship	-12.2227
▁uncle	-12.2228
▁replied	-12.2229
▁Vi	-12.223
▁offered	-12.2232
▁singing	-12.2232
▁Club	-12.2232
▁recorded	-12.2232
▁damn	-12.2233
▁Ben	-12.2235
▁Martin	-12.2241
▁types	-12.2243
,--	-12.2247
▁competition	-12.2248
▁palace	-12.225
▁rise	-12.2252
▁forgot	-12.2252
▁hole	-12.2257
▁Green	-12.2257
op	-12.2258
RE	-12.2264
▁eventually	-12.227
▁evil	-12.227
▁clearly	-12.2273
▁Pa	-12.2276
▁Later	-12.2276
▁handle	-12.2288
▁kitchen	-12.2291
▁stuck	-12.2291
▁edge	-12.2292
▁loss	-12.2293
▁Ko	-12.2307
▁storm	-12.231
▁described	-12.2312
▁hide	-12.2315
▁features	-12.2325
▁remain	-12.2327
▁youth	-12.233
▁Scott	-12.2337
._	-12.2345
▁sake	-12.2351
▁positive	-12.2353
▁failed	-12.2353
▁central	-12.2355
partement	-12.2373
chi	-12.2375
▁legal	-12.2377
▁lies	-12.2393
▁Government	-12.2394
.--	-12.2403
ham	-12.2411
dy	-12.2413
▁hotel	-12.2413
▁northern	-12.2415
▁2.	-12.2419
▁cast	-12.2423
▁separate	-12.2433
▁native	-12.2436
▁becoming	-12.2437
▁zero	-12.2437
▁Li	-12.2437
▁Asia	-12.244
▁Greek	-12.2456
▁concerned	-12.2457
▁camera	-12.2458
▁ships	-12.2469
Why	-12.2477
▁actress	-12.2477
▁neither	-12.2477
▁studio	-12.2479
▁missed	-12.2479
▁Sam	-12.2487
▁shape	-12.2496
▁Lady	-12.25
▁journey	-12.2519
▁greatest	-12.252
▁foreign	-12.2539
▁opinion	-12.254
▁Ra	-12.2556
▁aged	-12.2558
▁results	-12.256
▁Academy	-12.2561
▁breakfast	-12.2561
▁bitch	-12.2571
▁officers	-12.2577
▁property	-12.2582
id	-12.2584
▁greater	-12.2591
▁consider	-12.2591
▁Gu	-12.2591
▁produce	-12.2595
▁3,	-12.2597
▁saved	-12.2608
▁divided	-12.2625
ural	-12.2642
▁realize	-12.2643
▁structure	-12.2644
well	-12.2664
▁iron	-12.2668
wood	-12.2674
red	-12.268
▁block	-12.2686
▁studied	-12.2688
▁speech	-12.2709
▁bright	-12.2712
▁Make	-12.2715
▁super	-12.2727
ana	-12.2731
▁directly	-12.2732
▁Jimmy	-12.2732
▁cancer	-12.2734
▁ordered	-12.2738
▁planet	-12.2743
▁reasons	-12.2745
▁papers	-12.2751
▁buried	-12.2753
▁wow	-12.2755
▁horses	-12.2763
▁object	-12.2769
▁Line	-12.2771
▁faces	-12.2773
ko	-12.2774
▁Each	-12.2774
▁firm	-12.2775
▁breath	-12.2789
▁decide	-12.2793
ster	-12.2794
...?	-12.2795
▁Major	-12.2796
▁easier	-12.2796
▁impossible	-12.2796
▁gentlemen	-12.2796
▁Iowa	-12.2796
▁THAT	-12.2796
▁Open	-12.28
▁jump	-12.2805
ED	-12.2809
▁Soviet	-12.2818
▁surprised	-12.2819
▁increase	-12.2836
▁judge	-12.2837
▁worst	-12.2839
▁technology	-12.284
ler	-12.2852
▁metal	-12.2855
▁artist	-12.2866
▁heads	-12.2874
▁Mar	-12.2875
▁keeping	-12.2877
▁Boy	-12.2879
▁silly	-12.2882
▁Four	-12.2884
▁prepared	-12.2884
▁Best	-12.2887
▁etc	-12.2895
▁network	-12.2902
▁Mexico	-12.2904
▁fill	-12.2907
▁pro	-12.2909
▁Russia	-12.2911
▁shoes	-12.292
▁starts	-12.292
▁smart	-12.2925
▁Football	-12.2926
▁favorite	-12.2926
▁flying	-12.2929
▁learning	-12.293
▁Still	-12.2949
▁ourselves	-12.297
gi	-12.297
▁crying	-12.2974
hi	-12.2975
▁runs	-12.2977
▁2001	-12.2979
▁taste	-12.2982
za	-12.2982
▁unit	-12.2985
side	-12.2985
▁content	-12.2989
▁Empire	-12.2992
ick	-12.2993
▁rid	-12.2995
▁meat	-12.3013
▁recently	-12.3014
▁asleep	-12.3015
▁drinking	-12.3019
▁sleeping	-12.302
▁Ray	-12.3047
▁mid	-12.3053
▁smell	-12.3054
▁smoke	-12.3057
▁Professor	-12.3058
▁engine	-12.306
▁multiple	-12.3061
▁route	-12.3075
▁Ro	-12.309
▁v	-12.3099
▁image	-12.3102
▁split	-12.3103
▁cash	-12.3109
Do	-12.3116
▁province	-12.3125
ists	-12.3128
▁buildings	-12.3134
▁onto	-12.3143
▁Women	-12.3148
▁seconds	-12.3148
▁Prime	-12.3148
▁pocket	-12.3149
house	-12.3151
▁frog	-12.3154
▁novel	-12.3157
▁actual	-12.3161
If	-12.3164
▁calm	-12.3169
▁lunch	-12.3169
▁Anyway	-12.317
▁manager	-12.317
..."	-12.3181
▁excuse	-12.3192
law	-12.3203
▁hurry	-12.3213
▁council	-12.3214
▁ladies	-12.3214
▁centre	-12.3217
▁1970	-12.322
eh	-12.3232
▁Maria	-12.3236
▁forever	-12.3241
▁avoid	-12.3258
▁fashion	-12.3258
▁hungry	-12.3259
▁dare	-12.3264
▁wake	-12.3281
▁Company	-12.3305
▁amazing	-12.3305
▁faith	-12.3315
▁Brown	-12.3319
▁promised	-12.3331
▁stayed	-12.3335
▁direct	-12.3337
▁Young	-12.3339
▁soldier	-12.3354
tic	-12.3354
▁listening	-12.3355
▁Remember	-12.3374
▁costs	-12.3376
▁mate	-12.3386
▁proper	-12.3395
▁Carter	-12.3396
▁anti	-12.3402
ong	-12.3408
▁danger	-12.3415
▁Princess	-12.3418
▁Rock	-12.3422
▁turns	-12.3439
▁Actually	-12.3442
▁municipality	-12.3443
▁standard	-12.3444
▁tail	-12.3452
▁coat	-12.3454
ru	-12.3458
▁planning	-12.3465
▁Center	-12.3466
tion	-12.347
der	-12.3476
▁traditional	-12.3479
▁wash	-12.3498
ki	-12.3505
▁correct	-12.3508
▁previous	-12.351
▁languages	-12.3515
▁hall	-12.352
▁specific	-12.353
▁programs	-12.3532
▁organization	-12.3535
▁bottle	-12.3536
▁Indiana	-12.3536
How	-12.3551
▁Chi	-12.3554
▁Call	-12.3555
▁required	-12.3559
▁lights	-12.3571
▁ears	-12.3574
▁mention	-12.3581
▁throat	-12.3581
▁roof	-12.3582
▁finger	-12.3583
▁2011	-12.3588
▁goal	-12.3599
▁plane	-12.3599
▁complex	-12.3604
▁drew	-12.3604
▁appointed	-12.3606
▁Louis	-12.3607
▁4,	-12.3612
▁2018	-12.3622
▁struck	-12.3628
▁Angeles	-12.3628
▁silver	-12.3628
▁reality	-12.3629
▁castle	-12.363
▁threw	-12.363
▁active	-12.3631
▁aware	-12.3634
▁inter	-12.3634
ub	-12.3651
▁drunk	-12.3651
com	-12.3656
▁Car	-12.3659
▁ho	-12.3663
▁Kennedy	-12.3675
▁turning	-12.3684
shi	-12.3686
▁beauty	-12.3698
▁fruit	-12.3701
▁location	-12.3701
▁cook	-12.3708
cha	-12.3716
▁fool	-12.372
▁Grand	-12.372
▁construction	-12.3722
▁southern	-12.3722
▁Uncle	-12.3725
▁Up	-12.3736
▁significant	-12.3745
▁managed	-12.3748
▁grown	-12.3752
▁Girl	-12.3752
mer	-12.3764
▁farm	-12.3766
▁Daniel	-12.3769
▁destroyed	-12.377
▁physical	-12.3793
▁silence	-12.3793
▁Division	-12.3793
▁introduced	-12.3794
▁Star	-12.3804
wi	-12.3812
▁streets	-12.3818
▁Du	-12.3829
▁Rome	-12.3839
▁debut	-12.3841
▁units	-12.3841
▁possibly	-12.3842
▁grand	-12.3859
▁wet	-12.386
▁function	-12.3862
▁Everybody	-12.3866
▁bath	-12.3867
▁k	-12.3868
▁card	-12.3869
gil	-12.3871
▁independent	-12.3889
▁Canadian	-12.389
▁honor	-12.389
▁universe	-12.389
▁economic	-12.3892
▁loves	-12.3901
▁Americans	-12.3907
▁operation	-12.3907
My	-12.3908
off	-12.3909
▁financial	-12.3912
▁Think	-12.3915
▁appears	-12.3915
▁Ar	-12.3916
sy	-12.3919
▁suit	-12.3921
▁finding	-12.3936
▁drama	-12.394
field	-12.394
▁mark	-12.3942
ship	-12.395
▁toward	-12.3951
▁basic	-12.3961
▁chocolate	-12.3962
▁losing	-12.3963
▁accepted	-12.3963
▁hardly	-12.3966
▁Has	-12.397
ize	-12.3982
▁treatment	-12.3987
▁Sunday	-12.3989
▁dressed	-12.399
▁Russian	-12.4002
▁showing	-12.4004
▁attempt	-12.4009
▁dirty	-12.401
▁lack	-12.4012
▁quarter	-12.4012
▁afterwards	-12.4013
▁feed	-12.4017
▁fought	-12.4034
▁sweetie	-12.4036
▁falling	-12.4039
▁laws	-12.4042
ol	-12.4049
▁Governor	-12.4058
▁rocks	-12.4068
▁sports	-12.4076
▁Last	-12.4082
▁responsible	-12.4083
▁willing	-12.4087
▁Su	-12.4098
▁prime	-12.4098
▁humans	-12.4101
▁quality	-12.4109
▁sword	-12.411
▁Whatever	-12.4111
▁Pe	-12.412
(	-12.4123
▁African	-12.4124
▁Scottish	-12.4133
▁retired	-12.4133
▁Friday	-12.4134
▁Lu	-12.4139
▁mess	-12.4159
▁thy	-12.4162
▁male	-12.4163
▁swear	-12.418
▁drug	-12.4183
▁fixed	-12.4184
▁statement	-12.4185
▁feels	-12.4189
ag	-12.4196
▁constant	-12.4206
▁sudden	-12.4206
▁Stay	-12.421
▁helping	-12.4226
▁opposite	-12.4232
▁queen	-12.4232
▁Nobody	-12.4233
▁division	-12.4236
▁Blue	-12.4242
uyeh	-12.4245
▁recent	-12.4256
▁pleased	-12.4258
▁jail	-12.4258
▁UK	-12.4259
▁giant	-12.4259
▁gay	-12.4261
▁Leave	-12.4261
▁likes	-12.4264
ell	-12.4265
▁laughed	-12.4283
▁prince	-12.4285
si	-12.4285
▁trial	-12.4299
ber	-12.43
-19	-12.4302
▁drugs	-12.4306
▁Britain	-12.4307
▁Five	-12.4308
▁sand	-12.431
▁audience	-12.431
▁enter	-12.4311
po	-12.4316
▁Shit	-12.4326
▁approach	-12.4328
ite	-12.4335
▁Ya	-12.4339
▁pen	-12.4357
▁pulled	-12.4359
▁railway	-12.436
▁temperature	-12.436
▁comedy	-12.4385
▁signal	-12.4386
▁teaching	-12.4387
▁younger	-12.439
▁Valley	-12.4408
▁safety	-12.4408
▁environment	-12.441
▁noticed	-12.441
▁products	-12.4411
▁1960	-12.4417
▁Jane	-12.4417
▁Bar	-12.4426
▁lad	-12.4428
▁tax	-12.4431
▁Under	-12.4432
▁dying	-12.4433
▁Tommy	-12.4433
▁Summer	-12.4434
ot	-12.4438
▁Long	-12.4439
▁lord	-12.4439
▁fingers	-12.4457
▁management	-12.4459
▁entirely	-12.446
ria	-12.446
▁Music	-12.4483
▁benefit	-12.4487
▁winning	-12.4488
▁mission	-12.4493
▁jobs	-12.4496
▁Ju	-12.4501
▁hero	-12.451
▁kingdom	-12.4513
▁matters	-12.4515
▁joke	-12.4526
▁Ni	-12.453
ud	-12.4531
▁walls	-12.4531
▁forgive	-12.4536
▁remains	-12.4537
▁tournament	-12.4538
▁beach	-12.4539
▁Yu	-12.4542
▁admit	-12.4553
▁2022	-12.4556
▁gentleman	-12.4561
▁tiny	-12.4562
▁raise	-12.4564
▁cell	-12.4582
▁Everyone	-12.4588
▁conversation	-12.459
ver	-12.4591
clock	-12.4595
There	-12.4601
▁Damn	-12.461
▁defeated	-12.4614
▁Back	-12.4614
▁cards	-12.4617
▁steps	-12.4619
▁text	-12.4624
▁musical	-12.4632
▁Susan	-12.4646
▁egg	-12.4646
▁focus	-12.4653
▁Sit	-12.4655
ack	-12.4656
▁sugar	-12.4664
▁Someone	-12.4665
▁bodies	-12.4665
▁politics	-12.4665
▁Early	-12.4665
▁removed	-12.4666
▁effort	-12.4668
ities	-12.4676
▁brave	-12.4678
▁receive	-12.4682
▁Latin	-12.4686
▁ends	-12.4691
▁Group	-12.4691
▁solution	-12.4694
▁thousands	-12.47
▁2017	-12.4707
▁Ca	-12.4707
hu	-12.4713
▁Rose	-12.4714
.]	-12.4716
▁Should	-12.4717
▁Daddy	-12.4718
▁circle	-12.4719
▁credit	-12.4719
▁Saturday	-12.4721
ide	-12.4726
▁method	-12.4729
ass	-12.4738
▁heaven	-12.4742
▁authority	-12.4743
▁refer	-12.4746
▁nation	-12.4753
▁faster	-12.4771
▁shooting	-12.4772
▁agent	-12.4785
ram	-12.479
▁Port	-12.4792
▁blind	-12.4794
▁usual	-12.4795
▁connected	-12.4796
▁fifth	-12.4797
▁details	-12.481
▁grass	-12.482
▁everywhere	-12.4822
▁settled	-12.4823
▁somewhat	-12.4823
▁Holy	-12.4823
All	-12.4824
▁attacked	-12.4825
▁newspaper	-12.4826
Yeah	-12.4827
This	-12.4829
▁Shi	-12.4831
▁2007	-12.4841
▁Koh	-12.4841
▁Watch	-12.4848
▁manner	-12.4849
▁knife	-12.4849
ford	-12.4856
▁joy	-12.4865
▁photo	-12.4869
▁h	-12.4872
▁awful	-12.4875
▁matches	-12.4876
▁provided	-12.4877
▁completed	-12.4878
▁Law	-12.4882
che	-12.4891
ec	-12.4892
▁w	-12.4893
▁knowing	-12.4895
"?	-12.4907
▁km	-12.4908
▁contains	-12.4914
▁wo	-12.492
▁prevent	-12.4924
▁200	-12.493
▁Super	-12.4933
ku	-12.4934
▁Yo	-12.4934
▁manage	-12.4939
▁Korea	-12.4948
▁useful	-12.4954
▁closer	-12.4957
▁2013,	-12.4957
▁r	-12.4957
▁1980	-12.4958
▁Che	-12.4973
mon	-12.498
▁guns	-12.4982
▁forgotten	-12.4982
▁highly	-12.4987
▁2020	-12.4989
room	-12.499
car	-12.4991
not	-12.4992
▁Awards	-12.4995
▁eh	-12.5
▁chose	-12.5
▁score	-12.5001
▁exist	-12.5003
▁slightly	-12.5009
▁loud	-12.501
▁causes	-12.5016
▁branch	-12.5036
▁loose	-12.5038
▁scale	-12.5045
▁fired	-12.5046
▁shore	-12.505
▁Whoa	-12.5058
▁Parliament	-12.5062
▁expensive	-12.5062
▁presence	-12.5062
▁majority	-12.5063
▁budget	-12.5064
▁activity	-12.5064
▁Film	-12.5064
▁western	-12.5065
vo	-12.5067
--"	-12.5072
▁ability	-12.5075
ame	-12.5083
ization	-12.5085
▁Prize	-12.5089
▁Secretary	-12.5089
▁Southern	-12.5091
▁lips	-12.5094
▁Republican	-12.5094
▁bringing	-12.5099
ray	-12.5101
▁noise	-12.5108
ada	-12.5112
▁chicken	-12.5116
▁studies	-12.5117
▁sa	-12.5127
▁chain	-12.5138
▁Second	-12.5144
▁Ta	-12.5149
▁roll	-12.5165
ring	-12.5166
▁Po	-12.5176
▁feelings	-12.5184
▁screen	-12.5189
▁Massachusetts	-12.5198
▁victory	-12.5198
▁Carolina	-12.5199
▁extremely	-12.5199
▁Fa	-12.5206
▁Max	-12.5209
ence	-12.5219
▁al	-12.5225
▁status	-12.5226
▁Institute	-12.5226
▁suggested	-12.5227
▁claim	-12.5232
▁Nick	-12.5235
▁Dutch	-12.5253
▁advice	-12.5254
▁cheese	-12.5254
▁Ab	-12.5266
▁hearing	-12.5269
▁defeat	-12.5281
▁climate	-12.5281
ries	-12.529
▁shirt	-12.5292
io	-12.5295
▁Michigan	-12.5309
▁Dave	-12.5324
▁grave	-12.5332
▁guilty	-12.5337
▁2000	-12.5343
▁shoulder	-12.5346
▁Mu	-12.5352
▁Pro	-12.5353
▁Hans	-12.5361
▁nineteen	-12.5364
▁Again	-12.5364
▁Society	-12.5364
▁understood	-12.5364
▁Addons	-12.5364
▁traffic	-12.5365
▁golden	-12.5365
her	-12.537
ach	-12.5378
▁fully	-12.538
▁Ga	-12.538
▁Kansas	-12.5393
▁bell	-12.5394
over	-12.54
▁Games	-12.54
▁resources	-12.5404
▁duck	-12.5405
▁owned	-12.5413
▁flew	-12.542
▁Senate	-12.542
▁hanging	-12.5423
▁rough	-12.5423
▁colour	-12.5424
▁kick	-12.5428
▁quit	-12.543
▁gain	-12.5431
▁shake	-12.5431
ble	-12.5432
tra	-12.5434
▁Far	-12.5446
▁cup	-12.5448
▁federal	-12.5448
▁upstairs	-12.5449
▁Joseph	-12.5449
▁planned	-12.5449
▁damage	-12.5452
▁measure	-12.5453
▁collection	-12.5454
▁drawing	-12.5458
▁origin	-12.5472
▁upset	-12.5476
▁Death	-12.5478
▁passing	-12.5481
▁appearance	-12.5483
▁soil	-12.5502
▁Department	-12.5505
▁occurred	-12.5505
▁awarded	-12.5506
▁Hmm	-12.5507
▁desire	-12.5509
ou	-12.5514
tes	-12.5522
▁carefully	-12.5535
▁bomb	-12.5541
▁ON	-12.5545
▁blame	-12.556
art	-12.5563
▁proof	-12.5567
▁expression	-12.5568
▁orange	-12.559
▁otherwise	-12.559
▁plain	-12.5591
▁parties	-12.5592
ip	-12.5595
▁presented	-12.5595
So	-12.5596
▁Olympics	-12.5603
▁Ja	-12.5606
ay	-12.5612
zi	-12.5615
▁royal	-12.5619
▁Harry	-12.562
▁Ohio	-12.5621
▁perfectly	-12.5621
▁commercial	-12.5624
▁instance	-12.5625
cy	-12.5639
▁salt	-12.5647
▁Mhm	-12.5649
▁connection	-12.5654
▁Brother	-12.5656
▁understanding	-12.566
▁gift	-12.5664
▁limited	-12.5677
▁Ri	-12.5678
▁10,	-12.5678
har	-12.569
king	-12.5695
American	-12.5704
▁notes	-12.5708
▁watched	-12.5711
back	-12.5714
▁Ten	-12.5717
▁killer	-12.5744
▁goods	-12.5752
uc	-12.5758
▁thick	-12.5759
▁northwest	-12.5764
▁represented	-12.5764
▁mountains	-12.5764
▁interview	-12.5769
▁advantage	-12.5769
▁crowd	-12.5781
q	-12.5785
▁discuss	-12.5789
▁ocean	-12.5789
▁keeps	-12.5794
▁breaking	-12.58
▁weak	-12.5805
▁tears	-12.5807
Si	-12.5816
▁tough	-12.5821
▁dancing	-12.5821
▁unique	-12.5821
▁increased	-12.5824
▁WE	-12.5826
▁effects	-12.5838
▁doors	-12.584
ek	-12.5846
▁apple	-12.5848
▁Mc	-12.5855
bar	-12.5856
▁Too	-12.5856
▁guard	-12.5858
▁port	-12.586
▁helps	-12.5861
▁beside	-12.5864
▁Chris	-12.5876
▁flow	-12.5878
▁drove	-12.588
tro	-12.5883
▁Pete	-12.5883
▁1990	-12.5884
▁response	-12.5886
▁uniform	-12.5887
ily	-12.5907
▁declared	-12.591
▁harm	-12.5912
▁carrying	-12.5913
▁magazine	-12.5916
▁remembered	-12.592
▁DO	-12.5933
▁ninety	-12.5939
▁magic	-12.5943
▁laughing	-12.5945
▁reaction	-12.5946
▁prize	-12.5948
▁button	-12.595
_.	-12.5951
▁tour	-12.5952
▁stated	-12.5955
▁wings	-12.5955
▁ate	-12.5957
▁basis	-12.5968
▁Pennsylvania	-12.5968
▁growth	-12.5969
▁background	-12.597
▁teachers	-12.5983
▁Emperor	-12.5998
▁Kentucky	-12.5998
▁2014	-12.5998
▁broad	-12.5999
▁Cross	-12.6
▁Welcome	-12.6
ui	-12.6002
▁afford	-12.6005
▁league	-12.6007
yo	-12.6013
▁signs	-12.6022
▁Fire	-12.6026
▁apartment	-12.6029
▁Victoria	-12.6029
▁stations	-12.603
night	-12.6036
▁committee	-12.6038
▁Edward	-12.6038
▁balls	-12.6053
our	-12.6054
▁Da	-12.6055
▁hung	-12.6057
▁freedom	-12.6057
▁hiding	-12.6058
▁cream	-12.6065
ap	-12.6066
▁Hurry	-12.6087
▁Ireland	-12.6087
▁kidding	-12.6087
▁Pacific	-12.6089
▁15,	-12.6089
▁normally	-12.6089
▁Johnson	-12.6089
▁shared	-12.6092
▁princess	-12.6092
▁failure	-12.6095
Cause	-12.6096
▁III	-12.61
▁12,	-12.6111
▁daily	-12.6117
▁Shakespeare	-12.6118
▁Exactly	-12.6118
▁Anything	-12.6118
ele	-12.6128
ens	-12.6132
▁owner	-12.6137
▁sharp	-12.6146
▁Democratic	-12.6148
row	-12.6152
▁belong	-12.6155
▁driver	-12.6158
▁figures	-12.6159
▁Sun	-12.6169
▁gods	-12.6173
▁plenty	-12.6178
▁latter	-12.6178
▁comfortable	-12.6178
▁Bi	-12.6182
▁host	-12.6185
▁staying	-12.6189
▁treat	-12.6191
sta	-12.6201
▁Museum	-12.6208
▁violence	-12.6209
▁sheep	-12.6209
que	-12.6211
▁mixed	-12.6211
▁favor	-12.6214
▁Order	-12.6216
▁Art	-12.6219
ft	-12.6232
▁copy	-12.6238
▁Lieutenant	-12.6238
▁narrow	-12.6238
▁brand	-12.6241
").	-12.6249
▁IS	-12.625
▁survive	-12.6267
▁variety	-12.6269
▁Civil	-12.6269
La	-12.627
▁invited	-12.627
▁follows	-12.627
▁Boston	-12.6271
▁map	-12.6273
▁Amy	-12.6273
▁Constitution	-12.6281
▁workers	-12.6286
▁5,	-12.6288
▁paint	-12.6289
▁Jones	-12.63
▁steel	-12.63
▁3.	-12.6301
▁piano	-12.6301
▁beer	-12.6322
▁cow	-12.6322
▁historical	-12.633
▁windows	-12.6331
▁disappeared	-12.6331
▁classes	-12.6332
▁border	-12.6337
▁dragon	-12.6339
▁tongue	-12.634
▁union	-12.6342
▁supply	-12.6361
▁eastern	-12.6362
▁2008	-12.6369
▁sees	-12.6374
▁flower	-12.638
▁chest	-12.6385
res	-12.639
▁silent	-12.6391
▁slept	-12.6392
▁Sidney	-12.6392
▁somehow	-12.6393
▁changing	-12.6393
▁Shall	-12.6395
with	-12.641
▁powers	-12.6418
▁excited	-12.6422
▁darling	-12.6423
▁innocent	-12.6423
▁proposed	-12.6424
▁captured	-12.6424
▁unknown	-12.6454
▁fallen	-12.6456
▁Such	-12.6458
▁squared	-12.6458
▁Home	-12.6473
▁Williams	-12.6481
▁operations	-12.6483
▁knock	-12.6483
▁artists	-12.6486
▁serving	-12.6488
ura	-12.649
▁Romania	-12.6491
▁priest	-12.6495
▁display	-12.6495
To	-12.6503
▁solve	-12.6513
▁brief	-12.6514
▁Move	-12.6515
▁Castle	-12.6516
▁mama	-12.6517
▁associated	-12.6517
▁recognize	-12.6517
▁Aunt	-12.6519
▁lock	-12.6522
▁selling	-12.6525
▁settlement	-12.6525
▁conference	-12.6526
▁1950	-12.6536
▁thoughts	-12.6544
▁alcohol	-12.6547
▁eaten	-12.6549
▁supported	-12.6552
▁Down	-12.6556
▁Ber	-12.6557
▁billion	-12.6557
▁Year	-12.6557
▁thin	-12.6561
▁nervous	-12.6578
▁senior	-12.6579
▁stomach	-12.6579
▁carbon	-12.6579
▁Arthur	-12.658
▁fairly	-12.6581
light	-12.6582
▁oldest	-12.6583
▁develop	-12.6584
▁suggest	-12.6585
▁holiday	-12.6588
▁victim	-12.6588
▁paying	-12.6589
▁Looks	-12.6595
ung	-12.66
▁row	-12.6605
▁exchange	-12.6607
▁appreciate	-12.6608
▁fifteen	-12.661
▁arrested	-12.6612
▁suffering	-12.6613
▁seek	-12.6617
▁Mac	-12.6622
▁strike	-12.6637
▁juice	-12.6642
▁Wendy	-12.6643
▁pure	-12.6644
▁file	-12.6649
▁Were	-12.6652
▁HE	-12.6654
▁roles	-12.6656
sar	-12.6663
▁arrest	-12.6671
▁primary	-12.6674
▁Sergeant	-12.6674
▁bastard	-12.6676
▁ooh	-12.6679
▁request	-12.668
▁1998	-12.6682
▁upper	-12.6682
▁materials	-12.6683
bye	-12.6685
▁setting	-12.6686
va	-12.6687
▁van	-12.6693
▁progress	-12.6704
▁wave	-12.6705
qui	-12.6707
▁sexual	-12.6707
▁previously	-12.6707
▁featured	-12.6708
▁fields	-12.6712
▁Cor	-12.6715
▁2013.	-12.6716
ari	-12.6716
are	-12.6721
▁producer	-12.6724
▁Festival	-12.6738
▁insurance	-12.6738
▁sixty	-12.6738
▁realized	-12.6741
▁Ed	-12.6743
▁sail	-12.6746
▁stock	-12.6751
du	-12.6756
▁tight	-12.6764
see	-12.6766
▁ordinary	-12.677
▁suffered	-12.6771
▁boyfriend	-12.6771
▁treated	-12.6772
zz	-12.6778
▁minister	-12.6779
what	-12.6779
▁hoping	-12.6803
▁determined	-12.6804
▁Station	-12.6805
▁patients	-12.6809
▁guest	-12.6812
▁pink	-12.6812
su	-12.6817
ea	-12.6821
▁remind	-12.6822
▁7,	-12.6826
▁award	-12.6827
ice	-12.6831
▁8,	-12.6832
▁philosophy	-12.6834
▁Thus	-12.6837
▁challenge	-12.6842
▁argument	-12.6844
▁weapon	-12.6844
▁seasons	-12.6847
▁2004	-12.6848
▁symbol	-12.6848
▁Te	-12.6853
▁Ne	-12.6854
▁boom	-12.686
▁Yet	-12.6862
▁11,	-12.6862
▁desert	-12.6865
▁Eh	-12.6874
▁mayor	-12.6874
▁2011,	-12.6876
▁channel	-12.6878
▁string	-12.6879
▁professor	-12.688
▁bound	-12.6882
▁Live	-12.6886
▁bunch	-12.6899
▁responsibility	-12.6899
▁basketball	-12.6899
▁Middle	-12.6899
▁existence	-12.6899
▁estate	-12.6899
▁apparently	-12.6899
▁Anna	-12.6899
▁shame	-12.6904
▁begins	-12.6912
▁plate	-12.6914
▁prefer	-12.6932
▁activities	-12.6932
▁economy	-12.6932
▁fancy	-12.6932
▁wondering	-12.6936
▁demand	-12.6939
head	-12.6939
▁weekend	-12.6942
▁platform	-12.6942
▁advance	-12.6943
Ma	-12.6949
▁weapons	-12.6954
Who	-12.6962
▁Wales	-12.6964
▁Alice	-12.6967
▁circumstances	-12.6967
▁pig	-12.6985
ical	-12.6986
▁Kim	-12.6991
▁Per	-12.6993
▁assistant	-12.6997
▁6,	-12.6998
▁burned	-12.6998
▁hundreds	-12.7002
▁Times	-12.7004
▁article	-12.7008
▁stole	-12.7008
▁ME	-12.7013
▁bite	-12.7013
▁""	-12.7021
▁mail	-12.7023
▁Northern	-12.703
▁engaged	-12.7031
▁governor	-12.7044
ise	-12.7047
▁Simon	-12.7051
They	-12.7052
▁FOR	-12.7053
gan	-12.7057
▁pretend	-12.706
AL	-12.7063
▁seriously	-12.7065
ami	-12.7068
▁bullet	-12.7072
ding	-12.708
▁witness	-12.7094
▁lift	-12.7097
▁crossed	-12.71
je	-12.7102
▁goodness	-12.7102
▁online	-12.7107
▁tied	-12.7111
ES	-12.7112
▁se	-12.7112
▁1997	-12.7112
▁brings	-12.7118
▁Pakistan	-12.7128
iggler	-12.7129
▁Besides	-12.7129
▁Director	-12.713
▁Atlantic	-12.713
LE	-12.7135
▁cake	-12.7138
▁feature	-12.7138
▁Pope	-12.7141
board	-12.715
ery	-12.7154
▁empire	-12.7163
ealand	-12.7163
▁protection	-12.7163
▁Battle	-12.7164
ue	-12.7168
▁Ku	-12.7169
▁wished	-12.7169
▁review	-12.717
jo	-12.7176
▁films	-12.7177
who	-12.7182
Ha	-12.7182
▁towns	-12.7189
bu	-12.7193
▁Pi	-12.7197
▁launched	-12.7198
▁motion	-12.7199
fer	-12.7201
ang	-12.7206
▁Brian	-12.7211
▁pee	-12.7212
aw	-12.7218
▁levels	-12.7218
mp	-12.722
▁13,	-12.722
▁garage	-12.723
hat	-12.723
▁dude	-12.7231
▁exact	-12.7231
▁riding	-12.7232
▁Bridge	-12.7235
▁root	-12.7239
▁Service	-12.7241
▁Force	-12.7242
▁leaders	-12.7245
ath	-12.7245
▁rare	-12.7246
ology	-12.726
▁diet	-12.7261
▁Calvados	-12.7263
▁task	-12.7263
▁solid	-12.7264
▁recognized	-12.7266
▁via	-12.7268
▁20,	-12.727
▁odd	-12.7274
▁ghost	-12.7275
▁islands	-12.7276
ile	-12.7277
ai	-12.7282
she	-12.7285
▁maintain	-12.7294
▁Elizabeth	-12.7296
▁funeral	-12.7297
▁Soon	-12.7297
▁Night	-12.73
ging	-12.7303
ua	-12.7307
▁waited	-12.7307
▁chosen	-12.7308
▁occur	-12.7308
tu	-12.7309
▁Lo	-12.7311
▁Ken	-12.7318
▁bother	-12.7326
▁switch	-12.7328
▁library	-12.7331
▁Jewish	-12.7331
▁Duke	-12.7331
▁electric	-12.7331
▁Danny	-12.7331
▁familiar	-12.7331
▁intended	-12.7332
▁scientific	-12.7332
▁attended	-12.7332
▁lake	-12.7337
▁dealing	-12.7339
▁steal	-12.7341
▁Tu	-12.7344
▁continues	-12.7344
▁sum	-12.7345
▁Jean	-12.7352
▁Alex	-12.7355
▁rooms	-12.7356
▁Run	-12.7357
▁MAN	-12.7364
▁additional	-12.7365
▁clever	-12.7365
▁Navy	-12.7365
▁(;	-12.7372
▁Vice	-12.7373
▁concern	-12.7374
▁sentence	-12.7375
ks	-12.7377
▁burn	-12.7382
▁Bu	-12.7383
this	-12.739
▁whoa	-12.7392
▁tower	-12.7394
ita	-12.7397
▁eleven	-12.7399
▁Jersey	-12.7399
▁ugly	-12.7399
▁Islam	-12.7399
▁wounded	-12.74
▁destroy	-12.7401
▁justice	-12.7401
▁noted	-12.7403
▁Bush	-12.7407
▁painting	-12.7413
▁stands	-12.7416
Be	-12.7418
▁Adam	-12.7418
oh	-12.7418
▁falls	-12.7422
▁butter	-12.7423
Let	-12.7428
ius	-12.7429
war	-12.743
▁Georgia	-12.7433
od	-12.7435
▁commonly	-12.7437
fi	-12.744
▁combination	-12.7445
▁cousin	-12.7447
▁Van	-12.7447
▁efforts	-12.7463
▁Monday	-12.7468
▁Lincoln	-12.7469
▁refused	-12.7469
▁Khan	-12.7471
ik	-12.7475
▁wound	-12.7478
og	-12.748
▁bowl	-12.7485
pi	-12.7487
▁Lou	-12.7498
▁mo	-12.7502
▁Ryan	-12.7502
▁earned	-12.7503
▁Irish	-12.7504
▁gotten	-12.7505
▁honour	-12.7513
▁Fi	-12.7513
▁impact	-12.7515
more	-12.7528
▁happiness	-12.7537
▁importance	-12.7537
▁critical	-12.7538
▁friendly	-12.7546
RR	-12.7549
▁belief	-12.7549
▁agreement	-12.7549
▁era	-12.7556
▁pack	-12.7566
▁transport	-12.757
▁finds	-12.757
▁spare	-12.7571
▁Colonel	-12.7572
▁concert	-12.7572
ative	-12.7579
ever	-12.7583
▁criminal	-12.7585
▁16,	-12.7588
▁2009	-12.7602
▁Roger	-12.7606
▁literature	-12.7606
▁Had	-12.7608
istic	-12.761
▁wore	-12.7611
▁elements	-12.7627
▁homes	-12.7636
ano	-12.7637
▁worship	-12.7641
▁excellent	-12.7641
mi	-12.7651
▁owe	-12.7653
▁handsome	-12.7653
▁pointed	-12.7656
▁decisions	-12.7658
AN	-12.7663
▁Alexander	-12.7676
▁Yep	-12.7677
▁Emily	-12.7678
rie	-12.7685
▁Rob	-12.7689
▁devil	-12.7689
▁Turn	-12.7692
▁wheel	-12.7697
▁Jacob	-12.7709
▁obvious	-12.7711
▁beneath	-12.7712
▁hidden	-12.7712
▁Eric	-12.7715
▁target	-12.7722
▁client	-12.7725
▁express	-12.7745
▁Egypt	-12.7746
▁shook	-12.7747
▁hunting	-12.7748
▁Water	-12.7751
▁Eastern	-12.7753
▁Until	-12.7758
▁gate	-12.7782
▁territory	-12.7782
▁Try	-12.7782
▁bride	-12.7783
ium	-12.7802
izing	-12.7802
▁9,	-12.7805
ised	-12.7814
▁Jill	-12.7816
▁Committee	-12.7818
▁suicide	-12.7818
▁Turkey	-12.7818
▁bo	-12.7826
▁museum	-12.7831
▁beg	-12.7831
▁girlfriend	-12.7833
▁allows	-12.7835
ane	-12.7836
She	-12.7838
▁wa	-12.7853
▁Johnny	-12.7857
ious	-12.7861
▁sorts	-12.7888
▁clock	-12.7889
▁Berlin	-12.789
▁committed	-12.789
▁darkness	-12.789
▁creating	-12.789
▁sons	-12.7895
▁fishing	-12.7896
▁sale	-12.7901
ew	-12.7901
▁attitude	-12.7903
▁idiot	-12.7903
▁generation	-12.7905
ez	-12.7914
fu	-12.7918
▁2014,	-12.7918
ron	-12.7921
hmm	-12.7922
▁assume	-12.7924
▁Board	-12.7926
▁Sarah	-12.7926
▁Twenty	-12.7927
▁explained	-12.7929
▁mood	-12.7938
▁label	-12.7938
▁Ow	-12.794
▁Ali	-12.7943
oma	-12.7946
▁aside	-12.7948
end	-12.7952
▁cheap	-12.7962
▁Supreme	-12.7962
▁referred	-12.7962
▁seventy	-12.7962
▁selected	-12.7962
▁officially	-12.7963
▁degrees	-12.7968
▁Nan	-12.7968
▁Asian	-12.7968
▁wise	-12.7968
▁surely	-12.7974
▁Kong	-12.7975
▁Sp	-12.7983
ug	-12.7987
▁le	-12.7989
ae	-12.7994
ense	-12.7996
▁pleasant	-12.7997
▁effective	-12.7997
▁enemies	-12.7998
▁impression	-12.7998
▁locked	-12.8001
▁pattern	-12.8012
ations	-12.8021
▁fate	-12.8021
▁Ti	-12.8026
▁Mum	-12.8026
▁deck	-12.8027
▁complicated	-12.8034
▁nearby	-12.8035
▁Billy	-12.8036
▁armed	-12.8038
▁proved	-12.8038
▁lion	-12.805
▁23,	-12.8054
▁courage	-12.806
Is	-12.8064
zo	-12.8066
▁mix	-12.8068
▁values	-12.8068
▁crash	-12.8069
▁ladder	-12.8071
▁glasses	-12.8072
▁unable	-12.8072
▁hired	-12.8072
▁healthy	-12.8073
▁touched	-12.8076
▁overall	-12.8077
Now	-12.808
▁30,	-12.8081
▁scientists	-12.8082
▁steam	-12.8088
ama	-12.8089
▁Islands	-12.8092
▁pages	-12.8094
▁broadcast	-12.8097
IN	-12.8103
rio	-12.8105
▁compared	-12.8108
▁harder	-12.8114
▁buying	-12.8116
▁aunt	-12.8125
ire	-12.8138
▁communities	-12.8144
▁entrance	-12.8144
▁shock	-12.8145
▁Beach	-12.8146
▁depends	-12.8155
▁dozen	-12.8161
uff	-12.8161
▁grade	-12.8164
Me	-12.8168
▁Sal	-12.8179
▁Ocean	-12.8181
▁Switzerland	-12.8181
▁reports	-12.8182
▁bow	-12.8185
ight	-12.8186
▁millions	-12.8188
▁opera	-12.8191
ola	-12.8191
qu	-12.8193
▁26,	-12.8196
▁flag	-12.8204
▁sales	-12.8204
▁moves	-12.8205
▁horrible	-12.8218
▁Oxford	-12.8219
▁Jr	-12.822
▁Ay	-12.822
▁Records	-12.8223
lNG	-12.8223
▁citizens	-12.823
▁plastic	-12.8233
▁vector	-12.8233
▁25,	-12.8239
▁belongs	-12.8246
▁Pre	-12.8254
▁Mazraeh	-12.8255
▁software	-12.8255
▁truly	-12.8255
▁properly	-12.8257
▁whenever	-12.8257
ju	-12.8259
bit	-12.826
▁creature	-12.8271
Good	-12.8271
based	-12.8271
▁reference	-12.8274
▁load	-12.8275
▁Instead	-12.8294
▁Ch	-12.8294
▁spending	-12.8297
▁Commander	-12.8301
▁anger	-12.8303
▁element	-12.8308
ix	-12.8313
▁sisters	-12.8321
▁equals	-12.8331
▁Walter	-12.8332
▁Town	-12.8333
▁closely	-12.8335
"),	-12.8336
▁Australian	-12.8338
ara	-12.834
ball	-12.8341
▁height	-12.835
▁nest	-12.8362
▁Austria	-12.8362
▁Fu	-12.8365
ade	-12.8367
▁analysis	-12.8368
▁numerous	-12.8368
▁Number	-12.8368
▁bathroom	-12.8368
▁Wa	-12.8378
ls	-12.8381
▁describe	-12.8381
▁concept	-12.8382
▁14,	-12.8392
▁ending	-12.8402
▁Erasmus	-12.8405
▁emergency	-12.8405
▁Betty	-12.8405
▁Police	-12.8407
▁mental	-12.8407
▁toilet	-12.8408
▁eighty	-12.8409
▁marked	-12.841
▁trick	-12.8412
▁income	-12.8413
▁highway	-12.8421
▁pot	-12.8422
Where	-12.8422
which	-12.8422
hand	-12.8424
▁dust	-12.8427
▁24,	-12.8428
down	-12.843
▁colors	-12.843
▁Radio	-12.8431
▁rear	-12.8437
▁CHAPTER	-12.8443
▁injury	-12.8443
▁Francisco	-12.8443
▁reform	-12.8443
▁Boss	-12.8445
▁enjoyed	-12.8446
▁sixth	-12.8447
▁instructions	-12.8452
ini	-12.8454
▁investigation	-12.8459
▁application	-12.8459
▁fur	-12.8463
▁theme	-12.8468
▁reviews	-12.8469
▁cap	-12.848
▁Germans	-12.848
▁Office	-12.8481
▁Bad	-12.8482
▁advanced	-12.8484
▁ok	-12.8486
▁17,	-12.8488
▁factor	-12.8493
▁plot	-12.8493
▁airport	-12.8497
▁winner	-12.8499
▁script	-12.8523
▁pale	-12.8528
br	-12.8533
▁fed	-12.8535
▁communication	-12.8537
▁moral	-12.854
As	-12.8544
▁acid	-12.8545
▁grab	-12.8546
▁Wall	-12.8553
▁Part	-12.8554
▁Coast	-12.8557
▁minor	-12.8558
▁swimming	-12.8558
▁nominated	-12.8558
▁composed	-12.8558
▁observed	-12.8559
▁ad	-12.8564
Don	-12.8565
▁Ki	-12.8566
▁suspect	-12.8572
ock	-12.8573
▁Senator	-12.8574
▁creation	-12.8575
▁Top	-12.8576
▁tools	-12.8577
Come	-12.858
stone	-12.8592
▁deliver	-12.8592
known	-12.8593
▁toys	-12.8593
▁woods	-12.8594
sk	-12.8595
▁false	-12.8595
▁FIFA	-12.8596
▁atmosphere	-12.8596
▁principal	-12.8596
▁labor	-12.8597
▁cooking	-12.8599
▁stronger	-12.86
▁pity	-12.86
▁represent	-12.8607
▁adult	-12.8612
ome	-12.8621
▁potential	-12.8634
▁Greece	-12.8635
▁liquid	-12.8635
▁ridiculous	-12.8635
▁buddy	-12.8635
▁Team	-12.8638
▁BE	-12.8638
uk	-12.8645
Man	-12.8647
▁beating	-12.8649
▁ticket	-12.8651
tal	-12.8654
▁Land	-12.866
just	-12.8661
ker	-12.8663
▁spoken	-12.8668
▁balance	-12.8672
▁du	-12.8672
▁horror	-12.8674
▁lonely	-12.8674
▁independence	-12.8674
▁bi	-12.8675
▁Goodbye	-12.8676
▁badly	-12.8682
▁appeal	-12.8687
▁sc	-12.8694
▁coal	-12.8695
ero	-12.8701
ets	-12.8707
▁Missouri	-12.8712
▁Wilson	-12.8712
▁Oliver	-12.8714
▁burning	-12.8714
▁bike	-12.872
▁rent	-12.8722
▁medal	-12.8726
▁stream	-12.8729
▁champion	-12.8729
▁website	-12.8729
▁dumb	-12.873
▁chemical	-12.8732
▁pie	-12.8734
▁recording	-12.8736
▁yard	-12.8743
▁methods	-12.8746
Re	-12.8748
port	-12.8748
▁remove	-12.875
▁centuries	-12.8752
▁exciting	-12.8752
▁operating	-12.8752
▁adopted	-12.8752
▁18,	-12.8763
▁fail	-12.8765
▁2003	-12.8766
▁sport	-12.8767
▁detail	-12.8767
▁cycle	-12.8771
▁Matt	-12.8774
mic	-12.8775
▁favour	-12.8789
▁capture	-12.8789
▁massive	-12.8791
▁frightened	-12.8791
▁succeeded	-12.8792
▁statistics	-12.8792
▁Bring	-12.8793
▁painted	-12.8793
▁aid	-12.8793
▁Game	-12.8796
▁ruled	-12.8796
▁trains	-12.8798
▁Light	-12.8804
▁Aye	-12.8806
▁tradition	-12.8807
▁restaurant	-12.8808
town	-12.881
▁Fort	-12.8817
▁apply	-12.8829
▁applied	-12.883
▁identity	-12.883
▁Stuart	-12.883
▁Somebody	-12.883
▁Hong	-12.8831
▁difficulty	-12.8833
▁secure	-12.8834
ably	-12.8838
▁dish	-12.8839
was	-12.884
▁2022)	-12.8841
For	-12.8841
use	-12.8841
▁Dean	-12.8844
▁motor	-12.8845
▁folks	-12.8846
▁Romaniz	-12.8846
▁fund	-12.8848
ino	-12.8851
▁vision	-12.8851
▁bang	-12.8852
▁tracks	-12.8854
▁joint	-12.8854
▁Fox	-12.8855
▁1995	-12.887
▁2007,	-12.8871
fe	-12.8874
▁meal	-12.8875
also	-12.8881
▁Cap	-12.8884
ric	-12.8886
▁edition	-12.8887
▁Power	-12.8889
▁link	-12.8893
ev	-12.8895
▁counter	-12.8901
▁Hu	-12.8908
▁environmental	-12.8909
▁domestic	-12.8909
▁equipment	-12.8909
▁romantic	-12.891
▁factory	-12.891
▁cute	-12.891
▁Robin	-12.8912
▁nights	-12.8915
sha	-12.8915
▁sending	-12.8918
▁yo	-12.8926
▁volume	-12.8927
▁2009,	-12.8931
▁relations	-12.8932
▁Bur	-12.8945
tri	-12.8948
▁revealed	-12.895
▁Through	-12.895
▁Charlie	-12.8951
sing	-12.8957
▁Mario	-12.8959
▁Want	-12.8961
....	-12.8966
▁relation	-12.8967
▁programme	-12.8967
▁nurse	-12.8968
▁babies	-12.8989
▁Margaret	-12.8989
▁surrounded	-12.8989
▁punishment	-12.899
▁regarded	-12.899
▁1991	-12.8991
▁fan	-12.9004
▁Har	-12.9009
ope	-12.9014
▁SO	-12.9015
▁21,	-12.9019
oli	-12.9019
▁covers	-12.902
bur	-12.9025
▁talks	-12.9027
▁unusual	-12.9029
▁Douglas	-12.9029
▁authorities	-12.9029
▁engineering	-12.9031
▁Columbia	-12.9031
cr	-12.9032
▁Justice	-12.9032
uck	-12.9036
▁keys	-12.9041
ris	-12.9043
▁device	-12.9047
▁Andrew	-12.9048
ther	-12.9049
ani	-12.9053
san	-12.9058
ky	-12.9069
▁annual	-12.9069
▁permission	-12.907
▁jacket	-12.9072
▁Point	-12.9077
▁trained	-12.9078
▁mi	-12.9081
▁Cape	-12.9081
▁None	-12.9091
▁2012.	-12.9099
▁1930	-12.91
▁collect	-12.9103
▁commander	-12.9108
▁Sweden	-12.911
▁maiden	-12.9111
▁literally	-12.9112
▁symptoms	-12.9113
▁visited	-12.9114
▁z	-12.9115
ava	-12.9121
illa	-12.9126
let	-12.9131
▁Sar	-12.9133
▁fans	-12.914
▁Ex	-12.9143
▁confused	-12.9151
▁spite	-12.9151
▁gained	-12.9153
▁pushed	-12.9155
▁separated	-12.9155
▁examples	-12.9161
▁shift	-12.9168
▁Science	-12.9169
▁Carl	-12.9175
▁Fe	-12.9177
▁victims	-12.918
▁swim	-12.9192
▁Aisne	-12.9192
▁shopping	-12.9192
▁BBC	-12.9192
▁awake	-12.9193
▁claimed	-12.9194
IC	-12.9194
▁Free	-12.9195
▁rode	-12.9197
▁Talk	-12.9201
▁interests	-12.9201
denote	-12.9203
▁conflict	-12.9208
▁cricket	-12.9208
▁27,	-12.9211
box	-12.9215
▁Ted	-12.9218
▁waves	-12.922
▁Gi	-12.9223
▁attend	-12.923
▁practical	-12.9232
▁extreme	-12.9232
▁initial	-12.9232
▁Bank	-12.9232
▁Special	-12.9233
▁opposed	-12.9233
▁Probably	-12.9233
▁Dawson	-12.9233
▁lecture	-12.9244
▁Basse	-12.9247
ali	-12.9248
ps	-12.9248
▁pilot	-12.9251
▁fortune	-12.9252
berg	-12.9253
▁Pat	-12.9255
ming	-12.926
▁aircraft	-12.9275
▁grey	-12.9276
▁remaining	-12.9277
sur	-12.9287
▁skills	-12.9287
▁Pu	-12.9288
▁Col	-12.9292
ors	-12.9293
five	-12.9296
▁parent	-12.9297
▁2002	-12.9312
▁curious	-12.9312
▁brilliant	-12.9314
▁administration	-12.9315
▁executive	-12.9315
▁Howard	-12.9317
▁mobile	-12.9318
▁HO	-12.9318
▁murdered	-12.9319
▁Without	-12.9319
▁charged	-12.9323
▁Post	-12.9323
▁wanting	-12.9335
work	-12.9344
▁1992	-12.9347
▁Indians	-12.9351
pro	-12.9354
▁goals	-12.9355
▁holds	-12.9357
▁leads	-12.9358
▁Ve	-12.9368
sto	-12.937
▁limit	-12.9373
▁gang	-12.9373
▁web	-12.9374
bb	-12.9376
▁1940	-12.938
az	-12.9394
▁News	-12.9394
▁Bishop	-12.9398
▁approximately	-12.9398
▁WHAT	-12.9399
▁Eddie	-12.9399
▁clothing	-12.94
▁affected	-12.94
▁Children	-12.9401
▁jumped	-12.9401
▁sources	-12.9404
▁Trust	-12.9407
Mo	-12.9408
ica	-12.941
mar	-12.9413
eg	-12.9414
right	-12.9414
▁occasion	-12.9417
▁experiment	-12.9418
called	-12.9419
▁folk	-12.9429
▁2008,	-12.943
▁regions	-12.9432
▁Wi	-12.9434
▁2011.	-12.9435
▁Six	-12.944
▁revenge	-12.944
▁guitar	-12.9441
▁goddess	-12.9441
▁Grey	-12.9441
▁confidence	-12.9441
▁cop	-12.9444
▁Tri	-12.9451
▁vehicle	-12.946
▁passage	-12.946
can	-12.946
ata	-12.9472
▁multi	-12.9476
▁Nintendo	-12.9482
▁global	-12.9482
▁possibility	-12.9482
▁inhabitants	-12.9482
▁sacred	-12.9482
▁yep	-12.9483
▁desk	-12.9483
▁Mexican	-12.9483
▁fleet	-12.9485
▁imp	-12.9486
▁escaped	-12.9487
▁studying	-12.9488
▁checked	-12.9489
▁provides	-12.949
▁severe	-12.9493
ook	-12.9493
▁crown	-12.9499
▁deserve	-12.95
▁industrial	-12.9503
▁stranger	-12.9503
water	-12.9504
▁hook	-12.9506
▁twin	-12.951
▁Band	-12.9511
aki	-12.9514
▁pray	-12.9521
▁improve	-12.9523
▁pregnant	-12.9524
▁acts	-12.9525
▁Miller	-12.9525
▁knocked	-12.9526
▁widely	-12.9526
▁acted	-12.953
▁issued	-12.953
▁shell	-12.9533
ping	-12.9533
▁appropriate	-12.9534
▁mirror	-12.9543
▁valley	-12.9544
▁musician	-12.9545
ure	-12.9547
▁Bell	-12.9548
▁passion	-12.9551
▁cats	-12.9554
▁1994	-12.9558
▁pool	-12.9562
▁Metro	-12.9563
cu	-12.9565
▁Muhammad	-12.9567
▁parallel	-12.9567
▁Bruce	-12.9568
▁Netherlands	-12.9568
▁objects	-12.9568
Go	-12.9569
▁friendship	-12.957
▁crossing	-12.9572
▁Santa	-12.9573
era	-12.9575
▁bits	-12.958
ash	-12.9585
▁doctors	-12.9591
AR	-12.9592
▁Mind	-12.9596
ough	-12.9597
▁actions	-12.9603
▁Albert	-12.9607
▁ceremony	-12.9609
▁capable	-12.9609
▁Bee	-12.961
▁combined	-12.961
▁Absolutely	-12.9611
▁blocks	-12.9611
▁lt	-12.9612
▁Jay	-12.9614
▁views	-12.9614
▁rush	-12.9617
▁toast	-12.9619
some	-12.9629
▁monster	-12.9629
▁bones	-12.9629
iv	-12.9632
lam	-12.9632
▁4.	-12.9636
▁districts	-12.964
▁2010.	-12.9642
▁Wood	-12.9642
▁mill	-12.9643
▁comfort	-12.9649
▁Thursday	-12.9652
▁necessarily	-12.9652
▁Health	-12.9652
▁Channel	-12.9653
▁net	-12.9653
▁pants	-12.9654
▁warning	-12.9654
ati	-12.9663
▁slip	-12.9663
▁hoped	-12.9669
▁prisoners	-12.9669
▁struggle	-12.967
▁Railway	-12.9672
▁temple	-12.9672
▁Dar	-12.9674
▁fuel	-12.9674
▁mile	-12.9679
▁besides	-12.9686
▁Though	-12.9688
▁soup	-12.969
▁regret	-12.9695
▁mere	-12.9695
▁typical	-12.9696
▁shoulders	-12.9696
▁delivered	-12.9696
▁shortly	-12.97
▁listed	-12.9705
▁print	-12.9711
▁suffer	-12.9712
▁spell	-12.9712
▁mu	-12.9713
▁discussion	-12.9716
▁Leo	-12.9723
uh	-12.9725
▁Ge	-12.9726
▁Grandma	-12.9733
▁sin	-12.9733
▁Gold	-12.9735
▁introduce	-12.9736
▁rising	-12.9738
▁copies	-12.9738
▁personality	-12.9738
▁sought	-12.9739
▁reduced	-12.974
▁Ready	-12.974
▁Morning	-12.974
▁defense	-12.974
▁personally	-12.9741
▁gentle	-12.9748
▁debt	-12.9759
▁evolution	-12.9759
▁Head	-12.9762
▁regional	-12.9765
▁benefits	-12.9776
▁Public	-12.9776
▁flash	-12.9777
▁Guard	-12.978
▁spoon	-12.9781
Normandie	-12.9781
▁graduated	-12.9783
▁Seven	-12.9783
▁cultural	-12.9785
▁Baby	-12.9785
▁individuals	-12.9787
▁meters	-12.9789
▁persons	-12.9792
▁drinks	-12.9795
ef	-12.9796
ok	-12.9797
▁boats	-12.9798
his	-12.9801
▁investment	-12.9802
▁snake	-12.9802
▁rope	-12.9805
▁MD	-12.9809
▁Sch	-12.981
▁slide	-12.9814
▁discover	-12.9821
▁prepare	-12.9823
ena	-12.9823
▁Education	-12.9824
▁purple	-12.9825
▁satisfied	-12.9826
▁Mount	-12.9826
unt	-12.9827
▁stable	-12.9827
▁shower	-12.9834
ator	-12.9835
▁Stone	-12.9836
▁machines	-12.9839
▁rings	-12.984
▁equation	-12.9846
▁28,	-12.9847
▁tend	-12.9854
▁videos	-12.9856
EN	-12.9856
▁marks	-12.9865
▁Pan	-12.9865
▁Family	-12.987
▁vast	-12.9871
▁rice	-12.9874
▁poet	-12.9876
▁transfer	-12.9878
▁voices	-12.988
▁dig	-12.9887
▁guests	-12.9899
▁hunt	-12.9908
▁behavior	-12.9912
▁telephone	-12.9912
▁merely	-12.9913
▁discovery	-12.9914
▁fairy	-12.9915
▁Way	-12.9915
▁affect	-12.9926
CH	-12.9929
af	-12.9932
▁connect	-12.9933
▁festival	-12.9934
ess	-12.9939
▁versions	-12.9943
▁Arts	-12.9946
▁achieve	-12.9954
▁naked	-12.9956
▁granted	-12.9958
▁Gordon	-12.9959
▁controlled	-12.996
RS	-12.9963
▁figured	-12.9966
De	-12.9973
▁items	-12.9974
iz	-12.9974
tor	-12.9975
LL	-12.9985
▁arts	-12.999
▁settle	-12.9999
▁architecture	-13.0001
▁arranged	-13.0002
▁Better	-13.0003
▁fond	-13.0003
▁organized	-13.0004
▁prior	-13.0004
▁Korean	-13.0011
ups	-13.0015
▁puts	-13.0018
▁knees	-13.0019
▁orchestra	-13.0022
▁incident	-13.0022
▁devices	-13.0025
▁basket	-13.0025
▁scenes	-13.0026
tur	-13.0032
lia	-13.0032
tz	-13.0032
don	-13.0041
▁moments	-13.0043
sp	-13.0045
▁valuable	-13.0045
▁parish	-13.0045
▁Darling	-13.0045
▁extended	-13.0046
▁branches	-13.0046
▁cutting	-13.0048
▁1999	-13.0057
▁19,	-13.006
▁Israel	-13.0065
▁chamber	-13.0071
▁Gra	-13.0074
▁(_	-13.0076
▁ideal	-13.0079
▁replace	-13.0087
▁instant	-13.0089
▁Brazil	-13.0089
▁Conference	-13.009
▁bedroom	-13.009
ering	-13.009
▁Toronto	-13.009
▁begun	-13.0092
▁kissed	-13.0093
▁smiled	-13.0094
▁listened	-13.0097
▁AD	-13.0099
ward	-13.0101
▁emotions	-13.0105
▁description	-13.0112
▁Officer	-13.0112
▁Tang	-13.0123
▁rank	-13.0125
▁roads	-13.0132
▁dawn	-13.0133
sch	-13.0134
▁despite	-13.0134
▁context	-13.0134
▁Honey	-13.0135
▁Kevin	-13.0135
▁Palace	-13.0135
▁quietly	-13.0137
▁Poor	-13.014
▁chart	-13.0142
▁Sara	-13.0147
▁hearts	-13.015
▁perform	-13.0153
▁Stephen	-13.0159
ual	-13.0174
now	-13.0175
▁nathaniel	-13.018
▁nuclear	-13.018
▁pollution	-13.018
▁surgery	-13.018
▁childhood	-13.018
▁abandoned	-13.018
▁Centre	-13.018
▁inspired	-13.0181
▁letting	-13.0183
▁lately	-13.0187
▁minds	-13.0196
▁contain	-13.0198
▁crap	-13.0199
▁pipe	-13.0201
▁explanation	-13.0202
▁error	-13.0202
cia	-13.0203
ease	-13.0208
▁Je	-13.0215
▁license	-13.0223
▁Federal	-13.0225
▁joseph	-13.0225
▁relief	-13.0225
▁alongside	-13.0225
▁Matthew	-13.0225
dia	-13.0226
▁dramatic	-13.0226
▁Julia	-13.0228
▁HAVE	-13.0229
▁BC	-13.0234
▁answers	-13.0236
▁Honor	-13.0243
▁championship	-13.0248
▁alternative	-13.0248
▁composer	-13.0249
When	-13.0249
▁climb	-13.0251
LY	-13.0252
▁pan	-13.0264
▁compete	-13.0268
▁Assembly	-13.027
▁Hospital	-13.027
▁strategy	-13.027
▁Picard	-13.027
▁Airport	-13.027
▁jury	-13.027
▁emotional	-13.0271
▁witch	-13.0271
▁sailed	-13.0272
▁Syria	-13.0274
▁cabin	-13.0277
ese	-13.0279
▁returning	-13.0279
▁Count	-13.0282
▁semi	-13.0288
▁reduce	-13.0291
▁require	-13.0291
▁comment	-13.0292
▁relative	-13.0293
bed	-13.0293
▁repeat	-13.0313
▁spiritual	-13.0316
▁hockey	-13.0316
▁smiling	-13.0316
▁Campbell	-13.0316
▁maximum	-13.0316
▁stepped	-13.0316
Laughter	-13.0316
▁gathered	-13.0317
ck	-13.0321
▁seed	-13.0325
▁Mmm	-13.0328
VE	-13.0336
▁Cut	-13.0337
ei	-13.0339
▁threat	-13.0339
▁pirate	-13.0342
.)	-13.0347
▁1920	-13.0361
▁throne	-13.0362
▁Bible	-13.0362
▁Philadelphia	-13.0363
▁grateful	-13.0363
▁Check	-13.0369
▁Bat	-13.0371
▁YOUR	-13.0374
tte	-13.0377
▁elections	-13.0379
▁em	-13.0383
▁candidate	-13.0385
▁yards	-13.0388
▁villages	-13.0392
▁cops	-13.0395
▁launch	-13.0405
▁Disney	-13.0408
▁reputation	-13.0408
▁images	-13.0408
▁Finally	-13.0408
▁Maine	-13.0409
▁Golden	-13.0411
cus	-13.0412
▁List	-13.0422
▁Ross	-13.0426
▁core	-13.0436
Not	-13.0442
▁Bor	-13.0442
▁sha	-13.0443
▁random	-13.0443
▁drives	-13.0445
▁absolute	-13.0455
▁Indonesia	-13.0455
▁Taiwan	-13.0455
▁promoted	-13.0456
▁stress	-13.0456
▁scored	-13.0458
▁conduct	-13.0464
▁Fred	-13.0466
▁attacks	-13.0468
▁Stand	-13.0471
▁nuts	-13.0476
▁expedition	-13.0478
ches	-13.0494
min	-13.0494
▁Inter	-13.0498
▁Papa	-13.0498
▁oxygen	-13.0501
▁Idaho	-13.0501
▁Miami	-13.0501
▁admitted	-13.0501
▁underground	-13.0501
▁identified	-13.0501
▁frequently	-13.0501
▁del	-13.0515
▁Test	-13.0523
looking	-13.0525
laughter	-13.0526
▁rabbit	-13.0527
▁editor	-13.0529
▁agents	-13.054
▁relax	-13.0545
▁ST	-13.0547
▁Freud	-13.0547
▁heavily	-13.0547
▁invasion	-13.0547
▁electricity	-13.0548
▁capacity	-13.0548
▁chairman	-13.0548
▁operated	-13.0549
▁washed	-13.055
▁Book	-13.0551
▁regard	-13.0569
▁boo	-13.0569
▁positions	-13.0572
ole	-13.0572
Ah	-13.0572
▁affair	-13.0572
▁Press	-13.0574
▁vi	-13.0582
▁22,	-13.0582
▁delicious	-13.0594
▁DNA	-13.0594
eo	-13.0596
▁existing	-13.0597
rate	-13.0598
▁stairs	-13.0599
▁clubs	-13.06
EL	-13.0601
▁largely	-13.0602
].	-13.0603
▁Morgan	-13.0608
▁meetings	-13.061
▁profit	-13.0626
▁ruin	-13.0632
▁violent	-13.0641
▁cruel	-13.0641
▁UP	-13.0641
▁ashamed	-13.0641
▁hurricane	-13.0641
▁physics	-13.0641
▁repeated	-13.0642
▁Ke	-13.0642
▁grant	-13.0643
▁convinced	-13.0643
▁experiences	-13.0645
▁critics	-13.0654
ep	-13.0658
▁lands	-13.0658
▁shadow	-13.0665
▁Mont	-13.0668
class	-13.0668
▁rail	-13.0676
▁Pop	-13.0678
uick	-13.0687
▁wealth	-13.0688
▁precious	-13.0689
▁Rilla	-13.0689
▁pet	-13.0692
▁breathing	-13.0694
▁Allen	-13.0695
▁votes	-13.0697
sey	-13.0701
▁washing	-13.0702
▁rescue	-13.0704
▁bone	-13.0707
▁Hang	-13.0717
▁dollar	-13.0717
cing	-13.0718
▁na	-13.0724
▁option	-13.0732
▁Revolution	-13.0736
▁mysterious	-13.0737
▁vacation	-13.0737
▁pride	-13.0738
▁Play	-13.0741
ux	-13.0745
▁spin	-13.0745
▁experienced	-13.0745
▁picking	-13.0746
▁Ask	-13.0751
▁engineer	-13.076
▁merchant	-13.0762
rk	-13.0764
▁subjects	-13.077
▁Nat	-13.077
▁sp	-13.0771
▁headed	-13.0775
▁Philip	-13.0779
mm	-13.078
▁burst	-13.0783
Footnote	-13.0784
▁Google	-13.0785
▁Val	-13.0785
▁Things	-13.079
▁expecting	-13.079
ova	-13.0793
▁episodes	-13.0795
OR	-13.0797
▁Ford	-13.0798
▁partly	-13.0805
▁frame	-13.0811
▁Bon	-13.0811
▁servant	-13.0814
rab	-13.0814
uz	-13.0823
▁Tim	-13.0824
▁illegal	-13.0832
▁altogether	-13.0832
▁cattle	-13.0832
▁extent	-13.0832
▁distribution	-13.0832
▁nowhere	-13.0834
▁divine	-13.0836
▁sooner	-13.0841
▁Hot	-13.0841
pp	-13.0844
ification	-13.0854
▁29,	-13.0858
foot	-13.0859
▁lesson	-13.086
eth	-13.0866
▁ba	-13.0869
▁Cha	-13.0877
▁graph	-13.088
▁Anthony	-13.0881
▁NARRATOR	-13.0881
▁Slyne	-13.0881
▁Emma	-13.0881
▁presidential	-13.0881
▁gray	-13.0881
TV	-13.0882
▁contained	-13.0882
ute	-13.0883
air	-13.0883
▁stroke	-13.0884
▁allowing	-13.0887
▁bro	-13.0889
▁hated	-13.0893
ear	-13.0895
▁adding	-13.0896
▁photos	-13.0899
▁Ste	-13.0899
▁log	-13.09
▁documents	-13.09
▁messages	-13.0902
▁principle	-13.0907
▁possession	-13.0908
ski	-13.0923
▁NO	-13.0926
▁reign	-13.0926
▁Wednesday	-13.0929
▁mystery	-13.0929
▁probability	-13.0929
▁railroad	-13.0929
▁baseball	-13.0929
▁Harrison	-13.0929
▁Lisa	-13.0929
▁threatened	-13.093
▁dating	-13.093
▁selection	-13.093
▁essentially	-13.093
St	-13.0931
▁Heaven	-13.0932
▁naturally	-13.0933
▁hills	-13.0934
▁testing	-13.0935
▁tale	-13.0942
▁ours	-13.0954
▁Sister	-13.0956
▁1989	-13.0957
▁mr	-13.0957
ral	-13.0961
▁mis	-13.0963
▁projects	-13.0965
▁corn	-13.097
ser	-13.0974
▁seats	-13.0975
▁swallow	-13.0976
▁Ancient	-13.0978
▁fantastic	-13.0978
▁Between	-13.0979
▁collected	-13.098
▁landed	-13.099
▁albums	-13.0992
▁daughters	-13.0994
▁purposes	-13.0994
▁Norman	-13.1003
▁Laura	-13.1007
▁Forget	-13.1009
lum	-13.101
▁Save	-13.1012
▁notable	-13.1015
▁dies	-13.1016
▁FC	-13.1019
▁Andy	-13.1023
▁determine	-13.1025
▁Tuesday	-13.1027
▁properties	-13.1027
▁worn	-13.103
cho	-13.1033
▁ga	-13.1038
▁fake	-13.1038
▁Bra	-13.1044
Ho	-13.1045
▁Bull	-13.1046
ified	-13.1049
▁screw	-13.1051
▁phrase	-13.1054
▁adults	-13.1056
▁stones	-13.1056
▁1996	-13.1059
▁angel	-13.106
bal	-13.1062
▁faced	-13.1064
▁defend	-13.1071
▁Internet	-13.1076
▁WAS	-13.1076
▁AT	-13.1078
▁approved	-13.1078
▁latest	-13.1078
lock	-13.1079
▁inch	-13.1082
▁pulling	-13.1082
▁Must	-13.1085
hoo	-13.1091
ette	-13.1091
▁Bre	-13.1092
▁inches	-13.1094
▁faint	-13.11
▁sample	-13.1103
▁phase	-13.1106
▁waters	-13.1112
▁differences	-13.1113
▁soap	-13.1117
▁sets	-13.1118
▁wing	-13.1118
▁mode	-13.1119
▁Bavaria	-13.1126
▁Ministry	-13.1126
▁causing	-13.1126
▁Short	-13.1127
▁amongst	-13.1127
▁2007.	-13.1127
▁Silver	-13.1128
▁bull	-13.113
dar	-13.1133
hou	-13.1141
Le	-13.1144
▁exercise	-13.1151
▁theatre	-13.1153
▁useless	-13.1154
▁sites	-13.1161
table	-13.1162
▁doo	-13.1175
▁attached	-13.1176
▁initially	-13.1177
lar	-13.1177
▁Nor	-13.1179
dic	-13.118
▁strongly	-13.1181
▁Gar	-13.1183
qua	-13.1184
▁journalist	-13.1193
▁Si	-13.1198
▁guide	-13.1201
▁portion	-13.1203
▁pal	-13.1204
▁palm	-13.1207
▁maid	-13.1211
▁Marie	-13.1212
▁format	-13.1212
dra	-13.1218
burg	-13.1223
▁smooth	-13.1225
▁Jerry	-13.1226
▁increasing	-13.1226
▁internal	-13.1227
▁starred	-13.1227
ions	-13.1227
▁passes	-13.1228
▁defined	-13.123
▁lo	-13.1238
gar	-13.1238
fl	-13.1241
most	-13.1247
▁appointment	-13.1253
▁ages	-13.1254
▁claims	-13.1266
▁desperate	-13.1275
▁formal	-13.1276
LRB	-13.1276
▁unhappy	-13.1276
▁downstairs	-13.1276
▁tropical	-13.1279
▁cloud	-13.128
rus	-13.1281
lash	-13.1287
▁MY	-13.1292
ties	-13.1296
▁trap	-13.1296
▁reward	-13.1303
ala	-13.1304
▁user	-13.1304
▁lover	-13.131
▁par	-13.1326
▁cotton	-13.1326
▁dedicated	-13.1327
▁thief	-13.1328
▁Sally	-13.1328
▁beaten	-13.133
▁Rick	-13.133
▁linear	-13.1331
▁lap	-13.1333
▁cleaning	-13.1335
ob	-13.1337
▁tool	-13.1338
▁2009.	-13.1344
▁newly	-13.1351
▁shoe	-13.1351
▁Mountain	-13.1355
▁Place	-13.1357
▁sheet	-13.1369
▁Class	-13.1375
▁Despite	-13.1377
▁THIS	-13.1377
▁slipped	-13.1377
▁Tomorrow	-13.1377
▁fence	-13.1378
▁wherever	-13.1379
▁sink	-13.1382
▁headquarters	-13.1382
▁dump	-13.1384
▁Nine	-13.1386
lic	-13.1391
▁Ye	-13.1392
▁hits	-13.1402
▁charges	-13.1402
▁Olympic	-13.1406
▁Gil	-13.142
zy	-13.142
▁Arab	-13.1423
▁alarm	-13.1426
▁drawn	-13.1426
▁entry	-13.1428
▁renamed	-13.1428
▁Kelly	-13.1428
▁asks	-13.1429
▁acquired	-13.1429
▁lieutenant	-13.1429
▁printed	-13.143
▁banks	-13.143
▁developing	-13.1431
▁stops	-13.1435
▁Luke	-13.1436
set	-13.1442
▁Glen	-13.1442
ress	-13.1443
▁spirits	-13.1444
var	-13.1451
▁models	-13.1452
▁pirates	-13.1453
▁argue	-13.1455
▁carriage	-13.1457
▁slave	-13.1457
▁singles	-13.1457
One	-13.146
oe	-13.1466
▁1984	-13.1466
▁Human	-13.1466
▁Eva	-13.147
NER	-13.1477
▁Panama	-13.1479
▁grandma	-13.1479
▁genus	-13.1479
▁distant	-13.1481
▁ruined	-13.1481
▁youngest	-13.1481
▁constantly	-13.1481
▁regarding	-13.1481
▁wondered	-13.1485
▁wishes	-13.1487
▁GO	-13.1487
▁classic	-13.1492
tha	-13.1501
▁angle	-13.1501
▁column	-13.1504
▁stores	-13.1506
▁peasant	-13.1509
▁association	-13.1509
▁Frances	-13.1511
▁Muslim	-13.1511
▁heading	-13.1512
▁Vo	-13.1513
phone	-13.1515
▁standards	-13.153
▁technical	-13.153
▁jealous	-13.153
▁Francis	-13.1531
▁blew	-13.1531
▁Polish	-13.1531
▁agency	-13.1531
▁Drink	-13.1531
▁injured	-13.1531
▁Christianity	-13.1531
▁rapidly	-13.1532
▁relatively	-13.1532
▁taxes	-13.1532
▁Cuba	-13.1535
▁Inc	-13.1538
high	-13.1539
rick	-13.1542
Are	-13.1545
▁Ver	-13.1548
▁principles	-13.1555
umi	-13.1556
▁sang	-13.1557
there	-13.1557
▁debate	-13.1558
▁resource	-13.156
▁adventure	-13.1563
▁dates	-13.1572
▁newspapers	-13.1575
▁swing	-13.1581
▁Tennessee	-13.1583
▁concrete	-13.1583
▁duties	-13.1583
▁invented	-13.1583
▁seized	-13.1584
▁Following	-13.1584
▁expressed	-13.1585
▁Egyptian	-13.1585
▁grandfather	-13.1587
ible	-13.1588
▁gosh	-13.1589
▁Jews	-13.1595
▁greatly	-13.1607
▁lab	-13.1609
▁arrive	-13.1609
▁neighborhood	-13.1612
▁scheme	-13.1612
▁math	-13.1615
▁Ms	-13.1617
will	-13.1619
ans	-13.1619
▁hurts	-13.1625
▁organizations	-13.1633
▁reckon	-13.1633
▁genius	-13.1635
▁Patrick	-13.1635
▁intelligence	-13.1635
▁Tower	-13.1635
▁Rollo	-13.1635
▁occupied	-13.1637
▁gross	-13.1638
▁reply	-13.1638
▁Ned	-13.164
▁tip	-13.164
▁1979	-13.164
▁Ram	-13.1641
▁package	-13.1641
hy	-13.1646
▁Sports	-13.1649
▁instrument	-13.1651
▁Find	-13.1651
▁Sounds	-13.1652
▁vessels	-13.1654
hr	-13.1657
▁Yi	-13.1661
▁glance	-13.1663
▁movements	-13.1664
▁pin	-13.167
▁offering	-13.1671
▁apologize	-13.1685
▁ALL	-13.1686
▁shelter	-13.1686
▁brush	-13.1687
▁j	-13.1687
▁eighteen	-13.1687
▁Sydney	-13.1687
▁Tokyo	-13.1687
▁policies	-13.1687
▁Hollywood	-13.1687
▁jerk	-13.1687
▁Franz	-13.1688
▁theater	-13.1689
des	-13.1689
▁lifted	-13.1689
▁Hook	-13.169
▁beings	-13.1695
▁throwing	-13.1696
▁mighty	-13.1707
▁Grant	-13.1707
▁divide	-13.1711
▁tear	-13.1715
▁founder	-13.1716
▁Hit	-13.1717
▁articles	-13.1723
▁aboard	-13.1723
▁1971	-13.1731
▁fourteen	-13.1739
▁arrival	-13.174
▁judgment	-13.174
▁wrestling	-13.174
▁opportunities	-13.174
▁provinces	-13.174
▁Field	-13.174
▁sufficient	-13.1741
▁Pardon	-13.1743
how	-13.1743
▁demo	-13.1745
▁vice	-13.1746
▁2014.	-13.1754
▁Beth	-13.1756
ory	-13.1767
pu	-13.1768
ox	-13.1769
▁vain	-13.1769
UR	-13.1769
Br	-13.177
▁emperor	-13.177
▁breast	-13.177
▁expert	-13.177
▁formation	-13.1773
▁Kill	-13.1773
▁Yoon	-13.1778
▁classical	-13.178
▁noble	-13.1782
▁lasted	-13.1783
▁habit	-13.1785
RO	-13.1791
▁Singapore	-13.1791
▁permanent	-13.1792
▁Television	-13.1793
▁primarily	-13.1793
▁Avenue	-13.1793
▁begged	-13.1793
▁secretary	-13.1793
▁cells	-13.1793
▁engines	-13.1793
▁confirmed	-13.1794
▁writes	-13.1797
▁nearer	-13.18
▁crimes	-13.1803
▁Real	-13.1804
▁ensure	-13.1806
▁micro	-13.1806
▁Ash	-13.1807
book	-13.1807
▁breathe	-13.1812
▁servants	-13.1818
tel	-13.1818
ability	-13.1821
▁definition	-13.1823
ech	-13.1824
▁forests	-13.1827
▁concerns	-13.1828
ington	-13.1831
▁celebrate	-13.1844
▁Austen	-13.1846
▁Charlotte	-13.1846
▁Hitler	-13.1846
▁mouse	-13.1846
▁Judy	-13.1846
▁laura	-13.1846
▁Series	-13.1846
▁accused	-13.1847
▁celebrated	-13.1848
▁survived	-13.1849
▁Dear	-13.185
▁wars	-13.1853
ert	-13.1856
▁bat	-13.186
▁rivers	-13.1865
▁dull	-13.1866
▁bubbles	-13.1867
▁instruments	-13.1869
▁wi	-13.1872
ori	-13.1876
▁prayer	-13.1878
▁wire	-13.1884
from	-13.1887
▁Phil	-13.1887
Al	-13.1892
▁IV	-13.1894
▁Know	-13.1899
▁immediate	-13.1899
▁incredible	-13.1899
▁literary	-13.1899
▁woke	-13.19
▁Unless	-13.19
▁worldwide	-13.19
▁Maryland	-13.19
▁wooden	-13.19
▁merged	-13.19
▁obtained	-13.19
▁reasonable	-13.1901
▁Career	-13.1901
▁rolled	-13.1902
▁CD	-13.1906
▁reaching	-13.1906
US	-13.1912
▁tickets	-13.193
▁stolen	-13.1935
AT	-13.1935
▁platforms	-13.1936
▁computers	-13.1937
Hey	-13.1942
▁tooth	-13.1944
act	-13.195
▁respond	-13.195
▁commit	-13.1951
▁cloth	-13.1952
▁slight	-13.1953
▁Tolombeh	-13.1953
▁splendid	-13.1953
▁Reagan	-13.1953
▁Molly	-13.1953
▁Left	-13.1953
▁sector	-13.1954
▁constructed	-13.1954
▁whispered	-13.1954
▁recognition	-13.1954
▁Congratulations	-13.1955
▁aye	-13.1956
▁fiction	-13.1957
ement	-13.1961
▁elephant	-13.1963
▁holes	-13.1963
▁passengers	-13.1975
▁Commission	-13.1983
▁loan	-13.1983
▁treasure	-13.1984
▁creatures	-13.1986
▁Tha	-13.1991
▁powder	-13.2007
▁Taipei	-13.2007
▁illness	-13.2007
str	-13.2008
▁Karen	-13.2009
▁competed	-13.201
▁hosted	-13.201
▁producing	-13.201
▁deeply	-13.2011
▁seventh	-13.2011
▁DON	-13.2015
▁courts	-13.2015
mu	-13.2017
▁Personal	-13.2019
ract	-13.2019
▁Area	-13.2026
▁affairs	-13.2033
▁hop	-13.2036
fa	-13.2038
IT	-13.2039
▁saving	-13.2039
▁opens	-13.204
▁offers	-13.2041
▁wounds	-13.2043
ians	-13.2047
▁NOT	-13.2053
your	-13.2057
cat	-13.2058
▁memories	-13.2062
▁earliest	-13.2062
▁fled	-13.2062
▁poetry	-13.2062
▁Round	-13.2062
▁pond	-13.2062
▁roughly	-13.2063
▁Gary	-13.2063
ept	-13.2075
▁2006.	-13.2076
▁whoops	-13.208
▁belt	-13.2083
▁Mountains	-13.2086
▁Judge	-13.209
▁trunk	-13.2095
▁wheels	-13.2096
mat	-13.2103
▁Bangladesh	-13.211
rop	-13.2113
▁identify	-13.2115
▁wicked	-13.2116
▁Taylor	-13.2116
▁Theatre	-13.2116
▁Enough	-13.2116
▁introduction	-13.2116
▁gradually	-13.2116
▁Bobby	-13.2116
▁considerable	-13.2117
▁Always	-13.2118
▁honestly	-13.2118
▁demanded	-13.2119
▁Par	-13.2119
mus	-13.2119
▁achieved	-13.2119
▁sailing	-13.2119
▁longest	-13.212
▁bars	-13.2121
ula	-13.2124
ona	-13.2125
▁Shiv	-13.2128
▁Nations	-13.2128
SS	-13.213
cal	-13.2132
▁Mor	-13.2134
rp	-13.2142
▁USA	-13.2146
▁1993	-13.2148
▁Dale	-13.2148
▁earthquake	-13.2149
▁inner	-13.215
▁decent	-13.2151
▁paintings	-13.2152
▁Chuck	-13.2154
▁Las	-13.2161
▁awards	-13.2161
▁Sy	-13.2164
▁Christians	-13.2165
▁zoo	-13.2168
▁superior	-13.2171
▁Jonathan	-13.2171
▁Suffolk	-13.2171
▁academic	-13.2171
▁awesome	-13.2171
▁goddamn	-13.2171
▁triangle	-13.2171
tis	-13.2174
▁Buck	-13.2177
▁pushing	-13.2177
▁Hotel	-13.2178
▁knee	-13.218
▁Wayne	-13.2185
▁diseases	-13.2197
three	-13.2206
▁plates	-13.2209
▁CAN	-13.221
▁march	-13.221
▁bags	-13.221
▁1:	-13.2214
▁toy	-13.2225
▁imagination	-13.2226
▁medium	-13.2226
▁grief	-13.2226
▁crisis	-13.2226
▁detective	-13.2226
▁GET	-13.2227
▁merry	-13.2228
▁churches	-13.2229
▁category	-13.2229
▁Step	-13.2231
▁temper	-13.2236
▁Woman	-13.2237
▁Gardens	-13.224
made	-13.2241
Can	-13.2242
val	-13.2242
▁5.	-13.2249
▁solo	-13.2249
▁bent	-13.225
▁passenger	-13.226
▁bubble	-13.226
Ahmad	-13.226
▁handed	-13.2267
oy	-13.2279
▁remote	-13.2281
lly	-13.2281
▁shining	-13.2282
▁execution	-13.2282
▁Victor	-13.2284
▁whoever	-13.2285
▁counting	-13.2287
▁Happy	-13.2288
▁Kar	-13.2291
▁Being	-13.2294
▁digital	-13.2295
▁woo	-13.2296
New	-13.2304
...!	-13.231
▁1981	-13.2313
▁tests	-13.2315
▁envelope	-13.2315
Sa	-13.2318
▁Adams	-13.2326
▁Girls	-13.2334
mes	-13.2334
▁assault	-13.2336
▁Clark	-13.2337
▁intellectual	-13.2337
▁extraordinary	-13.2338
▁militia	-13.2338
▁underneath	-13.2338
▁consciousness	-13.2338
two	-13.2339
▁Boyer	-13.234
▁abuse	-13.234
▁containing	-13.234
▁BY	-13.2344
▁Carlos	-13.2346
low	-13.2347
▁neat	-13.2349
▁tank	-13.2352
▁JU	-13.2361
▁deny	-13.2367
▁document	-13.237
▁Carol	-13.2384
cap	-13.239
▁gather	-13.2392
▁Premier	-13.2394
▁depression	-13.2394
▁microphone	-13.2394
▁Peace	-13.2394
▁boring	-13.2394
▁Grace	-13.2394
▁farther	-13.2394
▁rarely	-13.2395
▁assigned	-13.2395
▁contrast	-13.2396
▁labour	-13.2396
run	-13.2396
▁crack	-13.2396
▁Forest	-13.2396
▁animated	-13.2397
▁mud	-13.2397
Pa	-13.24
May	-13.24
▁searching	-13.2401
▁Born	-13.2416
▁Lock	-13.2417
▁lessons	-13.2421
▁Chu	-13.2424
▁represents	-13.2427
▁roots	-13.2434
rat	-13.2436
SE	-13.2437
▁deaths	-13.2439
▁sauce	-13.244
▁Fame	-13.2442
▁cock	-13.2443
ys	-13.2445
▁pour	-13.2448
rim	-13.245
▁perspective	-13.2451
▁Labour	-13.2451
▁prominent	-13.2451
▁distributed	-13.2451
▁essential	-13.2451
▁exposed	-13.2451
boy	-13.2452
▁holy	-13.2452
▁tailor	-13.2453
▁Money	-13.2454
▁goodbye	-13.2455
▁partners	-13.2458
mit	-13.2459
▁Cho	-13.246
long	-13.2461
MA	-13.2465
▁Del	-13.2469
rt	-13.247
fully	-13.247
▁1986	-13.2471
Ro	-13.2473
▁Nu	-13.2473
ale	-13.2474
▁requires	-13.2478
▁Won	-13.2483
▁factors	-13.2484
worth	-13.2485
▁Win	-13.2487
ple	-13.2487
▁alien	-13.2488
▁Base	-13.2488
mal	-13.2491
▁tries	-13.2492
ied	-13.2499
ped	-13.2501
▁1938	-13.2504
tive	-13.2504
▁distinct	-13.2505
▁establish	-13.2505
▁revolution	-13.2507
▁Among	-13.2507
▁facilities	-13.2507
▁sweetheart	-13.2507
▁Security	-13.2507
▁Creek	-13.2507
▁caravan	-13.2507
▁criticism	-13.2507
▁remarkable	-13.2507
▁Poland	-13.2508
▁Portuguese	-13.2508
▁fetch	-13.2508
▁temporary	-13.2509
▁copper	-13.2509
▁historic	-13.251
▁Jeff	-13.2511
▁pit	-13.2511
▁item	-13.2512
▁Ship	-13.2514
▁serves	-13.2515
▁sounded	-13.2518
▁customers	-13.2522
▁relationships	-13.2528
▁lied	-13.253
▁Dis	-13.2536
sky	-13.2538
ces	-13.2539
▁31,	-13.2542
▁von	-13.2542
▁Earl	-13.2543
▁presentation	-13.2543
▁tube	-13.2544
▁prisoner	-13.2544
▁poem	-13.2545
▁2004,	-13.2546
▁shed	-13.2549
▁delight	-13.2554
ture	-13.2555
▁des	-13.2559
▁cares	-13.2559
▁bra	-13.2562
▁encourage	-13.2562
▁aim	-13.2563
▁mask	-13.2563
▁Vietnam	-13.2564
▁Connecticut	-13.2564
▁Hamilton	-13.2564
▁Jordan	-13.2564
▁opposition	-13.2564
▁drag	-13.2566
▁conservative	-13.2566
▁surname	-13.2566
▁Ad	-13.2567
▁structures	-13.2568
dor	-13.2571
Ba	-13.2576
▁officials	-13.2586
▁Mel	-13.2589
▁Julie	-13.2591
▁2-	-13.2591
▁mistakes	-13.2593
morrow	-13.26
dale	-13.2602
aria	-13.2606
▁1943	-13.2607
▁users	-13.2608
ded	-13.2608
▁guards	-13.2608
east	-13.2609
▁Main	-13.2609
▁Moore	-13.2611
▁exists	-13.2613
kin	-13.2615
▁recall	-13.2619
▁anxious	-13.2621
▁enormous	-13.2621
▁draft	-13.2621
▁Nelson	-13.2622
▁storage	-13.2622
▁universities	-13.2622
▁visible	-13.2622
▁Geography	-13.2622
▁excitement	-13.2622
▁Media	-13.2622
▁recovered	-13.2623
▁universal	-13.2623
▁Turkish	-13.2624
▁policeman	-13.2624
▁existed	-13.2625
▁protected	-13.2627
▁amounts	-13.2627
▁visitors	-13.2634
▁winds	-13.2641
aps	-13.2643
spi	-13.2645
vers	-13.2647
▁Muslims	-13.2647
▁Match	-13.2651
▁Winter	-13.2657
Just	-13.2659
point	-13.2663
laughs	-13.2665
ast	-13.2668
▁End	-13.2668
▁bare	-13.2669
▁efficient	-13.2679
▁Corporation	-13.268
▁bunny	-13.268
▁rural	-13.268
▁specifically	-13.268
▁Larry	-13.268
▁Entertainment	-13.268
▁jack	-13.2686
star	-13.2689
oid	-13.2691
▁pi	-13.2694
▁strip	-13.2704
wo	-13.2707
▁ease	-13.2708
ett	-13.2709
its	-13.271
Illustration	-13.2716
▁starr	-13.2719
▁beast	-13.272
Da	-13.2728
▁Ever	-13.2732
▁Manipur	-13.2736
▁Imperial	-13.2738
▁conscience	-13.2738
▁Arabia	-13.2738
▁depending	-13.2739
▁Gyp	-13.2739
▁divorced	-13.274
▁mister	-13.274
▁Cat	-13.2743
▁Moon	-13.2743
▁dirt	-13.2743
▁Mayor	-13.2746
▁Dude	-13.2757
tai	-13.2764
▁delay	-13.2773
▁surrounding	-13.2774
uri	-13.2775
▁1976	-13.2779
▁gr	-13.2782
vy	-13.2787
▁Neil	-13.2794
▁pardon	-13.2795
▁Meanwhile	-13.2796
▁Temple	-13.2796
▁WITH	-13.2796
▁exclaimed	-13.2796
▁nonsense	-13.2796
▁providing	-13.2796
▁flesh	-13.2796
▁internet	-13.2796
▁Chairman	-13.2797
▁elsewhere	-13.2797
▁Network	-13.2797
▁scary	-13.2797
▁romance	-13.2797
▁Lucy	-13.2797
▁bitter	-13.2797
▁Barry	-13.2797
▁equivalent	-13.2797
▁withdraw	-13.2798
▁conducted	-13.2798
▁Kal	-13.2798
▁representing	-13.2799
ON	-13.28
▁sensitive	-13.2801
▁damaged	-13.2801
aring	-13.2801
▁frozen	-13.2812
▁prices	-13.2819
▁6.	-13.2821
cent	-13.2825
▁exception	-13.283
▁graduate	-13.2833
place	-13.2833
ants	-13.2836
▁Region	-13.2844
▁1949	-13.2851
▁purchase	-13.2853
▁injuries	-13.2855
▁invite	-13.2855
▁fever	-13.2856
▁difficulties	-13.2856
▁barely	-13.2856
▁Pretty	-13.2858
▁blank	-13.2858
▁safely	-13.2859
▁writers	-13.2863
▁frogs	-13.2864
▁cleared	-13.2867
▁ego	-13.2869
ctor	-13.2871
▁offices	-13.2873
ration	-13.2873
▁closing	-13.2876
gy	-13.2877
oke	-13.2878
▁kinda	-13.2881
ates	-13.2883
▁Sc	-13.2889
▁mar	-13.289
▁Rio	-13.2891
sia	-13.2891
▁sequence	-13.2892
▁elder	-13.2894
view	-13.2897
Ar	-13.2902
▁earn	-13.2909
▁functions	-13.291
▁rat	-13.2911
▁poison	-13.2911
▁guarantee	-13.2912
▁rapid	-13.2914
▁Amanda	-13.2914
▁Caesar	-13.2914
▁absence	-13.2914
▁retirement	-13.2914
▁Unlike	-13.2915
▁Having	-13.2915
▁entertainment	-13.2915
▁Baltimore	-13.2915
▁linked	-13.2916
▁behalf	-13.2917
▁Blair	-13.2919
▁attempted	-13.2919
▁Dove	-13.2921
log	-13.2922
ics	-13.2923
▁backwards	-13.2923
▁Ru	-13.2925
▁particles	-13.2926
▁Off	-13.2927
▁aired	-13.2929
ich	-13.293
utter	-13.293
▁shops	-13.2931
music	-13.2935
par	-13.294
ave	-13.2941
▁clown	-13.2942
▁protest	-13.2946
▁limits	-13.2946
▁funds	-13.2948
▁knight	-13.295
▁2016.	-13.295
▁rang	-13.295
▁foundation	-13.2955
▁Social	-13.2956
▁Inca	-13.2956
▁bid	-13.2957
Bo	-13.2961
▁gi	-13.2964
▁Cole	-13.2966
▁chase	-13.2969
):	-13.2971
▁bless	-13.2971
▁thirteen	-13.2973
▁Research	-13.2974
▁destruction	-13.2974
▁gravity	-13.2974
▁primitive	-13.2974
▁northeast	-13.2974
▁BUT	-13.2974
▁transferred	-13.2974
▁kittie	-13.2974
▁Therefore	-13.2974
▁typically	-13.2975
onic	-13.2975
▁dunno	-13.2976
▁feeding	-13.2978
▁Lynd	-13.2979
▁Allah	-13.2979
▁Representatives	-13.2981
▁wipe	-13.2986
▁photograph	-13.2988
av	-13.2988
▁jo	-13.2989
▁comic	-13.2992
bach	-13.2997
▁companion	-13.3011
▁vessel	-13.3011
ase	-13.3013
▁panic	-13.3016
▁bond	-13.3019
▁tomb	-13.302
▁peak	-13.3021
ois	-13.3025
▁landing	-13.3029
▁nations	-13.303
▁1939	-13.3032
▁fore	-13.3032
▁stir	-13.3034
▁Orleans	-13.3034
▁jazz	-13.3034
▁racing	-13.3034
▁Christopher	-13.3034
▁warrant	-13.3034
▁supper	-13.3034
▁favourite	-13.3035
▁Amendment	-13.3035
▁hammer	-13.3036
▁2015.	-13.3037
▁staring	-13.304
ort	-13.3043
▁metro	-13.3044
▁hopes	-13.3045
▁hid	-13.3048
▁Same	-13.305
▁Hell	-13.3053
AD	-13.3057
ira	-13.3058
▁nap	-13.306
kh	-13.306
▁bears	-13.3062
▁ONE	-13.3064
▁Bal	-13.3067
▁scare	-13.3069
▁aspect	-13.3072
▁payment	-13.3073
ments	-13.3074
▁Pola	-13.3079
▁Ce	-13.3084
▁lads	-13.3087
▁2019	-13.3088
▁participate	-13.3092
▁facts	-13.3093
▁unconscious	-13.3093
▁KNOW	-13.3093
▁terror	-13.3094
▁burden	-13.3094
▁Daisy	-13.3094
▁Lewis	-13.3094
▁Ladies	-13.3094
▁campus	-13.3094
▁contest	-13.3094
▁belonged	-13.3097
▁Scots	-13.3098
▁entering	-13.3098
▁equally	-13.3098
▁influenced	-13.3102
▁seated	-13.3102
▁ringing	-13.3102
▁Song	-13.3104
eu	-13.3107
▁fame	-13.3121
una	-13.3126
▁shares	-13.3129
▁faithful	-13.3129
▁Sh	-13.3132
▁1978	-13.3143
▁1983	-13.3146
TA	-13.3147
▁Pal	-13.3149
▁schedule	-13.3153
▁borrow	-13.3153
▁Admiral	-13.3155
▁external	-13.3155
▁Norway	-13.3155
▁documentary	-13.3155
▁gently	-13.3155
▁occasionally	-13.3155
▁Indeed	-13.3157
▁successfully	-13.3158
▁wee	-13.3158
▁Dragon	-13.3158
▁focused	-13.3158
▁voted	-13.3161
▁blowing	-13.3162
▁bush	-13.3166
uite	-13.3166
▁beans	-13.3171
▁components	-13.3172
zu	-13.3175
bert	-13.3178
▁slaves	-13.3181
▁Greg	-13.3183
▁accounts	-13.3186
lot	-13.3186
yard	-13.3187
▁actors	-13.3189
▁landscape	-13.3193
▁session	-13.3193
▁chapter	-13.3193
▁banana	-13.3193
▁Fo	-13.32
about	-13.3201
▁li	-13.3202
cher	-13.3204
▁Brand	-13.3209
▁doll	-13.3211
▁Brad	-13.3215
▁sacrifice	-13.3215
they	-13.3215
▁Deputy	-13.3216
▁Platform	-13.3216
▁furniture	-13.3216
▁garbage	-13.3216
ique	-13.3216
▁Native	-13.3216
▁creative	-13.3216
▁stretched	-13.3217
▁attracted	-13.3217
▁pace	-13.3218
▁performing	-13.3218
▁WWE	-13.322
▁whereas	-13.3224
▁Davis	-13.3224
ops	-13.3227
gh	-13.3228
RA	-13.3231
▁feathers	-13.3231
▁1966	-13.3232
fo	-13.3236
▁seeds	-13.3246
▁1985	-13.3249
▁Ph	-13.3251
▁pension	-13.3253
▁diamond	-13.3254
▁arrangement	-13.3255
▁administrative	-13.3255
▁thread	-13.3257
▁household	-13.3257
▁murderer	-13.3257
▁Mari	-13.3262
▁appearances	-13.3264
ago	-13.3267
AM	-13.3268
▁parliament	-13.3271
▁1964	-13.3275
▁stack	-13.3276
▁crook	-13.3276
▁sixteen	-13.3276
▁leadership	-13.3277
▁stopping	-13.3277
▁Development	-13.3277
▁floating	-13.3278
▁Modern	-13.3279
▁everyday	-13.3279
▁craft	-13.3281
door	-13.3282
gg	-13.3286
ose	-13.3288
mate	-13.3294
▁discipline	-13.3295
▁tune	-13.3295
▁lamp	-13.3296
ins	-13.3296
▁Boo	-13.3296
▁comments	-13.3307
iest	-13.3313
▁monkey	-13.3316
▁talent	-13.3317
▁der	-13.3321
▁Nay	-13.3324
▁loop	-13.3325
▁abe	-13.3327
term	-13.3328
hop	-13.3329
▁Dance	-13.3329
▁controls	-13.3331
med	-13.3333
▁succeed	-13.3336
▁surrender	-13.3337
▁Hard	-13.3338
▁grace	-13.3339
▁COVID	-13.3339
▁Communist	-13.3339
▁FBI	-13.3339
▁Meitei	-13.3339
▁abroad	-13.3339
▁attorney	-13.3339
▁mercy	-13.3339
▁Project	-13.3339
▁Ugh	-13.3339
▁Marshall	-13.3339
▁dishes	-13.3339
▁Baker	-13.3342
▁nut	-13.3344
▁Speaker	-13.3345
▁bills	-13.3345
▁bump	-13.3345
rest	-13.3346
▁Gray	-13.335
▁ra	-13.3358
▁Aha	-13.3358
▁farmers	-13.3361
ST	-13.3365
▁cheer	-13.3369
ovi	-13.3369
▁musicians	-13.3372
oca	-13.3374
ites	-13.3375
▁refuse	-13.3376
▁System	-13.3378
▁statue	-13.3378
ALL	-13.3378
▁legend	-13.3378
▁beliefs	-13.3379
▁depth	-13.338
▁panel	-13.338
▁po	-13.338
▁Sand	-13.338
▁Guy	-13.3381
▁files	-13.3383
▁ruler	-13.3383
▁speaker	-13.3384
▁gap	-13.3391
▁titles	-13.3393
▁Hart	-13.3399
▁ethnic	-13.3401
▁Edinburgh	-13.3401
▁extension	-13.3401
▁sequel	-13.3401
▁Whether	-13.3401
▁Almost	-13.3401
▁Foundation	-13.3401
▁Building	-13.3401
▁scarcely	-13.3401
▁chips	-13.3402
▁effectively	-13.3402
▁Sweet	-13.3404
▁meantime	-13.3405
▁Half	-13.3408
▁worthy	-13.3409
▁TED	-13.341
▁supporting	-13.3412
▁2008.	-13.3413
▁Mars	-13.3415
▁ka	-13.3427
eck	-13.3428
▁Going	-13.3432
▁pe	-13.344
▁conclusion	-13.3441
▁defence	-13.3444
▁Name	-13.3448
▁refers	-13.3454
▁quarters	-13.3458
ramp	-13.346
▁attract	-13.3462
▁Hawaii	-13.3463
▁Inspector	-13.3463
▁calendar	-13.3463
▁pencil	-13.3463
▁steady	-13.3463
▁entitled	-13.3463
▁bleeding	-13.3464
▁employed	-13.3464
▁Broadway	-13.3464
▁expanded	-13.3464
▁keen	-13.3466
▁Philippines	-13.3469
▁rude	-13.3469
▁Sub	-13.347
▁finishing	-13.347
▁joining	-13.3471
▁seeking	-13.3471
▁et	-13.3473
under	-13.3481
face	-13.3485
▁Except	-13.3486
▁beds	-13.3488
▁Cooper	-13.3492
▁"...	-13.3492
ising	-13.3494
▁jam	-13.3496
▁2:	-13.3497
▁zone	-13.3509
eta	-13.3509
▁rec	-13.3523
ib	-13.3523
LA	-13.3525
▁seventeen	-13.3526
▁Business	-13.3526
▁Several	-13.3526
▁poverty	-13.3526
▁Vegas	-13.3526
▁accent	-13.3527
▁Anderson	-13.3527
▁Ralph	-13.3527
▁followers	-13.3528
▁Use	-13.3528
▁lifetime	-13.353
▁Dev	-13.3533
▁feared	-13.3533
ify	-13.3542
ses	-13.3543
▁decades	-13.3544
▁Crown	-13.3547
▁Guys	-13.3549
▁Va	-13.355
late	-13.3551
▁exit	-13.3554
▁disaster	-13.3567
▁asshole	-13.3567
▁cookie	-13.3568
▁farmer	-13.357
▁commission	-13.3571
▁priests	-13.3572
unk	-13.3578
▁Ark	-13.3578
van	-13.3581
form	-13.3587
▁convince	-13.3587
▁electronic	-13.3587
▁loving	-13.3589
▁madam	-13.3589
▁suck	-13.3589
▁Windows	-13.3589
▁Rachel	-13.3589
▁Third	-13.359
▁battery	-13.359
▁instantly	-13.3591
▁delighted	-13.3591
▁briefly	-13.3591
▁interior	-13.3591
▁Agent	-13.3592
▁franchise	-13.3592
▁assumed	-13.3593
▁NFL	-13.3594
▁silk	-13.3595
bs	-13.3596
▁bay	-13.3599
▁trace	-13.3601
▁apples	-13.3609
▁Shh	-13.3617
rich	-13.3623
▁cows	-13.3624
▁applications	-13.3627
▁disappear	-13.3627
▁Nazi	-13.3629
▁Aw	-13.363
▁shark	-13.3631
sighs	-13.3631
▁rival	-13.3632
yl	-13.3635
▁app	-13.3635
mont	-13.3637
▁para	-13.3646
▁2000.	-13.3646
▁1937	-13.3648
▁pursue	-13.3651
gle	-13.3651
▁stadium	-13.3653
▁miserable	-13.3653
▁disappointed	-13.3653
▁estimated	-13.3655
▁Monsieur	-13.3655
▁Coming	-13.3655
▁eighth	-13.3655
▁facing	-13.3656
▁educated	-13.3657
▁Rabbit	-13.3657
▁purse	-13.3665
▁Th	-13.3667
▁colleagues	-13.3668
▁techniques	-13.3673
▁aspects	-13.3677
▁1945	-13.368
▁clouds	-13.3683
▁1952	-13.3688
▁fellows	-13.3693
▁disorder	-13.3695
▁mega	-13.3695
▁Mama	-13.3695
ching	-13.3702
▁1942	-13.3709
▁attractive	-13.3717
▁insane	-13.3717
▁impressed	-13.3718
▁Hurricane	-13.3718
▁softly	-13.372
▁boxes	-13.372
▁kings	-13.3722
rum	-13.3723
ote	-13.373
lay	-13.3733
▁helpful	-13.3734
vil	-13.3739
▁Cold	-13.374
▁Page	-13.3747
▁inform	-13.3747
▁Jin	-13.3748
▁arch	-13.3752
▁patterns	-13.3757
▁1946	-13.3759
▁register	-13.3759
▁1958	-13.3762
▁bore	-13.3763
gue	-13.3773
▁Mine	-13.3776
iro	-13.3777
▁obey	-13.378
▁Madam	-13.3781
▁Iraq	-13.3781
▁dynasty	-13.3782
▁nephew	-13.3782
▁midnight	-13.3782
▁Tiger	-13.3782
▁metres	-13.3782
away	-13.3786
pur	-13.3786
▁AS	-13.3787
▁Final	-13.3787
▁arose	-13.3788
▁checking	-13.3794
▁Him	-13.3795
▁Mart	-13.3797
▁Much	-13.3803
▁Wonder	-13.3806
ima	-13.381
▁Bla	-13.382
sville	-13.3822
▁gates	-13.3823
▁intention	-13.3824
▁architect	-13.3824
▁1975	-13.3826
▁secrets	-13.3826
▁infection	-13.3828
▁1957	-13.3835
▁divorce	-13.3845
▁spy	-13.3846
▁Community	-13.3847
▁Houston	-13.3847
▁agricultural	-13.3847
▁welfare	-13.3847
▁Lawrence	-13.3847
▁drank	-13.3847
▁routes	-13.3847
▁shouted	-13.3848
▁Eat	-13.3849
▁trail	-13.385
▁kicked	-13.385
▁Hand	-13.3854
▁touching	-13.3857
▁boots	-13.3865
▁Stan	-13.3869
TS	-13.3871
rous	-13.3872
▁Doc	-13.3876
▁dock	-13.3878
▁blast	-13.3888
▁airplane	-13.3889
▁sweat	-13.3895
▁ARE	-13.3896
▁combat	-13.3897
▁sometime	-13.3897
▁Work	-13.39
▁judges	-13.3912
▁lamb	-13.3912
▁hollow	-13.3912
▁radiation	-13.3912
▁receiving	-13.3912
▁versus	-13.3912
▁Murray	-13.3912
▁Robinson	-13.3912
▁promotion	-13.3912
▁possessed	-13.3915
▁discussed	-13.3915
▁urban	-13.3916
▁screaming	-13.3917
▁Pass	-13.3923
▁Thought	-13.3925
▁Juan	-13.3928
idae	-13.3932
▁bands	-13.3938
▁Said	-13.3938
▁laughter	-13.3943
▁options	-13.3943
Mi	-13.3948
ore	-13.395
uring	-13.395
▁Ham	-13.3951
ras	-13.3952
▁Liz	-13.3956
century	-13.3956
▁Devil	-13.3958
▁rage	-13.3964
ida	-13.3964
▁Arm	-13.3964
had	-13.3965
▁visual	-13.3966
▁True	-13.3968
▁Orchestra	-13.3978
▁bloke	-13.3978
▁impressive	-13.3978
▁shaking	-13.3978
▁Seriously	-13.3978
▁duke	-13.3978
▁travelled	-13.3978
▁travelling	-13.3978
▁Allison	-13.3978
▁ultimately	-13.3978
▁Yale	-13.3978
▁1973	-13.3979
▁practically	-13.3979
▁Mal	-13.398
▁conception	-13.398
▁st	-13.398
▁leaf	-13.398
▁frequent	-13.398
▁chemistry	-13.398
▁Jae	-13.3982
▁Sur	-13.3983
▁trusted	-13.3985
▁resulted	-13.3986
▁Corps	-13.3989
rad	-13.3993
▁hut	-13.3994
▁governments	-13.3994
▁nerves	-13.3996
pin	-13.4001
hal	-13.4017
▁fluid	-13.4021
▁Male	-13.4024
▁suggests	-13.4025
▁shots	-13.4026
▁tiger	-13.4037
▁Au	-13.404
lie	-13.4041
▁retreat	-13.4043
▁Colorado	-13.4044
▁Kermanshah	-13.4044
▁Mayweather	-13.4044
▁alphabet	-13.4044
▁junior	-13.4044
▁matrix	-13.4044
▁memorial	-13.4044
▁Franklin	-13.4044
▁accompanied	-13.4044
▁programming	-13.4044
▁Plus	-13.4044
▁suitable	-13.4045
▁Bhaer	-13.4046
▁rushed	-13.4046
▁distinction	-13.4046
▁improved	-13.4047
▁promote	-13.4049
▁Clear	-13.4052
▁covering	-13.4053
ree	-13.4055
▁Hunter	-13.4056
▁Key	-13.4057
▁raw	-13.4058
▁institutions	-13.4061
▁Kings	-13.4062
▁2000,	-13.4064
▁organic	-13.4066
▁VI	-13.4067
▁sharks	-13.4068
▁cookies	-13.4068
bri	-13.4079
▁vehicles	-13.408
▁custom	-13.4087
▁tunnel	-13.4088
SPEAK	-13.4089
▁designs	-13.409
▁Tra	-13.41
▁1969	-13.4102
Hi	-13.4103
▁Pra	-13.4106
▁Sis	-13.4109
die	-13.4111
▁Minnesota	-13.4111
▁Ontario	-13.4111
▁Section	-13.4111
▁messenger	-13.4111
▁supplies	-13.4111
▁nodded	-13.4111
▁wives	-13.4111
▁Alicia	-13.4111
▁presents	-13.4111
▁resistance	-13.4111
▁hopefully	-13.4111
▁dreadful	-13.4111
▁hitting	-13.4112
▁Sandy	-13.4112
▁Pacquiao	-13.4112
▁secondary	-13.4112
▁Apple	-13.4113
▁participated	-13.4113
▁Walk	-13.4119
▁educational	-13.4119
▁ju	-13.4121
▁titled	-13.4128
▁closet	-13.4128
pos	-13.4131
too	-13.4137
▁Hal	-13.4138
▁ID	-13.414
▁7.	-13.4149
▁emotion	-13.4153
piece	-13.4156
shaped	-13.4157
▁grain	-13.4159
▁Dog	-13.4159
ened	-13.416
▁Full	-13.4161
▁Napoleon	-13.4168
▁2019,	-13.417
▁grounds	-13.4171
▁Nar	-13.4176
▁finance	-13.4176
▁Cook	-13.4177
▁Dallas	-13.4178
▁Welsh	-13.4178
▁minimum	-13.4178
▁Johan	-13.4178
▁Otherwise	-13.4178
▁scattered	-13.4178
▁naval	-13.4179
▁Detective	-13.4179
▁THEY	-13.4179
▁Ricky	-13.4179
▁Selena	-13.418
▁Neither	-13.418
▁doggie	-13.4181
▁representation	-13.4182
▁wins	-13.4183
▁punch	-13.4193
▁ratio	-13.4198
▁crops	-13.4199
rai	-13.4201
▁Close	-13.4206
▁ke	-13.4211
▁bio	-13.4212
pers	-13.4215
fish	-13.4216
YT	-13.4219
▁flood	-13.422
mark	-13.422
▁translation	-13.4223
▁citizen	-13.4223
woman	-13.4224
▁protein	-13.4225
▁lit	-13.4234
▁fe	-13.4237
LlE	-13.424
▁bug	-13.424
Here	-13.4242
▁realise	-13.4244
▁counsel	-13.4245
▁intense	-13.4245
▁vital	-13.4245
▁despair	-13.4245
▁eldest	-13.4245
▁quantity	-13.4245
▁smoking	-13.4245
▁vertex	-13.4245
LAUS	-13.4245
▁Jason	-13.4246
▁alert	-13.4246
▁virus	-13.4247
▁indicated	-13.4247
▁infinite	-13.4247
▁Fars	-13.4248
bridge	-13.425
▁performances	-13.4254
▁ashore	-13.4256
▁differ	-13.4257
▁beef	-13.4258
▁tender	-13.4265
▁Char	-13.4273
▁dam	-13.4273
▁Fair	-13.4274
avi	-13.428
▁beard	-13.4282
▁2017.	-13.4284
▁Ser	-13.4285
▁amendment	-13.4291
▁procedure	-13.4291
▁circuit	-13.4292
▁pigs	-13.4292
▁breaks	-13.4292
▁hip	-13.4292
▁2005.	-13.4294
Lo	-13.4297
get	-13.4302
▁attempts	-13.4308
dis	-13.4313
▁Especially	-13.4313
▁glory	-13.4313
▁occupation	-13.4313
▁tragedy	-13.4313
▁quack	-13.4313
▁carpet	-13.4314
▁Nancy	-13.4314
▁trading	-13.4314
▁unfortunately	-13.4314
▁translated	-13.4314
▁Madame	-13.4315
itch	-13.4315
uch	-13.4315
has	-13.4318
▁deeper	-13.4319
▁tested	-13.4321
▁Bowl	-13.4328
▁scholars	-13.4334
▁innit	-13.4336
▁Start	-13.4341
ched	-13.4347
▁chairs	-13.4347
▁relatives	-13.4347
▁1947	-13.4348
▁1968	-13.4349
Get	-13.4357
▁react	-13.4359
▁genetic	-13.4359
▁1974	-13.436
▁lighthouse	-13.436
omi	-13.4362
▁Brothers	-13.4367
▁goin	-13.4369
IS	-13.4369
rid	-13.4371
▁Raja	-13.4371
▁owners	-13.4373
iya	-13.4377
ado	-13.438
▁whistle	-13.438
▁praise	-13.438
▁Serbia	-13.4382
▁approval	-13.4382
▁housing	-13.4382
▁YouTube	-13.4382
▁BETH	-13.4382
▁sharing	-13.4382
▁Orange	-13.4382
▁yourselves	-13.4382
▁fairies	-13.4383
▁1936	-13.4384
▁downtown	-13.4384
▁Chang	-13.4387
▁addressed	-13.4387
▁Connor	-13.4387
▁businesses	-13.4388
▁edges	-13.4388
▁thrown	-13.4391
▁sh	-13.4391
ENT	-13.4396
▁Rail	-13.4401
xi	-13.4411
▁uns	-13.4414
hill	-13.4426
▁races	-13.4426
▁courses	-13.4427
▁civilization	-13.4428
OW	-13.443
▁operate	-13.4431
▁founding	-13.4439
int	-13.4439
▁Angel	-13.4446
▁explore	-13.4448
▁spray	-13.445
▁fundamental	-13.445
▁meets	-13.4451
▁midst	-13.4451
▁Brussels	-13.4451
▁Louisiana	-13.4451
▁Donald	-13.4451
▁engagement	-13.4452
▁flip	-13.4452
▁Harris	-13.4452
▁wolf	-13.4454
▁approaching	-13.4456
▁parking	-13.4458
▁layer	-13.4459
ora	-13.4459
▁residents	-13.4461
▁tackle	-13.4463
▁worker	-13.4467
phi	-13.4471
▁topic	-13.4471
Mar	-13.4472
▁Gre	-13.4475
▁kindly	-13.4475
▁lighting	-13.4478
▁8.	-13.4479
▁Gor	-13.4486
▁describes	-13.4492
▁revenue	-13.4498
▁substance	-13.4498
▁representative	-13.4498
▁Ji	-13.4499
▁sits	-13.4502
▁flows	-13.4504
▁colours	-13.4506
▁1972	-13.451
chuckles	-13.451
▁situations	-13.4514
God	-13.4516
▁yield	-13.4517
▁pause	-13.4518
▁thunder	-13.4519
▁Apparently	-13.452
▁acceleration	-13.452
▁faculty	-13.452
▁liberty	-13.452
▁dragged	-13.452
▁dropping	-13.452
▁Sarhadi	-13.4521
▁Gulf	-13.4521
▁subsequently	-13.4521
▁Food	-13.4521
▁Nobel	-13.4522
▁Easy	-13.4522
▁conductor	-13.4522
▁goat	-13.4522
▁hast	-13.4523
▁maintained	-13.4523
▁firms	-13.4523
▁percentage	-13.4523
▁flies	-13.4525
▁rolling	-13.4525
aba	-13.4525
▁united	-13.4525
▁2001.	-13.4528
▁chances	-13.453
▁candy	-13.4533
▁mini	-13.4534
▁q	-13.4535
four	-13.454
▁hire	-13.454
▁tables	-13.4545
kar	-13.4548
▁Looking	-13.4554
▁2021	-13.4555
elli	-13.4556
▁Kate	-13.4559
ID	-13.4561
▁proceed	-13.4565
▁Protestant	-13.4569
▁Sound	-13.4574
▁bend	-13.4575
phy	-13.4583
zar	-13.4588
▁Comp	-13.4589
▁unlike	-13.459
▁Prefecture	-13.459
▁Wisconsin	-13.459
▁Jefferson	-13.459
▁transaction	-13.459
▁rubber	-13.459
▁foolish	-13.459
▁Diego	-13.459
▁Francesco	-13.459
▁Room	-13.459
▁Claire	-13.4591
▁Clause	-13.4591
▁Dead	-13.4594
▁informed	-13.4597
▁assist	-13.4599
▁pairs	-13.4601
cker	-13.4602
▁laying	-13.4604
▁Kent	-13.4607
▁involves	-13.4608
▁neighbors	-13.4609
Sh	-13.4617
cos	-13.4619
▁occasions	-13.4628
▁ne	-13.4631
▁exhibition	-13.4638
▁pa	-13.4639
▁trans	-13.4647
▁recorder	-13.4649
▁constitution	-13.4656
▁stages	-13.4656
▁violin	-13.4656
▁Camp	-13.4656
▁select	-13.4657
▁propose	-13.4659
▁Foreign	-13.4661
▁Fruit	-13.4661
▁sprang	-13.4661
▁Frederick	-13.4661
▁raising	-13.4661
▁expansion	-13.4661
▁chatter	-13.4661
▁Terry	-13.4661
▁comedian	-13.4661
▁Upon	-13.4661
▁recovery	-13.4661
▁Tonight	-13.4662
▁stove	-13.4662
▁executed	-13.4662
bil	-13.4664
▁processes	-13.4664
▁wax	-13.4664
▁mistress	-13.4664
▁considering	-13.4666
▁presently	-13.4668
▁Des	-13.4672
▁Gen	-13.4676
▁religions	-13.4678
▁Ly	-13.469
Mr	-13.4692
▁SHE	-13.4694
▁candidates	-13.4696
▁returns	-13.4701
ache	-13.4704
▁occurs	-13.4708
▁widow	-13.4709
▁outer	-13.4714
▁taxi	-13.4718
LO	-13.4722
AS	-13.4723
▁skill	-13.4726
▁peculiar	-13.4732
▁awkward	-13.4732
▁Agency	-13.4732
▁Emmy	-13.4732
▁nearest	-13.4733
▁2004.	-13.4735
▁solar	-13.4736
▁speaks	-13.4737
▁filling	-13.4737
▁jumping	-13.4737
▁lyrics	-13.4737
LI	-13.4738
▁continent	-13.4741
▁mammals	-13.4741
▁Pay	-13.4743
▁Deh	-13.4747
▁theories	-13.475
▁AM	-13.4751
lying	-13.4752
aka	-13.4754
▁1956	-13.4755
▁differently	-13.4756
▁bucks	-13.4758
Con	-13.4759
hol	-13.4761
▁Fl	-13.4765
▁Rh	-13.4769
▁Chah	-13.4771
▁RE	-13.4773
▁AN	-13.4775
SA	-13.4778
ello	-13.4778
▁troubles	-13.4781
▁publication	-13.4782
▁Spring	-13.4784
▁Whoo	-13.4784
top	-13.4785
free	-13.4785
▁Os	-13.4788
▁routine	-13.4789
▁bench	-13.4789
▁Costa	-13.4792
▁chap	-13.4796
master	-13.4799
▁su	-13.48
▁Luther	-13.4801
▁consent	-13.4802
▁Oklahoma	-13.4803
▁anxiety	-13.4803
▁jungle	-13.4803
▁liberal	-13.4803
▁nasty	-13.4803
▁Solomon	-13.4803
▁Manchester	-13.4803
▁assistance	-13.4803
▁gender	-13.4803
▁kidney	-13.4803
▁Story	-13.4804
▁Bernard	-13.4804
iness	-13.4804
▁distinguished	-13.4804
▁cabinet	-13.4805
▁Truth	-13.4806
▁Mad	-13.4808
▁opinions	-13.4808
▁por	-13.4809
▁stays	-13.4809
▁wallet	-13.4809
imi	-13.4814
▁Jesse	-13.4818
evi	-13.4819
dom	-13.482
▁burnt	-13.4822
gate	-13.483
▁1967	-13.4831
ill	-13.4831
▁flu	-13.4847
▁reveal	-13.4849
▁je	-13.4852
ros	-13.4854
▁painter	-13.4855
ube	-13.4856
▁Command	-13.486
▁peaceful	-13.486
▁Iron	-13.4863
Your	-13.4869
elle	-13.4871
▁locations	-13.4871
hl	-13.4872
▁bearing	-13.4873
▁compare	-13.4874
▁Rica	-13.4875
▁Arizona	-13.4875
▁Malaysia	-13.4875
▁Mohammad	-13.4875
▁Suddenly	-13.4875
▁facility	-13.4875
▁Katherine	-13.4875
▁Unfortunately	-13.4875
▁novels	-13.4875
▁towel	-13.4876
▁intelligent	-13.4876
▁blessed	-13.4877
▁golf	-13.4877
▁output	-13.4877
▁crowded	-13.4878
▁measured	-13.488
▁bacteria	-13.4881
▁Warren	-13.4881
▁Snow	-13.4881
▁loaded	-13.4884
▁Austrian	-13.4888
▁Wind	-13.4888
▁directions	-13.489
mail	-13.489
▁Cr	-13.4891
▁Sky	-13.4898
▁Calm	-13.4902
▁Gus	-13.4903
▁periods	-13.4905
ered	-13.491
cut	-13.4913
apped	-13.4914
TH	-13.4918
▁generations	-13.492
▁proposal	-13.4925
▁blanket	-13.4925
RI	-13.4936
▁arc	-13.494
▁chick	-13.4943
hur	-13.4943
▁reverse	-13.4946
▁Einstein	-13.4947
▁Vienna	-13.4947
▁bundle	-13.4947
▁efficiency	-13.4947
▁Shoot	-13.4948
▁Brooklyn	-13.4948
▁Yorkshire	-13.4948
▁Ground	-13.4948
▁Mommy	-13.4948
▁Perry	-13.4948
▁rejected	-13.4948
▁employment	-13.4948
▁Jackie	-13.4949
▁assure	-13.4951
▁trucks	-13.4955
▁freely	-13.4958
▁dreaming	-13.4958
▁rhythm	-13.496
▁raid	-13.4961
▁leap	-13.4963
▁rocket	-13.4963
▁Ur	-13.4964
▁coins	-13.4967
▁Sid	-13.4968
▁trailer	-13.497
▁Shaw	-13.4972
Thank	-13.4977
▁bored	-13.498
ET	-13.4991
▁Bru	-13.4995
▁brick	-13.4998
▁consideration	-13.4998
▁Age	-13.5002
▁Com	-13.5004
ake	-13.5006
▁MA	-13.5008
when	-13.5009
▁grows	-13.501
lap	-13.5011
▁statements	-13.5014
▁recover	-13.5017
▁resist	-13.5017
▁Hope	-13.5017
▁eager	-13.502
▁tremendous	-13.502
▁Marshal	-13.502
▁quarrel	-13.502
▁loyal	-13.502
▁squad	-13.502
▁Stadium	-13.502
▁wisdom	-13.502
▁Mickey	-13.5021
▁charity	-13.5021
▁oath	-13.5021
▁disgusting	-13.5021
▁tragic	-13.5021
▁Cool	-13.5022
▁Rogers	-13.5022
eb	-13.5022
▁praised	-13.5023
▁fuckin	-13.5023
▁believes	-13.5023
▁gear	-13.5024
▁electrical	-13.5029
▁1941	-13.5029
bury	-13.503
ological	-13.5032
▁dr	-13.5041
▁bass	-13.5041
▁Assyrian	-13.5042
Dr	-13.5046
sis	-13.5048
▁rats	-13.5048
▁Wo	-13.5054
▁Horn	-13.5056
und	-13.5057
style	-13.5058
▁kills	-13.5062
▁Gene	-13.5065
▁3-	-13.5066
▁scholar	-13.507
▁bishop	-13.5071
▁assignment	-13.5071
▁wagon	-13.5072
▁technique	-13.5072
▁scientist	-13.5072
Look	-13.5073
speaking	-13.5073
▁borders	-13.5074
▁Tour	-13.5077
wing	-13.5078
▁painful	-13.5088
ume	-13.5089
▁Abraham	-13.5094
▁Belgium	-13.5094
▁Cleveland	-13.5094
▁Stewart	-13.5094
▁voyage	-13.5094
▁HERE	-13.5094
▁pockets	-13.5094
read	-13.5095
▁Holland	-13.5095
▁Moscow	-13.5095
▁Virgin	-13.5095
▁delivery	-13.5095
▁humanity	-13.5096
▁fox	-13.5096
▁behave	-13.5097
▁Islamic	-13.5097
▁shocked	-13.5097
▁Hicks	-13.5097
▁concerning	-13.5098
▁pretending	-13.5098
ended	-13.5101
▁slope	-13.5102
▁sleepy	-13.5103
▁hunger	-13.5107
▁ceased	-13.5111
▁1944	-13.5121
▁lets	-13.5125
och	-13.5127
Fi	-13.5129
▁fits	-13.5131
▁Eve	-13.5133
▁Thi	-13.5138
▁Chan	-13.5138
vis	-13.5144
▁cheek	-13.5145
headed	-13.515
▁2021,	-13.5151
▁chin	-13.5153
▁choices	-13.5163
▁Fr	-13.5165
LAUGHS	-13.5168
▁Roosevelt	-13.5168
▁elevator	-13.5168
▁suspicious	-13.5168
▁Pur	-13.5168
▁valid	-13.5168
▁Follow	-13.5168
▁wreck	-13.5168
▁ceiling	-13.5168
▁chess	-13.5168
▁classroom	-13.5168
▁Price	-13.5169
▁Highness	-13.5169
▁carries	-13.5169
▁shouting	-13.517
▁Beautiful	-13.517
▁collar	-13.5171
▁GOT	-13.5171
▁stealing	-13.5172
▁Face	-13.5173
▁Sad	-13.5176
▁Eu	-13.5182
key	-13.5184
▁Mag	-13.5184
▁noon	-13.5189
▁tribes	-13.5189
▁compounds	-13.519
▁Mur	-13.519
▁puzzle	-13.5191
ROM	-13.5191
▁organ	-13.5194
▁1959	-13.5198
▁Armenian	-13.5205
▁Maim	-13.5215
dge	-13.5218
▁gesture	-13.522
▁confess	-13.5221
ardi	-13.5229
▁arrow	-13.5235
▁bin	-13.5236
▁intend	-13.524
▁punish	-13.524
▁approve	-13.5241
▁stiff	-13.5242
urse	-13.5242
▁sorrow	-13.5243
▁qualified	-13.5243
▁bullshit	-13.5243
▁confusion	-13.5243
▁grandmother	-13.5243
▁Catherine	-13.5243
▁exhausted	-13.5243
▁resigned	-13.5243
▁gum	-13.5243
▁membership	-13.5245
▁Popeye	-13.5245
▁foods	-13.5245
▁funding	-13.5246
bell	-13.5247
▁enjoying	-13.5249
▁Championships	-13.525
▁belly	-13.5251
▁ancestors	-13.5253
▁consequences	-13.526
lus	-13.5262
▁Kh	-13.5262
▁dated	-13.5265
lai	-13.5266
▁babe	-13.5267
lla	-13.5271
▁trapped	-13.5275
▁Tre	-13.5279
▁weary	-13.5282
Or	-13.5284
▁cuts	-13.5285
▁fabric	-13.5287
▁clients	-13.529
▁Services	-13.5293
▁stretch	-13.5294
▁Cu	-13.5296
▁belonging	-13.5299
making	-13.53
▁Demi	-13.5301
▁transition	-13.5307
▁drill	-13.5315
▁freak	-13.5316
▁extensive	-13.5317
▁Belgian	-13.5318
▁DVD	-13.5318
▁Hockey	-13.5318
▁ambulance	-13.5318
▁concentration	-13.5318
▁terminal	-13.5318
▁Gilbert	-13.5318
▁lily	-13.5319
▁restored	-13.532
▁feast	-13.532
▁partnership	-13.532
▁trash	-13.5322
▁NHL	-13.5322
▁slavery	-13.5322
▁Pick	-13.5323
▁commanded	-13.5323
▁patch	-13.5328
▁Sim	-13.5329
ister	-13.5331
lf	-13.5331
▁2020)	-13.5333
▁PA	-13.5337
DICA	-13.5338
▁dip	-13.5342
▁fires	-13.5342
▁ki	-13.5348
rr	-13.5353
yi	-13.5353
awa	-13.5354
▁Fall	-13.536
▁Karl	-13.5361
▁1928	-13.5364
▁sore	-13.5366
MP	-13.5368
▁crystal	-13.5371
▁historian	-13.5371
▁compound	-13.5371
▁depend	-13.5373
▁rap	-13.5376
leg	-13.5379
▁2019.	-13.5384
▁lung	-13.5385
▁arrange	-13.5387
pre	-13.5388
MAN	-13.5388
▁Argentina	-13.5394
▁Atlanta	-13.5394
▁Dakota	-13.5394
▁Detroit	-13.5394
▁Mediterranean	-13.5394
▁Ronald	-13.5394
▁Spirit	-13.5394
▁anniversary	-13.5394
▁behaviour	-13.5394
▁reduction	-13.5394
▁Convention	-13.5394
▁evolved	-13.5394
▁strategic	-13.5394
▁Walker	-13.5395
▁Dennis	-13.5396
▁networks	-13.5396
▁argued	-13.5397
▁mounted	-13.5402
▁succession	-13.5402
▁Pole	-13.5403
▁Tor	-13.5406
▁1919	-13.5408
▁bold	-13.541
▁lend	-13.5411
tail	-13.5413
▁qua	-13.5418
▁pub	-13.5422
Did	-13.5425
▁mothers	-13.5426
sburg	-13.5433
▁el	-13.5434
▁Ci	-13.5438
▁10,000	-13.544
lip	-13.5443
▁u	-13.5444
uma	-13.5446
▁strings	-13.5446
▁Confederate	-13.5447
▁essay	-13.5447
▁explosion	-13.5448
▁Bro	-13.5449
▁Finn	-13.545
▁artistic	-13.5451
band	-13.5453
▁Boys	-13.5454
▁yay	-13.5457
ying	-13.5458
▁fa	-13.5462
▁drum	-13.5463
▁Kind	-13.5469
▁cave	-13.5469
▁tissue	-13.5469
▁accurate	-13.5469
▁Benjamin	-13.547
▁Federation	-13.547
▁Krishna	-13.547
▁butterfly	-13.547
▁delicate	-13.547
▁pizza	-13.547
▁sympathy	-13.547
▁whilst	-13.547
gal	-13.547
▁Darwin	-13.547
▁Square	-13.547
▁choir	-13.547
▁contrary	-13.547
▁Stanley	-13.547
▁Lucas	-13.547
▁HIS	-13.547
▁Country	-13.547
▁nursery	-13.547
▁knot	-13.5471
▁punk	-13.5471
▁confident	-13.5471
▁charm	-13.5471
▁Rosa	-13.5472
▁Ain	-13.5472
▁Medical	-13.5473
▁rounds	-13.5473
▁Nixon	-13.5473
▁Jenny	-13.5473
▁affection	-13.5476
▁dared	-13.548
tta	-13.548
▁IF	-13.549
▁span	-13.549
▁dick	-13.5492
▁Springs	-13.5494
▁Sl	-13.5496
▁cancel	-13.5499
ller	-13.5499
such	-13.5499
▁SA	-13.55
▁heir	-13.5502
▁Mid	-13.5502
▁souls	-13.5505
▁SI	-13.5516
▁Trade	-13.5517
ila	-13.5524
▁interpretation	-13.5524
▁Hungarian	-13.5526
Thou	-13.5526
▁2003.	-13.5527
aga	-13.5541
▁confirm	-13.5545
▁recommend	-13.5545
▁fierce	-13.5546
▁stall	-13.5546
west	-13.5547
▁Roy	-13.5547
▁triumph	-13.5547
▁Tayebi	-13.5547
▁terribly	-13.5547
▁bargain	-13.5547
▁composition	-13.5547
▁sank	-13.5547
▁Jake	-13.5547
▁Vivie	-13.5549
▁climbed	-13.5549
▁reaches	-13.5549
▁DC	-13.555
▁packed	-13.555
▁Helen	-13.5551
▁formerly	-13.5563
▁Jos	-13.5565
▁lf	-13.557
ega	-13.5575
▁CO	-13.5587
▁Cal	-13.5589
▁Kiss	-13.5592
hem	-13.5597
put	-13.5598
▁1982	-13.56
▁mechanism	-13.5602
▁ge	-13.5606
▁Cl	-13.5608
lat	-13.5609
▁Hero	-13.5613
);	-13.5613
▁authors	-13.5619
hour	-13.5624
▁profession	-13.5624
▁amateur	-13.5624
▁contemporary	-13.5624
▁impulse	-13.5624
▁uncomfortable	-13.5624
▁Denmark	-13.5624
▁naima	-13.5624
▁thrust	-13.5625
ically	-13.5625
▁Davy	-13.5625
▁embarrassing	-13.5625
▁outfit	-13.5625
▁Swedish	-13.5626
▁satellite	-13.5626
▁establishment	-13.5626
▁fatal	-13.5626
▁dynamic	-13.5626
▁pressed	-13.563
▁Fucking	-13.5631
▁Due	-13.5632
▁walks	-13.5635
cast	-13.5637
▁dealt	-13.5638
▁Wake	-13.5645
▁rep	-13.5646
▁bees	-13.5652
pr	-13.5653
▁2003,	-13.5655
▁2016)	-13.5657
ska	-13.5659
rap	-13.5664
have	-13.5665
▁links	-13.5669
atu	-13.567
▁2002.	-13.5676
▁Mill	-13.5677
▁Kha	-13.5679
▁destination	-13.568
▁observation	-13.568
▁suggestion	-13.568
▁tribe	-13.568
Sighs	-13.5681
▁rating	-13.5682
▁Horse	-13.5683
▁Rai	-13.5684
▁haste	-13.5685
ried	-13.5687
uiet	-13.5689
▁Republicans	-13.5689
▁Bel	-13.5689
▁seal	-13.569
Star	-13.5696
▁horn	-13.5696
▁Mis	-13.5697
only	-13.5699
▁nickname	-13.5701
▁fraud	-13.5703
▁Macedonia	-13.5703
▁Swiss	-13.5703
▁happily	-13.5703
▁identical	-13.5703
▁Grammy	-13.5703
▁descent	-13.5703
▁wrapped	-13.5703
▁Anybody	-13.5703
▁foul	-13.5703
▁Christine	-13.5703
▁colony	-13.5703
▁armies	-13.5703
▁derived	-13.5703
▁conviction	-13.5703
▁converted	-13.5704
▁popularity	-13.5704
ema	-13.5704
▁surgeon	-13.5704
▁cheaper	-13.5704
▁charming	-13.5704
▁cared	-13.5705
▁oven	-13.5705
▁ranked	-13.5705
▁Lloyd	-13.5706
▁conscious	-13.5706
▁dependent	-13.5707
▁approached	-13.5707
VI	-13.5708
▁daylight	-13.5711
lit	-13.5711
▁sections	-13.5713
▁Studios	-13.5715
▁employees	-13.5719
▁Ty	-13.5725
igh	-13.5726
";	-13.5729
ERS	-13.5732
▁ow	-13.5733
▁brains	-13.5736
rot	-13.5736
▁prayers	-13.5736
▁adventures	-13.5737
▁Commissioner	-13.5738
▁bee	-13.5742
▁Ball	-13.5747
shire	-13.575
take	-13.5753
▁shout	-13.5756
mas	-13.5757
racking	-13.5757
Car	-13.5758
▁1988	-13.5758
▁holidays	-13.5759
▁UN	-13.5759
▁Youth	-13.5765
▁measures	-13.5765
▁1955	-13.5768
eva	-13.577
▁communicate	-13.5771
▁learnt	-13.5772
▁divisions	-13.5773
▁phones	-13.5777
▁fruits	-13.5777
▁obtain	-13.5778
boat	-13.5779
▁wrap	-13.578
▁generous	-13.578
▁Memorial	-13.5781
▁Usually	-13.5781
▁mathematics	-13.5781
▁separation	-13.5781
▁swept	-13.5781
▁steep	-13.5781
▁dignity	-13.5781
▁CEO	-13.5781
▁voting	-13.5781
▁whip	-13.5782
▁punished	-13.5783
▁Affairs	-13.5783
▁Route	-13.5783
▁Clare	-13.5784
▁cooked	-13.5786
esse	-13.5787
▁cameras	-13.5788
▁breed	-13.5792
▁resulting	-13.5793
▁inspiration	-13.5793
▁upside	-13.5794
court	-13.5795
▁sailors	-13.5801
lis	-13.5805
▁Kor	-13.5806
▁Doug	-13.5807
▁gifts	-13.581
rit	-13.581
▁exam	-13.5815
ule	-13.5815
Of	-13.5816
▁Rat	-13.5816
▁traditions	-13.5826
▁toes	-13.5827
ving	-13.5829
▁1932	-13.5833
▁Persian	-13.5834
▁fu	-13.5835
▁spaces	-13.5835
itis	-13.5836
▁cigarette	-13.5838
▁fossil	-13.5838
▁component	-13.5838
▁regiment	-13.5839
cle	-13.584
hor	-13.584
▁stake	-13.584
▁blessing	-13.584
ient	-13.5844
▁Roberts	-13.5845
sie	-13.5846
▁1987	-13.5849
say	-13.5849
▁hug	-13.585
▁gene	-13.585
▁anchor	-13.5859
▁Census	-13.5861
▁Portugal	-13.5861
▁deputy	-13.5861
▁william	-13.5861
▁ethan	-13.5861
▁Antonio	-13.5861
▁joking	-13.5861
▁Ferrier	-13.5861
▁electro	-13.5862
▁beloved	-13.5863
▁martial	-13.5864
▁warned	-13.5864
▁poly	-13.5865
▁coward	-13.5865
▁desired	-13.5866
▁tourist	-13.5867
▁protecting	-13.5868
At	-13.5869
▁insects	-13.5872
aro	-13.5873
▁marine	-13.5876
▁jet	-13.5876
▁1965	-13.5884
▁Falls	-13.5884
iva	-13.5885
▁cheeks	-13.5885
▁Gr	-13.5889
ddle	-13.5891
▁reader	-13.5894
▁strangers	-13.5904
▁10.	-13.5906
▁ski	-13.5912
sti	-13.5913
rush	-13.5917
kha	-13.5918
▁nomination	-13.5918
▁decade	-13.5918
▁nerve	-13.5919
racked	-13.5919
spe	-13.592
▁quote	-13.592
▁flame	-13.5921
▁buttons	-13.5921
power	-13.5923
▁Cause	-13.5925
bra	-13.5926
▁insist	-13.593
iff	-13.5931
▁Wu	-13.5938
▁torture	-13.5939
▁grasp	-13.5939
▁Hugh	-13.594
▁Conservative	-13.5941
▁Craig	-13.5941
▁protocol	-13.5941
▁sunshine	-13.5941
▁vampire	-13.5941
▁backpack	-13.5941
bus	-13.5941
▁Thirty	-13.5942
▁Together	-13.5942
▁Allied	-13.5942
▁defendant	-13.5943
▁scheduled	-13.5943
▁encouraged	-13.5944
▁Course	-13.5944
▁helpless	-13.5945
▁outta	-13.5949
▁Allies	-13.5951
ico	-13.5953
▁Fat	-13.5955
pt	-13.5955
▁troubled	-13.5961
▁creates	-13.5964
▁2002,	-13.5966
▁es	-13.5968
▁Lower	-13.5972
▁comb	-13.5975
▁Chase	-13.598
▁Rights	-13.5983
▁hay	-13.5986
▁Tar	-13.5993
▁Dark	-13.5997
▁indicate	-13.5997
vel	-13.5998
▁curve	-13.5999
▁preparation	-13.5999
▁variable	-13.5999
▁cord	-13.6
Gu	-13.6007
▁ignore	-13.6019
▁strict	-13.6021
▁Jerusalem	-13.6021
▁Melbourne	-13.6021
▁Mississippi	-13.6021
▁salary	-13.6021
▁nigga	-13.6021
▁hare	-13.6021
▁Barbara	-13.6021
▁spinning	-13.6022
▁denied	-13.6022
▁concluded	-13.6022
PRIO	-13.6022
▁Eight	-13.6024
▁shy	-13.6024
▁purchased	-13.6024
▁layout	-13.6024
▁Upper	-13.6024
▁Certainly	-13.6024
▁mild	-13.6029
▁1953	-13.6029
▁sole	-13.603
▁Surely	-13.603
▁Lisbon	-13.6031
▁sec	-13.6033
▁catching	-13.6034
▁Hills	-13.6034
▁Palm	-13.6034
▁vegetables	-13.6035
tee	-13.6036
▁deadly	-13.6038
▁Set	-13.6045
PS	-13.605
inc	-13.6053
gra	-13.6054
pper	-13.6058
hong	-13.6059
berry	-13.6061
▁marginal	-13.6065
▁loads	-13.607
hard	-13.6074
▁nobles	-13.6075
part	-13.6078
▁algorithm	-13.608
▁kit	-13.608
▁muscle	-13.608
▁pillow	-13.6081
OS	-13.6082
▁Op	-13.6082
arm	-13.6085
▁bum	-13.6086
Take	-13.6086
▁complain	-13.6091
zer	-13.6092
▁journal	-13.6098
far	-13.6099
fire	-13.61
▁monitor	-13.6101
ith	-13.6102
▁Administration	-13.6103
▁Technology	-13.6103
▁diameter	-13.6103
▁magnificent	-13.6103
▁advertising	-13.6103
▁Library	-13.6103
▁Oscar	-13.6103
▁serial	-13.6103
▁ninth	-13.6103
▁tennis	-13.6103
▁prick	-13.6103
▁Alfred	-13.6103
▁coverage	-13.6103
▁altar	-13.6103
▁THERE	-13.6103
▁Norwegian	-13.6104
▁motorcycle	-13.6104
▁Graham	-13.6104
▁quid	-13.6104
▁Small	-13.6104
▁Poly	-13.6105
▁smallest	-13.6105
▁WHO	-13.6106
▁pitch	-13.6107
▁orbit	-13.6108
▁Space	-13.6108
▁permit	-13.611
cer	-13.611
▁rum	-13.6113
ening	-13.6119
▁pills	-13.612
▁convention	-13.612
▁Regional	-13.612
▁nicely	-13.6121
ency	-13.6126
▁procedures	-13.613
▁alike	-13.6135
▁Baron	-13.6136
here	-13.6136
▁1951	-13.614
round	-13.6142
▁Es	-13.6143
inger	-13.615
▁doin	-13.6154
▁1935	-13.6158
▁demands	-13.6159
▁Knight	-13.6163
word	-13.6163
▁Newton	-13.6164
TER	-13.6165
handed	-13.6166
▁Wild	-13.6171
▁rub	-13.6173
▁Sho	-13.6174
▁ver	-13.6175
▁Em	-13.6177
▁Amazon	-13.6184
▁Austin	-13.6185
▁striking	-13.6185
▁Capital	-13.6185
▁gossip	-13.6185
▁pathetic	-13.6185
▁Borough	-13.6185
▁naughty	-13.6185
▁alex	-13.6185
▁criticized	-13.6185
▁firing	-13.6186
▁frequency	-13.6186
yu	-13.6186
▁recognised	-13.6187
▁treaty	-13.6187
▁gathering	-13.6187
▁Video	-13.6188
▁suspected	-13.6188
▁handling	-13.6188
▁earning	-13.6188
▁Chile	-13.6188
▁businessman	-13.6189
bat	-13.6189
▁Cheers	-13.619
▁homework	-13.6191
enne	-13.6192
▁Reed	-13.6212
▁Mah	-13.6218
▁Wolf	-13.6221
got	-13.6223
▁1918	-13.6225
▁ranks	-13.6226
▁1954	-13.6228
phe	-13.6238
▁bust	-13.6239
▁Bang	-13.6241
▁pile	-13.6243
▁stamp	-13.6244
▁Hindu	-13.6245
▁Trans	-13.6245
▁contribution	-13.6245
▁candle	-13.6245
Okay	-13.6246
level	-13.6247
▁Hands	-13.6251
▁Bey	-13.6253
▁Jai	-13.6255
vol	-13.6258
ged	-13.6263
rib	-13.6265
▁unfortunate	-13.6266
▁Relax	-13.6267
▁believing	-13.6267
▁mysteries	-13.6267
▁circus	-13.6267
▁mummy	-13.6267
▁shone	-13.6267
▁Merry	-13.6268
▁Medal	-13.6268
▁sung	-13.6269
life	-13.627
▁increases	-13.627
▁logic	-13.6271
onia	-13.6275
sley	-13.6276
cell	-13.6276
▁fee	-13.6276
▁flights	-13.6278
▁declare	-13.6279
▁makeup	-13.628
rite	-13.6283
ito	-13.6284
▁deals	-13.6288
▁sensation	-13.6291
cla	-13.6293
▁ordering	-13.6297
▁Nazis	-13.6301
▁oak	-13.6303
eng	-13.6303
▁hath	-13.6308
▁pointing	-13.6309
▁experiments	-13.6312
▁Hor	-13.6313
els	-13.6318
See	-13.632
El	-13.6322
aya	-13.6322
▁define	-13.6326
▁boot	-13.6328
first	-13.6329
fr	-13.6341
lea	-13.6343
▁collapse	-13.6346
▁preserve	-13.6349
▁genuine	-13.635
▁southeast	-13.635
▁Cambridge	-13.6351
▁Manhattan	-13.6351
▁Samuel	-13.6351
▁agriculture	-13.6351
▁defensive	-13.6351
▁destiny	-13.6351
▁maintenance	-13.6351
▁polyhedron	-13.6351
▁scandal	-13.6351
▁Mitchell	-13.6351
▁mixture	-13.6351
▁ferry	-13.6351
▁array	-13.6351
▁Puert	-13.6351
oi	-13.6351
▁Hardy	-13.6352
lk	-13.6352
▁threatening	-13.6352
▁preserved	-13.6353
▁Trent	-13.6355
▁produces	-13.6356
▁traveling	-13.6357
gging	-13.6359
▁Aah	-13.636
▁stared	-13.636
▁fucked	-13.6361
▁Kra	-13.6361
▁drops	-13.6362
▁cleaned	-13.6362
▁Blake	-13.6363
▁Democrats	-13.6364
▁Design	-13.6366
eight	-13.637
▁Beat	-13.6372
heim	-13.6376
▁Drop	-13.6379
▁Wars	-13.6386
▁Model	-13.6387
▁grip	-13.6388
SH	-13.6392
▁Us	-13.6392
ware	-13.6394
▁lectures	-13.6396
▁tales	-13.6397
▁notion	-13.6397
▁1,000	-13.6397
▁1929	-13.6403
▁lean	-13.6407
▁reflect	-13.6407
eri	-13.6408
▁arguments	-13.6409
▁vaccine	-13.6412
▁ritual	-13.6412
▁Champion	-13.6412
▁organisation	-13.6412
▁barrel	-13.6414
▁Mas	-13.6415
hood	-13.6416
▁designer	-13.6416
lim	-13.642
▁Sk	-13.6425
PA	-13.6426
▁males	-13.6427
▁escort	-13.6433
▁monarch	-13.6434
▁Lion	-13.6434
▁potato	-13.6434
▁glow	-13.6435
▁Ethiopia	-13.6435
▁Harvey	-13.6435
▁alliance	-13.6435
▁filter	-13.6435
▁Bradford	-13.6435
▁Joyce	-13.6435
▁Clinton	-13.6435
▁Caroline	-13.6435
▁convicted	-13.6435
▁Joan	-13.6435
▁basement	-13.6436
▁Sharon	-13.6436
▁OUT	-13.6438
▁Jeffrey	-13.6438
▁regularly	-13.6439
▁twist	-13.644
▁2021)	-13.644
lle	-13.6441
vor	-13.6442
▁Deal	-13.6444
▁assets	-13.6447
▁females	-13.6456
▁Made	-13.6462
six	-13.6462
▁practices	-13.6463
▁columns	-13.6471
hum	-13.6473
▁margin	-13.6474
▁1961	-13.6482
▁chemicals	-13.6483
▁humor	-13.6486
eur	-13.6497
▁bells	-13.6505
▁scores	-13.6505
▁Rich	-13.6507
press	-13.6509
▁signals	-13.651
▁1934	-13.6511
uba	-13.6515
▁PC	-13.6517
▁verse	-13.6518
▁Isabel	-13.6519
him	-13.6519
involving	-13.6519
▁Junior	-13.6519
▁convenient	-13.6519
▁legislation	-13.6519
▁eternal	-13.6519
▁colonel	-13.652
stead	-13.652
▁classified	-13.652
▁localities	-13.652
▁thoroughly	-13.652
▁gorgeous	-13.652
▁Marcus	-13.652
▁Sebastian	-13.6521
LSB	-13.6522
▁Nature	-13.6522
▁realised	-13.6523
▁challenged	-13.6525
▁Pull	-13.6526
ked	-13.653
▁Member	-13.6533
▁invitation	-13.6537
▁si	-13.6539
▁prey	-13.654
dam	-13.6557
Co	-13.656
fall	-13.6561
▁Rei	-13.6565
▁Dam	-13.6566
▁Lau	-13.6574
▁bullets	-13.6577
ode	-13.6579
▁neighbor	-13.6581
▁shield	-13.6581
▁miracle	-13.6582
▁reactions	-13.6584
▁bu	-13.6596
zing	-13.6596
tus	-13.6599
BO	-13.66
ending	-13.66
▁expand	-13.6602
▁mortal	-13.6605
▁Ridge	-13.6605
▁ABOUT	-13.6605
▁Delaware	-13.6605
▁Liverpool	-13.6605
▁Spencer	-13.6605
▁physician	-13.6605
▁skull	-13.6605
▁Milton	-13.6605
▁Teddy	-13.6605
▁10-	-13.6606
▁chapel	-13.6606
▁lime	-13.6606
▁Around	-13.6606
▁clerk	-13.6607
▁purely	-13.6607
▁paused	-13.6607
▁Delta	-13.6607
▁Coach	-13.6608
▁Collins	-13.6608
▁Journal	-13.6609
▁Branch	-13.6613
▁posted	-13.6613
pl	-13.6615
▁affiliate	-13.6617
▁prop	-13.6617
ella	-13.6619
▁wages	-13.6622
▁spoil	-13.6626
▁sync	-13.6627
ender	-13.663
▁COME	-13.6632
IV	-13.6632
▁1917	-13.6633
▁rates	-13.6633
▁companions	-13.6637
▁liver	-13.6641
▁fights	-13.6642
yama	-13.6649
tie	-13.6656
▁scream	-13.6665
▁reserve	-13.6666
▁rifle	-13.6668
▁activist	-13.6668
▁critic	-13.667
gre	-13.6671
Have	-13.6674
▁1914	-13.6681
lands	-13.6683
▁scratch	-13.6688
▁recognise	-13.6689
▁continuous	-13.669
▁Cemetery	-13.6691
▁Harvard	-13.6691
▁Microsoft	-13.6691
▁certificate	-13.6691
▁depressed	-13.6691
▁elbow	-13.6691
▁Madrid	-13.6691
▁Alaska	-13.6691
▁residence	-13.6691
▁handkerchief	-13.6691
▁terrified	-13.6691
▁Sheriff	-13.6691
▁respectively	-13.6691
▁remarked	-13.6692
▁twisted	-13.6692
▁contents	-13.6693
▁scarce	-13.6693
▁offence	-13.6694
aj	-13.6694
▁switched	-13.6695
▁Lily	-13.6695
▁bothered	-13.6695
GE	-13.67
▁Noah	-13.6701
▁ABC	-13.6702
▁axis	-13.6702
uit	-13.6703
▁robot	-13.6705
▁danced	-13.6706
▁dont	-13.6707
▁chip	-13.671
tting	-13.6714
GH	-13.6715
▁spots	-13.6717
TE	-13.6717
▁Send	-13.6726
NA	-13.6727
hole	-13.6727
▁coin	-13.6728
sized	-13.673
▁explains	-13.6731
▁regards	-13.6732
▁politicians	-13.6733
Bi	-13.6733
AC	-13.6742
ape	-13.6747
▁ro	-13.6752
▁resolution	-13.6755
▁celebration	-13.6755
▁1933	-13.676
iga	-13.6763
▁Members	-13.6764
▁Sin	-13.6764
rated	-13.6766
▁Boyd	-13.6768
▁Drive	-13.6773
bow	-13.6774
ots	-13.6777
▁Caribbean	-13.6778
▁Dynasty	-13.6778
▁Venezuela	-13.6778
▁controversy	-13.6778
▁licence	-13.6778
▁pulse	-13.6778
▁resort	-13.6778
▁Klein	-13.6778
▁burial	-13.6778
▁Croce	-13.6778
▁CBS	-13.6778
▁selfish	-13.6778
▁fictional	-13.6779
▁vanished	-13.6779
▁insisted	-13.6779
▁corporate	-13.678
▁buses	-13.6781
▁observe	-13.6781
▁Guess	-13.6781
▁cargo	-13.6781
▁Angela	-13.6782
ents	-13.6782
▁tenth	-13.6782
▁NBA	-13.6783
▁hanged	-13.6784
▁warming	-13.6787
▁visiting	-13.6788
▁socks	-13.6788
▁requirements	-13.6793
mother	-13.6798
▁delightful	-13.6798
▁Mass	-13.68
sel	-13.6805
▁sticks	-13.6807
DE	-13.6807
OT	-13.6808
▁Mat	-13.6811
▁Nam	-13.6811
▁seas	-13.6813
olo	-13.6817
roll	-13.6819
▁feather	-13.682
▁Kang	-13.682
▁OH	-13.6827
▁sins	-13.6828
▁Khu	-13.6828
▁hint	-13.6829
chu	-13.6831
▁1924	-13.684
▁BR	-13.6841
▁balloon	-13.6843
▁1962	-13.6844
▁customer	-13.6844
Ge	-13.6845
▁institution	-13.6846
ika	-13.6857
Po	-13.6859
oni	-13.6861
▁bottles	-13.6863
▁whisper	-13.6863
▁crawl	-13.6864
▁Bah	-13.6865
▁Afghanistan	-13.6866
▁Executive	-13.6866
▁aggressive	-13.6866
▁artillery	-13.6866
▁comparison	-13.6866
▁hilda	-13.6866
▁invisible	-13.6866
▁mosque	-13.6866
▁Pittsburgh	-13.6866
▁drummer	-13.6866
▁globe	-13.6866
▁agenda	-13.6866
▁accomplished	-13.6866
▁adapted	-13.6867
▁wolves	-13.6867
▁profile	-13.6868
▁agencies	-13.6868
▁assured	-13.6868
▁climbing	-13.6869
▁solvent	-13.6869
▁decides	-13.6869
▁kindness	-13.6872
▁counted	-13.6873
▁Flowers	-13.6873
▁kissing	-13.6874
▁atom	-13.6878
▁click	-13.688
▁1890	-13.6884
▁eats	-13.6884
▁filmed	-13.6885
link	-13.6885
▁fewer	-13.6885
Su	-13.6889
▁muscles	-13.689
▁confession	-13.689
▁lungs	-13.6892
▁disc	-13.6895
▁bonds	-13.6899
sure	-13.6905
Wa	-13.6906
▁Belle	-13.6908
▁Joo	-13.6911
▁visits	-13.6912
lor	-13.6915
▁1927	-13.6916
coming	-13.6917
anna	-13.6918
▁1913	-13.6928
▁Joy	-13.6929
▁dispute	-13.693
▁sack	-13.6934
▁Grandpa	-13.6935
▁tension	-13.6935
ars	-13.6943
know	-13.6947
rag	-13.6948
▁Cur	-13.6952
▁sandwich	-13.6954
▁Alzheimer	-13.6954
▁Obviously	-13.6954
▁Wrestling	-13.6954
▁categories	-13.6954
▁democracy	-13.6954
▁nitrogen	-13.6954
▁harvest	-13.6954
▁Edith	-13.6954
▁biological	-13.6954
▁artificial	-13.6954
▁Murphy	-13.6954
▁departure	-13.6954
▁chasing	-13.6955
▁freeze	-13.6955
▁mankind	-13.6955
▁Nathan	-13.6955
▁halt	-13.6955
▁announcement	-13.6955
▁interrupted	-13.6955
▁Colin	-13.6955
▁lowest	-13.6955
▁reflection	-13.6956
▁satisfaction	-13.6957
tone	-13.696
▁rational	-13.6964
▁crop	-13.6964
Ja	-13.6965
IE	-13.6965
EE	-13.6965
▁Catholics	-13.6966
▁Ag	-13.6967
▁poll	-13.6968
▁butt	-13.6969
▁Heart	-13.6974
card	-13.698
stop	-13.6983
▁rip	-13.6995
asa	-13.6995
▁Ike	-13.7005
▁1994.	-13.7006
▁Nah	-13.7008
▁Clara	-13.7009
▁auto	-13.701
▁DR	-13.701
▁Pie	-13.7014
▁Die	-13.7019
▁repair	-13.702
esh	-13.7022
▁Bach	-13.7023
▁Garden	-13.7023
▁BO	-13.7025
uki	-13.7026
ost	-13.7028
▁writings	-13.7029
▁rob	-13.7042
▁harsh	-13.7043
▁Kai	-13.7043
▁retire	-13.7043
▁Itanium	-13.7043
▁Magazine	-13.7043
▁leather	-13.7043
▁narrative	-13.7043
▁offensive	-13.7043
▁GOOD	-13.7043
▁Oregon	-13.7043
▁bicycle	-13.7043
▁brigade	-13.7043
▁mythology	-13.7043
▁Local	-13.7044
▁saddle	-13.7044
▁slap	-13.7044
▁dried	-13.7044
▁banned	-13.7044
▁priority	-13.7044
▁bronze	-13.7044
▁Storm	-13.7044
▁villain	-13.7044
iel	-13.7044
▁invaded	-13.7044
▁smells	-13.7045
AP	-13.7045
▁mainland	-13.7045
▁Saudi	-13.7047
▁Market	-13.7047
▁lightning	-13.7048
▁Lane	-13.7049
▁Prior	-13.7052
kaboo	-13.7056
▁br	-13.7057
▁Lords	-13.7066
Pro	-13.7066
ows	-13.707
_)	-13.7072
▁Ages	-13.7072
▁Perfect	-13.7075
ink	-13.7076
EST	-13.7078
▁Shu	-13.7079
come	-13.709
▁snakes	-13.709
▁ding	-13.7092
▁Om	-13.7097
▁Oak	-13.7101
tter	-13.7101
▁markets	-13.7101
▁Hay	-13.7102
▁Cro	-13.7105
ony	-13.7106
▁involve	-13.7109
Ch	-13.711
even	-13.7111
▁suspicion	-13.7111
▁clue	-13.7112
▁OR	-13.7112
▁Report	-13.7113
Jo	-13.7113
▁pole	-13.7117
▁spine	-13.7126
once	-13.7127
▁Hawk	-13.7128
▁whore	-13.7129
▁triple	-13.713
horn	-13.7131
▁interfere	-13.7131
▁venture	-13.7132
▁vary	-13.7132
▁surprising	-13.7133
ison	-13.7133
▁consumption	-13.7134
▁examination	-13.7134
▁petition	-13.7134
▁pursuit	-13.7134
▁vulnerable	-13.7134
▁Enjoy	-13.7134
▁revolt	-13.7134
▁weakness	-13.7134
▁ruling	-13.7134
▁preferred	-13.7134
▁referring	-13.7134
▁Ernest	-13.7134
▁counties	-13.7134
▁crept	-13.7134
▁condenser	-13.7135
▁Believe	-13.7135
▁index	-13.7135
▁harbour	-13.7136
▁Twin	-13.7139
▁appearing	-13.7141
ancy	-13.7142
▁shorter	-13.7144
▁oops	-13.7144
vid	-13.7145
▁Pictures	-13.7145
▁gloves	-13.7145
▁Allan	-13.7148
▁chill	-13.7149
▁Ice	-13.7152
▁worrying	-13.7154
▁Inside	-13.7154
▁mob	-13.7155
▁answering	-13.7155
where	-13.7162
▁resting	-13.7163
▁stern	-13.7167
lio	-13.7173
ark	-13.7174
hh	-13.7177
sol	-13.7185
By	-13.7186
▁promises	-13.7189
TY	-13.7191
eus	-13.7191
▁battles	-13.7192
ene	-13.7192
▁owns	-13.7195
▁Ohh	-13.7196
odo	-13.7196
▁Sol	-13.7199
bel	-13.7201
ivity	-13.7201
▁sailor	-13.7203
screen	-13.7203
▁CA	-13.7207
hang	-13.7209
aries	-13.721
omp	-13.7213
▁jokes	-13.7213
▁1921	-13.7214
shot	-13.7217
ION	-13.7218
eli	-13.7221
ille	-13.7223
▁reception	-13.7224
▁blows	-13.7224
▁swift	-13.7224
▁intimate	-13.7224
▁kettle	-13.7224
▁Amsterdam	-13.7224
▁Malcolm	-13.7224
▁Sofla	-13.7224
▁Utah	-13.7224
▁Vancouver	-13.7224
▁relevant	-13.7224
▁rubbish	-13.7224
▁survival	-13.7224
▁Either	-13.7224
▁Olya	-13.7225
▁digging	-13.7225
▁sustainable	-13.7225
▁Harold	-13.7225
▁Brandon	-13.7225
▁Riley	-13.7225
▁diary	-13.7225
▁Harper	-13.7225
▁Anyone	-13.7225
▁mechanical	-13.7225
▁organised	-13.7225
▁wandering	-13.7226
state	-13.7226
▁coalition	-13.7226
▁Jessica	-13.7226
▁bucket	-13.7226
▁controlling	-13.7226
▁invention	-13.7226
▁1997.	-13.7226
▁va	-13.7226
▁wrestler	-13.7227
▁marching	-13.7227
▁physically	-13.7228
▁Mut	-13.7228
▁RIGHT	-13.7228
▁requested	-13.7228
▁penny	-13.7229
▁waist	-13.723
▁controversial	-13.7231
met	-13.7232
ides	-13.7233
▁creep	-13.7235
▁curtains	-13.7239
UN	-13.724
▁contribute	-13.7241
▁Feel	-13.7242
▁1999,	-13.7243
▁characteristics	-13.7247
▁filming	-13.7249
▁Charu	-13.7249
TO	-13.7256
▁Les	-13.7261
▁lovers	-13.727
▁1926	-13.7272
tree	-13.7274
jam	-13.7276
▁Luc	-13.7282
▁tricks	-13.7285
rou	-13.729
▁philosopher	-13.7294
Species	-13.7294
▁proportion	-13.7306
▁Tr	-13.7309
▁float	-13.7315
▁infant	-13.7316
▁Czech	-13.7316
▁elaborate	-13.7316
▁Management	-13.7316
▁acquaintance	-13.7316
▁cemetery	-13.7316
▁indigenous	-13.7316
▁plug	-13.7316
▁struggling	-13.7316
▁vertices	-13.7316
▁sworn	-13.7316
▁WANT	-13.7316
▁Lionel	-13.7316
▁strain	-13.7317
▁Abby	-13.7317
▁Birmingham	-13.7318
▁Suppose	-13.7318
▁mice	-13.7318
▁forgetting	-13.7318
▁Diamond	-13.7318
▁responded	-13.7319
▁loudly	-13.7319
▁donkey	-13.7319
▁Action	-13.7319
▁collecting	-13.732
▁Admiralty	-13.732
▁sticky	-13.732
▁designated	-13.7322
▁mines	-13.7322
CO	-13.7325
▁fin	-13.7325
▁needle	-13.7325
▁cult	-13.7332
isation	-13.7346
▁Justin	-13.7347
▁rug	-13.7348
▁Sig	-13.7349
▁deer	-13.735
▁HER	-13.7353
▁9.	-13.7362
oa	-13.7369
▁restaurants	-13.7369
vic	-13.7369
mel	-13.7373
▁Anti	-13.7377
pla	-13.7377
mai	-13.738
▁Highland	-13.7381
▁1931	-13.7384
▁Neu	-13.7386
▁objective	-13.7387
▁consumer	-13.7387
▁characteristic	-13.7387
Saint	-13.7387
With	-13.7388
▁Operation	-13.739
▁2018.	-13.7397
▁construct	-13.7397
▁bounce	-13.7407
▁sweep	-13.7407
▁Roll	-13.7408
▁hurried	-13.7408
▁Child	-13.7408
▁Different	-13.7409
▁Madison	-13.7409
▁Private	-13.7409
▁democratic	-13.7409
▁patience	-13.7409
▁penalty	-13.7409
▁southwest	-13.7409
▁polar	-13.7409
▁Baseball	-13.7409
▁recycling	-13.7409
▁Michelle	-13.7409
▁lazy	-13.7409
▁Ottoman	-13.7409
▁extinct	-13.7409
▁diagnosed	-13.7409
▁queer	-13.7409
▁managing	-13.741
▁Brazilian	-13.741
▁Reserve	-13.741
▁registered	-13.7411
▁sexy	-13.7414
▁dressing	-13.7419
▁Change	-13.742
ssi	-13.742
▁handled	-13.742
▁Ari	-13.7423
▁attacking	-13.7425
▁sober	-13.7427
▁Tan	-13.7437
▁operates	-13.7439
▁lid	-13.744
▁Lav	-13.744
▁cure	-13.7443
▁bridges	-13.7448
▁Others	-13.7449
UL	-13.745
IA	-13.7453
▁Read	-13.7454
▁ban	-13.7455
▁lighter	-13.7461
▁1925	-13.7472
▁survey	-13.7473
▁producers	-13.7475
▁Ring	-13.7475
org	-13.7476
▁maps	-13.7478
ici	-13.748
Chuckles	-13.7481
▁Cre	-13.7481
▁hers	-13.7481
bound	-13.7483
▁manners	-13.7491
▁ar	-13.7494
▁fighter	-13.7495
▁couch	-13.7496
▁input	-13.7499
▁abstract	-13.7499
▁trigger	-13.7501
SIGHS	-13.7502
▁Eventually	-13.7502
▁Hampshire	-13.7502
▁Jamaica	-13.7502
▁inflation	-13.7502
▁influential	-13.7502
▁terrific	-13.7502
▁Mumbai	-13.7502
▁puppy	-13.7502
▁tendency	-13.7502
▁summit	-13.7502
▁rugby	-13.7502
▁Wright	-13.7503
▁Diana	-13.7503
▁frankly	-13.7503
▁deaf	-13.7503
▁dining	-13.7503
▁pissed	-13.7503
▁overcome	-13.7504
▁neutral	-13.7504
▁recommended	-13.7504
▁beam	-13.7504
▁coral	-13.7504
▁losses	-13.7504
▁moderate	-13.7504
▁sealed	-13.7505
▁Abdul	-13.7505
▁discussing	-13.7508
▁secretly	-13.7508
▁planted	-13.7511
rre	-13.7513
▁Monte	-13.7513
▁dreamed	-13.7514
▁Pr	-13.7515
▁Yama	-13.7516
▁Wil	-13.7525
mor	-13.7525
▁bark	-13.7527
eni	-13.753
▁sigh	-13.7535
▁photographer	-13.7536
▁weigh	-13.7538
gia	-13.7542
stein	-13.7542
bag	-13.7543
▁Burke	-13.7543
▁peasants	-13.7543
hearted	-13.7544
▁1999.	-13.7544
▁Plan	-13.7546
▁Low	-13.7547
▁engineers	-13.7548
▁3:	-13.7549
▁Kid	-13.7551
▁Vol	-13.7559
▁aw	-13.7562
▁Romans	-13.7567
▁colleges	-13.7573
▁12.	-13.7574
▁helicopter	-13.7574
▁clause	-13.7574
white	-13.7575
▁nail	-13.7576
▁Ward	-13.7577
▁drawer	-13.758
▁realm	-13.7583
tsu	-13.7585
▁Easter	-13.7589
▁Bear	-13.7591
▁shallow	-13.7591
▁Russ	-13.7594
gio	-13.7594
▁pla	-13.7596
▁sketch	-13.7596
▁excess	-13.7597
▁Isaac	-13.7597
▁Peninsula	-13.7597
▁guidance	-13.7597
▁illusion	-13.7597
▁overseas	-13.7597
▁surviving	-13.7597
▁Railroad	-13.7597
▁Support	-13.7597
▁featuring	-13.7597
▁wrist	-13.7597
▁JUST	-13.7597
▁Finland	-13.7597
▁automatically	-13.7597
▁batteries	-13.7597
▁Arnold	-13.7597
▁loyalty	-13.7597
▁timber	-13.7597
▁Radha	-13.7597
▁NOW	-13.7597
▁evidently	-13.7597
▁Bloody	-13.7597
▁neuro	-13.7597
▁betrayed	-13.7598
▁marble	-13.7598
▁Gentlemen	-13.7598
▁Hungary	-13.7599
▁dresses	-13.7599
▁cigar	-13.76
▁begging	-13.7602
▁fro	-13.7604
▁Ole	-13.7604
▁flock	-13.7606
▁tweet	-13.7606
▁searched	-13.7606
▁molecules	-13.7613
▁DE	-13.7615
adi	-13.7616
bul	-13.7617
fore	-13.7617
▁Linda	-13.7618
▁instrumental	-13.7625
▁Jew	-13.7625
abi	-13.7626
▁Ak	-13.7631
▁exceptions	-13.7633
▁fi	-13.7636
▁Fund	-13.7636
▁ruins	-13.7641
lid	-13.7643
▁Italians	-13.7644
shalt	-13.7651
▁tag	-13.7652
oil	-13.7652
▁fist	-13.7657
▁1923	-13.7659
RT	-13.7661
del	-13.7662
▁Kay	-13.7665
▁insult	-13.7666
▁estimate	-13.7667
▁encounter	-13.7668
▁convert	-13.7669
▁virtue	-13.7669
▁advise	-13.7676
▁Common	-13.7678
asi	-13.7678
▁Croatian	-13.7678
▁lane	-13.7683
▁cruise	-13.7683
hel	-13.7685
▁Br	-13.7686
▁graves	-13.7687
▁gri	-13.7687
▁Program	-13.7688
▁Bengal	-13.7689
▁ls	-13.7689
CA	-13.769
▁restore	-13.769
▁medieval	-13.7692
▁squeak	-13.7692
▁Basketball	-13.7692
▁preparing	-13.7692
▁laboratory	-13.7692
▁boundaries	-13.7692
▁rainbow	-13.7692
▁Authority	-13.7692
▁flung	-13.7692
▁Ellis	-13.7692
▁headache	-13.7692
asted	-13.7693
▁brass	-13.7693
▁devoted	-13.7693
▁borrowed	-13.7694
▁Along	-13.7695
iling	-13.7696
▁secured	-13.7697
▁torn	-13.7702
▁cooling	-13.7704
▁idle	-13.771
▁gardens	-13.7712
▁heels	-13.7714
aleh	-13.7723
▁Martha	-13.7727
▁diamonds	-13.7727
▁Kids	-13.7728
▁Hog	-13.7731
▁dee	-13.7732
▁shadows	-13.7738
▁Shah	-13.7738
▁composers	-13.7739
▁Swa	-13.7748
▁winners	-13.7749
CT	-13.7757
▁symbols	-13.7758
▁fo	-13.776
each	-13.776
los	-13.7764
▁blade	-13.777
▁enters	-13.7778
eal	-13.7781
▁audio	-13.7784
▁Might	-13.7784
▁retain	-13.7785
▁precise	-13.7787
▁consistent	-13.7788
ppe	-13.7788
▁Draft	-13.7788
▁Fremantle	-13.7788
▁PlayStation	-13.7788
▁exposure	-13.7788
▁intestine	-13.7788
▁privacy	-13.7788
▁qualities	-13.7788
▁scenario	-13.7788
▁Venice	-13.7788
▁squire	-13.7788
▁thomas	-13.7788
▁steak	-13.7788
▁Metropolitan	-13.7788
▁forehead	-13.7788
▁Trump	-13.7788
▁cottage	-13.7789
▁planes	-13.7789
▁traitor	-13.7789
▁cheating	-13.779
▁LAUGHTER	-13.779
▁Sparta	-13.779
▁Lar	-13.7791
▁WELL	-13.7791
▁finest	-13.7791
▁bowed	-13.7792
▁distress	-13.7792
▁electrons	-13.7792
▁Front	-13.7793
▁Away	-13.7796
▁browser	-13.7797
▁spreading	-13.7797
dimensional	-13.7801
Cl	-13.7804
▁Fran	-13.781
rge	-13.7815
▁tide	-13.7829
▁Crow	-13.783
▁ballet	-13.7832
dol	-13.7835
▁Hy	-13.7836
▁Sciences	-13.7841
▁Hat	-13.7842
pol	-13.7842
▁murders	-13.7846
ously	-13.7848
rah	-13.7849
▁backs	-13.7851
▁ghosts	-13.7852
AY	-13.7853
▁FA	-13.7854
rew	-13.7854
▁gig	-13.7857
pel	-13.7861
osi	-13.7861
▁savage	-13.7862
▁consequence	-13.7863
position	-13.7863
▁dancer	-13.7866
▁Ter	-13.7866
▁wasting	-13.7866
▁Add	-13.7868
▁nomi	-13.7868
body	-13.7869
▁Ale	-13.787
game	-13.7875
▁Code	-13.7879
▁footballer	-13.7883
▁roar	-13.7883
▁Bulgaria	-13.7885
▁Plymouth	-13.7885
▁Rebecca	-13.7885
▁abundant	-13.7885
▁chimney	-13.7885
▁testimony	-13.7885
▁Global	-13.7885
▁paragraph	-13.7885
▁Bureau	-13.7885
▁Chandler	-13.7885
▁permitted	-13.7885
▁progressive	-13.7885
▁Forgive	-13.7885
▁robbery	-13.7885
▁wilt	-13.7885
▁minority	-13.7885
▁embarrassed	-13.7886
▁domain	-13.7886
▁sitcom	-13.7886
▁LEO	-13.7886
list	-13.7886
▁relieved	-13.7886
▁subway	-13.7886
▁wealthy	-13.7887
▁commerce	-13.7887
▁guitarist	-13.7887
▁marched	-13.7888
▁commitment	-13.7888
▁traditionally	-13.7889
▁Blood	-13.7889
▁Tall	-13.7891
▁kicking	-13.7891
▁Friends	-13.7896
▁marketing	-13.7897
▁Kirk	-13.7897
▁publicly	-13.7897
▁Abb	-13.7902
▁regulations	-13.7903
▁nu	-13.7905
▁chew	-13.7907
▁drums	-13.7908
▁1904	-13.791
▁contributions	-13.7912
▁rape	-13.7912
▁tourists	-13.7913
RY	-13.7914
▁1995.	-13.7917
▁1996.	-13.7921
rak	-13.7923
▁Med	-13.7926
Mu	-13.7928
▁sheets	-13.7934
▁corners	-13.7937
▁Barr	-13.794
▁fold	-13.7945
▁hack	-13.7955
▁UH	-13.7956
load	-13.7957
▁extend	-13.7957
▁sy	-13.7958
▁hood	-13.7958
▁expense	-13.7961
▁bombs	-13.7962
usa	-13.7962
Sc	-13.7968
▁circles	-13.7969
osh	-13.797
▁complaint	-13.7971
ids	-13.7972
Dear	-13.7977
yer	-13.7977
▁decline	-13.7981
▁Fight	-13.7982
▁export	-13.7982
▁exclusive	-13.7982
▁solemn	-13.7983
inaudible	-13.7983
▁Gabriel	-13.7983
▁Jeremy	-13.7983
▁geometry	-13.7983
▁manufacturing	-13.7983
▁psychological	-13.7983
▁scoring	-13.7983
▁swore	-13.7983
▁tobacco	-13.7983
▁Voice	-13.7983
▁straw	-13.7983
▁Yugoslavia	-13.7983
▁Review	-13.7983
▁plague	-13.7983
▁Leonard	-13.7984
▁drowned	-13.7984
▁Highway	-13.7984
▁calculated	-13.7985
▁density	-13.7985
▁Burma	-13.7986
▁chased	-13.7987
▁glanced	-13.7987
▁clay	-13.7987
▁flank	-13.7988
▁fork	-13.7988
▁slot	-13.7989
▁Greeks	-13.7991
▁rely	-13.7994
▁imagined	-13.7995
▁signing	-13.7996
▁processing	-13.7999
▁successor	-13.7999
▁Cast	-13.8
apping	-13.8001
▁1-	-13.8003
▁adam	-13.801
▁papa	-13.8011
▁Sta	-13.8013
▁Side	-13.8016
stand	-13.8018
bor	-13.8021
▁Peru	-13.8025
▁inward	-13.8025
▁Catch	-13.8027
▁procession	-13.8028
hwa	-13.8032
▁4-	-13.8035
▁20.	-13.8035
▁Dor	-13.8038
▁Sri	-13.8041
amed	-13.8042
weight	-13.8044
ater	-13.8045
▁EP	-13.8047
▁medication	-13.8059
▁colleague	-13.806
▁improvement	-13.806
Tell	-13.8063
▁1990,	-13.8065
▁dealer	-13.8068
▁acc	-13.8068
▁concentrate	-13.808
▁polite	-13.8081
▁radical	-13.8081
▁definite	-13.8081
▁absurd	-13.8082
▁Var	-13.8082
Applause	-13.8082
▁Alabama	-13.8082
▁Cricket	-13.8082
▁Gibbs	-13.8082
▁Giralda	-13.8082
▁adjacent	-13.8082
▁continuing	-13.8082
▁fascinating	-13.8082
▁cathedral	-13.8082
▁criteria	-13.8082
▁occasional	-13.8082
▁accessible	-13.8082
▁spear	-13.8082
▁ditch	-13.8083
▁Globe	-13.8083
▁Vance	-13.8083
▁sighed	-13.8084
▁severely	-13.8084
▁senses	-13.8084
▁examined	-13.8084
▁ultimate	-13.8084
▁Tel	-13.8086
▁Joey	-13.8087
▁Promise	-13.8088
▁bombing	-13.8088
▁pronounced	-13.8089
▁treating	-13.809
▁grapes	-13.8094
yes	-13.8098
▁lawyers	-13.8098
uf	-13.8105
▁Tro	-13.8105
▁Bali	-13.8112
race	-13.8113
▁populations	-13.8114
▁Thor	-13.8114
UC	-13.8116
cH	-13.8117
▁pad	-13.8118
▁arrangements	-13.8119
▁rib	-13.8124
▁habits	-13.8124
▁namely	-13.8127
▁Case	-13.8133
▁forming	-13.8133
rod	-13.8134
▁Mala	-13.8141
▁sch	-13.8143
▁Ana	-13.8148
▁op	-13.815
▁transform	-13.8154
▁Rev	-13.8157
▁privilege	-13.8158
▁fraction	-13.816
Billboard	-13.816
▁instruction	-13.8161
▁collections	-13.8162
▁clip	-13.8162
itude	-13.8162
osis	-13.8167
▁texts	-13.8169
alf	-13.8172
rail	-13.8174
▁suits	-13.8175
▁shade	-13.818
▁multiply	-13.818
▁Transport	-13.8182
▁Medicine	-13.8182
▁arguing	-13.8182
▁rebellion	-13.8182
▁worries	-13.8182
▁neighbourhood	-13.8182
▁Hudson	-13.8182
▁yummy	-13.8182
▁Sophie	-13.8182
▁Hannah	-13.8182
▁obliged	-13.8183
▁framework	-13.8183
▁honourable	-13.8183
wick	-13.8183
▁Mister	-13.8183
▁dismissed	-13.8183
▁liar	-13.8183
▁undertake	-13.8183
▁increasingly	-13.8184
▁heroes	-13.8184
▁soccer	-13.8184
▁offense	-13.8184
▁delayed	-13.8185
▁Troll	-13.8185
▁poured	-13.8185
▁defended	-13.8185
▁heal	-13.8185
▁crashed	-13.8186
cosidodecahedron	-13.8187
▁rescued	-13.8187
▁traveled	-13.8189
▁rave	-13.8191
▁heap	-13.8195
▁Seeing	-13.8205
▁Mason	-13.8211
aa	-13.8215
ssel	-13.8217
▁wig	-13.822
▁2021.	-13.822
CC	-13.8222
via	-13.8224
▁arrives	-13.8229
▁mall	-13.823
▁2020.	-13.8233
aste	-13.8235
▁MP	-13.8238
▁camps	-13.8238
▁meals	-13.824
ander	-13.8245
▁Stra	-13.8245
▁hates	-13.8254
▁mono	-13.8254
▁sunk	-13.8255
▁spider	-13.826
▁portrait	-13.826
▁instinct	-13.826
▁opponent	-13.8261
▁server	-13.8263
ime	-13.8266
▁scales	-13.8266
▁Hear	-13.8269
dal	-13.827
▁1922	-13.8271
eyes	-13.8272
after	-13.8279
Li	-13.828
▁spill	-13.828
▁Bab	-13.8282
▁urgent	-13.8283
▁Aboriginal	-13.8283
▁Crawford	-13.8283
▁Language	-13.8283
▁christmas	-13.8283
▁currency	-13.8283
▁glorious	-13.8283
▁apprentice	-13.8283
▁Pearl	-13.8283
▁Perkins	-13.8283
▁sphere	-13.8283
▁Felix	-13.8283
▁Derek	-13.8283
▁Thailand	-13.8283
▁Abbey	-13.8283
▁Alexandria	-13.8283
▁queue	-13.8283
▁Logan	-13.8283
▁Village	-13.8284
▁Whoever	-13.8284
▁Helena	-13.8284
▁folded	-13.8285
▁reflected	-13.8285
▁Bristol	-13.8285
▁spur	-13.8285
▁HOW	-13.8286
▁sharply	-13.8286
▁alternate	-13.8287
▁firmly	-13.8287
▁reactor	-13.8288
▁Examples	-13.829
▁cents	-13.8291
▁Nurse	-13.8295
Wi	-13.8296
▁Keith	-13.8297
▁crayons	-13.8301
▁colored	-13.8302
▁Pla	-13.8304
ump	-13.8305
▁Bart	-13.8306
▁guessed	-13.8307
▁1915	-13.8309
▁flames	-13.8312
▁buck	-13.8313
▁wh	-13.8316
▁dual	-13.8316
▁Auto	-13.8317
hall	-13.8317
wai	-13.832
▁basin	-13.832
bee	-13.8322
▁1909	-13.8332
▁lest	-13.8337
▁Gal	-13.8338
▁Acc	-13.8341
ili	-13.8341
▁roller	-13.8343
cio	-13.8347
ij	-13.8352
▁channels	-13.8354
▁Break	-13.8357
▁barrier	-13.8363
▁signature	-13.8363
Laughs	-13.8364
ridge	-13.8364
▁Sport	-13.8364
Give	-13.8365
▁admire	-13.8367
▁wasted	-13.8367
▁15.	-13.8367
▁spit	-13.8374
▁temperatures	-13.8374
▁skip	-13.8376
lang	-13.8377
UM	-13.8377
▁grim	-13.8379
▁Morris	-13.8382
▁Jess	-13.8382
▁Fri	-13.8382
dies	-13.8382
▁sneak	-13.8382
▁drain	-13.8383
mma	-13.8384
▁lists	-13.8384
▁apparent	-13.8384
AA	-13.8385
▁intent	-13.8385
▁Hebrew	-13.8385
▁Nigeria	-13.8385
▁Yvonne	-13.8385
▁fantasy	-13.8385
▁legitimate	-13.8385
▁significance	-13.8385
▁spark	-13.8385
▁eagle	-13.8385
▁Leslie	-13.8385
▁database	-13.8385
▁zinc	-13.8385
▁bacon	-13.8385
▁interference	-13.8385
▁Gallery	-13.8385
▁trousers	-13.8385
▁parrot	-13.8385
▁Maggie	-13.8385
▁misery	-13.8385
▁subtle	-13.8385
."--_	-13.8386
ANT	-13.8386
▁scholarship	-13.8386
▁inspector	-13.8386
▁witnesses	-13.8387
▁Ming	-13.8388
▁magnetic	-13.8388
▁racial	-13.8388
▁Nope	-13.839
▁Rangers	-13.8392
▁shapes	-13.8393
▁ranking	-13.8395
▁Glass	-13.8395
▁sticking	-13.8395
▁explaining	-13.8396
▁Nina	-13.8401
▁reporting	-13.8401
▁Leader	-13.8401
▁Farm	-13.8402
▁openly	-13.8406
▁Dong	-13.8406
▁troop	-13.8407
▁themes	-13.8408
▁atomic	-13.8409
▁Salt	-13.8411
▁nails	-13.8412
IES	-13.8415
▁Hm	-13.8417
NE	-13.8422
ject	-13.8427
▁charts	-13.8437
amo	-13.8438
lets	-13.8438
dog	-13.844
▁1900	-13.8442
▁twins	-13.8442
▁Wy	-13.8442
▁Lang	-13.8444
▁Nana	-13.8444
▁ja	-13.8446
roy	-13.845
love	-13.8455
▁ministers	-13.8457
omb	-13.8461
▁peep	-13.8465
▁diaper	-13.8466
▁transformation	-13.8466
minute	-13.8468
kov	-13.8472
aco	-13.8473
vie	-13.8473
▁email	-13.8477
▁ab	-13.848
tho	-13.8483
ggy	-13.8487
▁subsequent	-13.8487
▁virgin	-13.8488
▁brutal	-13.8488
▁Chelsea	-13.8488
▁Orthodox	-13.8488
▁assembly	-13.8488
▁graduation	-13.8488
▁liquor	-13.8488
▁Obama	-13.8488
▁petrol	-13.8488
▁societies	-13.8488
▁thither	-13.8488
force	-13.8488
▁starving	-13.8488
▁Aaron	-13.8489
▁Danish	-13.8489
▁ashes	-13.8489
▁Kyle	-13.8489
▁coffin	-13.849
▁shortest	-13.849
▁resolved	-13.849
▁Edgar	-13.849
▁leaning	-13.849
illo	-13.8491
▁screwed	-13.8491
▁plainly	-13.8491
▁grandson	-13.8492
▁defending	-13.8492
▁pretended	-13.8493
▁Cary	-13.8494
▁sentenced	-13.8494
▁blocked	-13.8495
▁Mitch	-13.8496
▁Ac	-13.8496
▁onwards	-13.85
▁Imagine	-13.8501
▁songwriter	-13.8502
lier	-13.8503
▁borough	-13.8503
▁Croatia	-13.8505
seven	-13.8509
▁Lai	-13.8511
iba	-13.8513
▁topics	-13.8522
▁codes	-13.8531
type	-13.8533
▁dose	-13.8537
inch	-13.8538
▁ni	-13.8538
▁Ski	-13.8541
▁peer	-13.8546
▁champions	-13.8548
mph	-13.855
sign	-13.8561
rup	-13.8561
▁Mega	-13.8562
▁FM	-13.8562
▁Nation	-13.8566
▁magazines	-13.8568
people	-13.8571
Hello	-13.8571
▁attraction	-13.8571
▁Sang	-13.8572
▁Sing	-13.8578
▁Speak	-13.8586
▁fools	-13.8587
sca	-13.8589
▁engage	-13.8589
▁patron	-13.8592
CHUCKLES	-13.8592
responsibilities	-13.8592
▁Answer	-13.8592
▁Buddhist	-13.8592
▁DOWN	-13.8592
▁imperial	-13.8592
▁hydrogen	-13.8592
▁stabbed	-13.8592
▁copyright	-13.8593
▁perception	-13.8593
▁crushed	-13.8593
▁veil	-13.8593
bla	-13.8593
▁precisely	-13.8593
dding	-13.8593
▁AFC	-13.8594
▁humour	-13.8594
▁interface	-13.8594
▁Nebraska	-13.8594
▁Whose	-13.8596
▁loser	-13.8597
▁solved	-13.8599
uarter	-13.86
▁damned	-13.86
▁examine	-13.8601
tted	-13.8602
▁organisms	-13.8607
▁contracts	-13.8609
try	-13.8609
lN	-13.8611
self	-13.8617
▁shh	-13.8618
▁Careful	-13.8618
▁Works	-13.862
▁pp	-13.8625
loc	-13.8632
▁vo	-13.8638
▁Marco	-13.864
▁supports	-13.8647
:"	-13.865
▁Juliet	-13.8651
▁1977	-13.8651
ii	-13.866
thi	-13.8666
▁Gri	-13.8669
▁associate	-13.8675
▁civilian	-13.8676
▁closes	-13.8676
Please	-13.8676
shirt	-13.8676
▁scan	-13.8677
▁pistol	-13.8678
▁Row	-13.8681
▁Spa	-13.8681
▁Ger	-13.8683
▁Gol	-13.8687
mini	-13.8687
▁TR	-13.8689
▁Eli	-13.8693
uestion	-13.8694
▁republic	-13.8695
▁inhabit	-13.8696
▁furious	-13.8697
▁Cambodia	-13.8698
▁Information	-13.8698
▁Salzburg	-13.8698
▁gratitude	-13.8698
▁measuring	-13.8698
▁presumably	-13.8698
▁reducing	-13.8698
▁Miranda	-13.8698
▁gauge	-13.8698
▁Emerson	-13.8698
▁Lennon	-13.8698
▁forbidden	-13.8698
▁interchange	-13.8698
▁patrol	-13.8698
▁Russell	-13.8698
▁waking	-13.8698
▁collaboration	-13.8698
▁Portland	-13.8698
▁thirsty	-13.8698
▁emerged	-13.8699
▁footage	-13.8699
ool	-13.8699
▁timing	-13.8699
▁whatsoever	-13.8699
▁scrap	-13.87
▁manufactured	-13.87
▁breeding	-13.87
▁manual	-13.87
▁leak	-13.8701
▁modest	-13.8702
▁overnight	-13.8703
▁lust	-13.8705
▁filed	-13.8705
▁shells	-13.8707
stra	-13.8708
▁travels	-13.8709
hold	-13.8712
▁1998.	-13.8713
Gr	-13.8715
▁1912	-13.8718
▁remarks	-13.8719
Din	-13.8719
ography	-13.8719
atic	-13.8723
ivi	-13.8725
▁counts	-13.8725
▁indoor	-13.8726
▁Ellen	-13.8726
▁Kenta	-13.8726
▁bury	-13.8728
▁organs	-13.873
▁Pit	-13.8734
▁pu	-13.8735
▁8-	-13.8735
▁photographs	-13.8738
oured	-13.8742
▁experts	-13.8743
▁Kara	-13.8747
▁Daw	-13.8747
▁bur	-13.875
▁Ol	-13.8757
▁cinema	-13.876
raw	-13.8763
▁Ivan	-13.8765
▁1916	-13.8773
▁Hyde	-13.8774
▁melt	-13.8777
▁Clo	-13.8778
▁motive	-13.8782
▁passport	-13.8782
▁costume	-13.8782
tas	-13.8782
▁employee	-13.8783
▁organize	-13.8783
lee	-13.8787
app	-13.8789
▁Donna	-13.879
BA	-13.8792
▁convey	-13.8803
▁provision	-13.8803
▁Attorney	-13.8804
▁Excellent	-13.8804
▁HIM	-13.8804
▁Sierra	-13.8804
▁Testament	-13.8804
▁animation	-13.8804
▁bachelor	-13.8804
▁curiosity	-13.8804
▁entrepreneur	-13.8804
▁jurisdiction	-13.8804
▁monastery	-13.8804
▁nowadays	-13.8804
▁supreme	-13.8804
▁awoke	-13.8804
▁kidnapped	-13.8804
▁coincidence	-13.8804
▁Horace	-13.8804
▁Walsh	-13.8804
▁elementary	-13.8804
▁foster	-13.8804
▁hatred	-13.8804
▁personnel	-13.8805
▁generate	-13.8805
▁suspended	-13.8805
▁Foon	-13.8805
▁injection	-13.8805
▁equipped	-13.8806
▁coastal	-13.8806
gent	-13.8806
▁Getting	-13.8806
▁partial	-13.8807
▁Secret	-13.8807
▁contributed	-13.8807
▁shelf	-13.8808
▁goose	-13.8808
Ka	-13.8809
▁deserted	-13.8809
▁reminded	-13.8809
▁defect	-13.881
▁messed	-13.881
▁honored	-13.881
enter	-13.8811
▁Anglo	-13.8813
▁overhead	-13.8814
▁Marine	-13.8816
▁cries	-13.8818
▁Eagle	-13.8819
▁dimensions	-13.8823
▁1910	-13.8824
▁Nash	-13.8825
wide	-13.8826
▁pays	-13.883
MEN	-13.8831
▁horns	-13.8835
umb	-13.8835
▁fare	-13.8838
▁Wal	-13.8838
Je	-13.8838
bing	-13.8839
▁usage	-13.8841
▁freed	-13.8842
▁mor	-13.8849
▁wires	-13.8849
▁angels	-13.8853
▁Raw	-13.8856
▁championships	-13.8857
elo	-13.8858
▁nurses	-13.8864
▁volumes	-13.8865
▁fails	-13.8866
▁cricketer	-13.8868
▁Dora	-13.8868
▁Mus	-13.887
▁alter	-13.8872
ela	-13.8874
▁deposit	-13.8877
▁dragons	-13.8883
matic	-13.8883
▁readers	-13.8888
world	-13.889
▁highlight	-13.889
▁chains	-13.8893
▁solutions	-13.8897
would	-13.8897
▁Strange	-13.8907
▁grandpa	-13.891
▁bulk	-13.8911
▁mathematical	-13.8911
▁Covenant	-13.8912
▁Columbus	-13.8912
▁Control	-13.8912
▁Enterprise	-13.8912
▁Richmond	-13.8912
▁arriving	-13.8912
▁ceremonies	-13.8912
▁compliment	-13.8912
▁presidency	-13.8912
▁supplement	-13.8912
▁warehouse	-13.8912
▁conversion	-13.8912
▁modified	-13.8912
▁farewell	-13.8912
▁Tyler	-13.8912
▁biology	-13.8912
▁NBC	-13.8912
▁inclined	-13.8912
▁yelling	-13.8913
▁jim	-13.8913
▁insert	-13.8913
▁cancelled	-13.8913
▁likewise	-13.8914
▁Rocky	-13.8915
▁wholly	-13.8915
▁detailed	-13.8915
▁ankle	-13.8916
▁therapy	-13.8917
▁Chair	-13.8919
▁humble	-13.8919
path	-13.892
used	-13.8921
rinda	-13.8924
▁gown	-13.8925
ais	-13.8927
▁influences	-13.8928
▁Economics	-13.8929
▁weekly	-13.8929
▁pill	-13.8929
emi	-13.8931
▁Bus	-13.8933
▁dense	-13.8934
pli	-13.8934
▁cultures	-13.8936
ere	-13.8939
▁stab	-13.8943
▁-(	-13.8943
▁historians	-13.8944
▁Berg	-13.8946
▁Sire	-13.8946
▁Need	-13.8948
▁parks	-13.8952
ompa	-13.8955
azi	-13.8958
▁styles	-13.8959
▁mast	-13.8959
▁Dodge	-13.8961
▁mat	-13.8961
▁Tele	-13.8962
hm	-13.8962
GA	-13.8964
▁Bet	-13.8966
▁Cla	-13.8968
▁pose	-13.8973
▁Seo	-13.8973
▁catherine	-13.8973
▁emphasis	-13.8973
▁jar	-13.8973
)"	-13.8977
ages	-13.8977
▁2022.	-13.8978
▁verb	-13.8979
▁console	-13.8984
PR	-13.8985
bird	-13.8986
Bu	-13.899
▁enable	-13.8996
▁backup	-13.8998
▁sleeve	-13.8998
▁monk	-13.8998
▁ducks	-13.8999
aff	-13.9001
▁mist	-13.9002
▁Touch	-13.9007
▁dive	-13.9007
tar	-13.9008
guard	-13.9012
action	-13.9016
fic	-13.9017
▁detect	-13.9017
▁regime	-13.9018
▁squeeze	-13.9019
▁unexpected	-13.9019
▁LA	-13.902
▁Commonwealth	-13.902
▁Kurdish	-13.902
▁devotion	-13.902
▁dialogue	-13.902
▁enterprise	-13.902
▁heritage	-13.902
▁nevertheless	-13.902
▁possibilities	-13.902
▁replacing	-13.902
▁salad	-13.902
▁cavalry	-13.902
▁Cameron	-13.902
▁clergy	-13.902
▁transmitter	-13.902
▁Jenna	-13.902
▁glue	-13.902
▁Arctic	-13.902
▁hostile	-13.902
▁freezing	-13.9021
King	-13.9021
▁chef	-13.9021
▁classification	-13.9021
▁incredibly	-13.9022
case	-13.9022
▁publishing	-13.9022
▁vague	-13.9023
▁wider	-13.9023
▁Indies	-13.9023
▁Scandinavia	-13.9023
▁correctly	-13.9024
▁flute	-13.9025
itter	-13.9026
▁Herman	-13.9026
▁hence	-13.9027
▁Canal	-13.9032
▁closest	-13.9032
chy	-13.9035
▁coordinates	-13.9037
▁deeds	-13.904
▁Sat	-13.904
▁Sue	-13.9047
Ga	-13.9049
▁Note	-13.905
▁Gee	-13.9051
▁yer	-13.9054
umble	-13.9055
▁SS	-13.9056
▁infections	-13.9058
verse	-13.9059
▁Seth	-13.906
▁snap	-13.9061
▁beasts	-13.9063
present	-13.9063
▁Race	-13.9065
▁4:	-13.9072
▁equations	-13.9077
▁Yang	-13.9078
"--	-13.908
▁Oi	-13.9084
coat	-13.9086
▁Tree	-13.909
▁pinch	-13.9093
▁hosts	-13.9102
▁connections	-13.9106
▁Abu	-13.9107
▁nightmare	-13.9108
▁warrior	-13.9108
GRUNTING	-13.9109
uv	-13.9109
Super	-13.9109
▁Tech	-13.9113
Wait	-13.9116
eyed	-13.912
▁dug	-13.9122
mb	-13.9124
▁Buzz	-13.9127
▁manufacture	-13.9128
▁abandon	-13.9129
ME	-13.9129
▁puppet	-13.913
▁Bahrain	-13.913
▁Natalie	-13.913
▁Nevertheless	-13.913
▁TWO	-13.913
▁Westminster	-13.913
▁pianist	-13.913
▁pneumonia	-13.913
▁steadily	-13.913
▁mischief	-13.913
▁Maurice	-13.913
▁admission	-13.913
▁necklace	-13.913
▁Esther	-13.913
▁Goddamn	-13.913
▁Archie	-13.913
▁Salem	-13.9131
ATE	-13.9131
▁intersection	-13.9131
▁installed	-13.9131
▁utterly	-13.9131
▁helmet	-13.9131
▁wandered	-13.9131
▁complications	-13.9132
▁Paulie	-13.9133
▁Vietnamese	-13.9135
▁WOMAN	-13.9135
▁deserved	-13.9136
▁Arabic	-13.9136
▁farming	-13.9139
▁natives	-13.9139
▁shorts	-13.914
▁Miles	-13.9141
▁Canon	-13.9143
▁knocking	-13.9143
▁boarding	-13.9144
▁Turks	-13.9144
maker	-13.9146
▁Euro	-13.9153
▁wool	-13.9168
▁Gro	-13.9168
mber	-13.917
▁heating	-13.9171
etic	-13.9171
▁paths	-13.9172
▁cheat	-13.9175
arrow	-13.9178
▁Met	-13.9183
guh	-13.9184
▁shooter	-13.9185
▁Hol	-13.919
▁masters	-13.9193
very	-13.9194
▁epic	-13.9195
▁lined	-13.9195
hit	-13.9196
sus	-13.9198
aged	-13.9199
▁fears	-13.9212
▁colon	-13.9216
▁dinosaur	-13.9219
▁clan	-13.9219
▁visitor	-13.9221
▁communist	-13.9222
▁Kam	-13.9225
Com	-13.9229
▁cheerful	-13.923
▁und	-13.9231
rock	-13.9235
▁substitute	-13.9239
▁Gaga	-13.9239
▁resolve	-13.9241
▁trauma	-13.9241
uebec	-13.9241
▁Alliance	-13.9241
▁Bundesliga	-13.9241
▁GONNA	-13.9241
▁Hemingway	-13.9241
▁Military	-13.9241
▁NCAA	-13.9241
▁autumn	-13.9241
▁happier	-13.9241
▁niece	-13.9241
▁rainforest	-13.9241
▁surplus	-13.9241
▁territories	-13.9241
▁Finance	-13.9241
▁Sophia	-13.9241
▁Facebook	-13.9241
▁picnic	-13.9241
▁blacksmith	-13.9241
▁soundtrack	-13.9241
▁Freddy	-13.9241
▁Baldwin	-13.9241
▁lump	-13.9241
▁mansion	-13.9242
▁resignation	-13.9242
▁Legend	-13.9242
▁hardware	-13.9242
▁pepper	-13.9242
▁shipping	-13.9242
▁DID	-13.9242
▁swiftly	-13.9242
▁cowboy	-13.9243
▁Ferdinand	-13.9243
▁Stupid	-13.9243
▁eliminated	-13.9243
▁proceeded	-13.9244
▁Majnun	-13.9244
RN	-13.9245
▁fitting	-13.9247
▁butcher	-13.9252
▁Wong	-13.9255
▁commands	-13.9255
▁Parker	-13.9261
▁Luis	-13.9262
gas	-13.9266
▁Box	-13.9266
▁psycho	-13.9267
ipped	-13.927
Some	-13.927
▁viewers	-13.9271
▁SC	-13.9273
▁forecast	-13.9277
▁stare	-13.9279
▁layers	-13.9281
▁tapes	-13.9286
enberg	-13.9288
hra	-13.9288
▁Kat	-13.9291
▁samples	-13.9292
gel	-13.9293
]:	-13.9293
outs	-13.9295
▁Isle	-13.9296
▁Walt	-13.9297
▁temples	-13.93
uni	-13.9302
▁Gul	-13.9303
PO	-13.9305
▁1902	-13.931
.[1	-13.9312
ines	-13.9319
▁tap	-13.9326
▁sciences	-13.9327
▁remark	-13.933
▁hymn	-13.9331
▁11.	-13.9333
▁Lear	-13.9333
keeper	-13.9335
dio	-13.9335
▁poster	-13.9337
urd	-13.9338
▁heavens	-13.9339
▁Unit	-13.934
▁SEE	-13.934
hir	-13.9342
▁Eyes	-13.9342
▁economics	-13.9346
bre	-13.9349
▁piss	-13.9351
ivo	-13.9353
▁Algeria	-13.9354
▁Barcelona	-13.9354
▁Dublin	-13.9354
▁Gospel	-13.9354
▁Mercury	-13.9354
▁Senior	-13.9354
▁competing	-13.9354
▁intervention	-13.9354
▁luxury	-13.9354
▁manuscript	-13.9354
▁motivation	-13.9354
▁recipe	-13.9354
▁removal	-13.9354
▁sergeant	-13.9354
▁conquest	-13.9354
▁sensible	-13.9354
▁compelled	-13.9354
▁Mustang	-13.9354
rez	-13.9354
▁lemon	-13.9354
▁Petty	-13.9354
▁Powell	-13.9354
▁continually	-13.9354
▁sunset	-13.9354
▁retail	-13.9354
▁inherited	-13.9354
▁Taking	-13.9354
▁retained	-13.9355
▁approaches	-13.9356
▁WORK	-13.9356
▁transmission	-13.9357
▁Iranian	-13.9357
▁printing	-13.9358
▁cited	-13.9359
▁elect	-13.9359
▁sting	-13.936
▁collapsed	-13.936
▁Leima	-13.9362
▁Romeo	-13.9363
▁coaching	-13.9365
▁coup	-13.9367
▁runner	-13.9368
dition	-13.9369
▁dim	-13.937
wind	-13.937
cke	-13.9371
▁saints	-13.9376
▁Near	-13.9377
▁1993.	-13.9379
▁complaints	-13.938
▁rows	-13.938
▁Staff	-13.9382
▁blend	-13.9382
person	-13.9383
▁Champions	-13.9384
char	-13.9384
▁fossils	-13.9386
▁Prof	-13.9386
dad	-13.9393
▁utter	-13.9393
oz	-13.9394
HE	-13.9397
▁Rad	-13.9397
▁poems	-13.9398
rmo	-13.9402
▁submit	-13.9404
----	-13.9406
▁moo	-13.9406
▁Found	-13.9411
akh	-13.9421
▁printer	-13.9421
▁boards	-13.9429
▁settlements	-13.9435
▁Bol	-13.9435
▁ham	-13.9436
train	-13.9437
▁sponsor	-13.9443
▁Cham	-13.9443
▁volunteer	-13.9443
title	-13.9444
▁doctrine	-13.9445
▁5-	-13.9445
▁saint	-13.9445
▁corpse	-13.9445
▁lame	-13.945
▁conversations	-13.9452
▁whale	-13.9454
angled	-13.9454
▁farms	-13.9461
▁possess	-13.9464
▁demonstrate	-13.9465
▁calculate	-13.9465
▁immense	-13.9467
▁download	-13.9467
song	-13.9467
▁Tournament	-13.9467
▁encouraging	-13.9467
▁phenomenon	-13.9467
▁torpedo	-13.9467
▁turbine	-13.9467
▁jolly	-13.9467
▁residential	-13.9467
▁shaft	-13.9467
▁chaos	-13.9467
▁moonlight	-13.9467
▁Potter	-13.9468
▁Moreover	-13.9468
▁LET	-13.9468
▁amusement	-13.9468
tions	-13.9468
▁Annie	-13.9468
▁inquired	-13.9468
▁competitive	-13.9468
▁desperately	-13.9469
▁Whenever	-13.9469
▁SPEAKER	-13.9469
▁surrendered	-13.947
▁centimeters	-13.947
▁handful	-13.947
▁wiped	-13.9471
▁safer	-13.9472
▁idol	-13.9472
▁Batman	-13.9473
bha	-13.9473
▁suggesting	-13.9473
▁Workers	-13.9474
aci	-13.9475
▁Pierre	-13.9475
▁prints	-13.9478
▁voters	-13.9479
▁specially	-13.948
▁CL	-13.948
▁hum	-13.9482
▁viewed	-13.9482
▁owing	-13.9484
▁Speaking	-13.9485
umbling	-13.9485
▁pur	-13.9488
▁neighbours	-13.9488
▁lightly	-13.9489
▁whales	-13.949
atch	-13.9492
▁cakes	-13.9499
▁Anton	-13.95
owed	-13.95
▁arrows	-13.9502
▁clinic	-13.9503
▁parade	-13.9505
SON	-13.951
▁bla	-13.9518
▁DA	-13.952
fold	-13.9522
▁cont	-13.9524
▁gran	-13.9527
▁recordings	-13.9533
▁communications	-13.9535
▁Cy	-13.9536
aire	-13.9545
▁Years	-13.9549
alo	-13.9553
kins	-13.9555
▁Todd	-13.9556
▁advocate	-13.9558
▁variation	-13.956
▁riot	-13.956
▁employer	-13.956
▁particle	-13.956
▁wears	-13.9561
including	-13.9561
Black	-13.9561
mission	-13.9562
▁athlete	-13.9562
ular	-13.9571
▁behold	-13.9574
▁Nova	-13.9576
pop	-13.9579
▁investigate	-13.958
▁attach	-13.9581
▁Historic	-13.9582
▁absent	-13.9582
▁Cathedral	-13.9582
▁Celtic	-13.9582
▁THINK	-13.9582
▁altitude	-13.9582
▁ambassador	-13.9582
▁crucial	-13.9582
▁predecessor	-13.9582
▁relativity	-13.9582
▁trembling	-13.9582
▁unpleasant	-13.9582
▁Ottawa	-13.9582
▁dentist	-13.9582
▁fortnight	-13.9582
▁Female	-13.9582
▁Harbor	-13.9582
▁Thames	-13.9582
▁Twitter	-13.9582
▁colonial	-13.9582
▁Tamil	-13.9582
▁lawsuit	-13.9582
▁HBO	-13.9582
▁boundary	-13.9582
▁sunlight	-13.9583
▁transportation	-13.9583
▁absorbed	-13.9583
▁Clement	-13.9583
▁elderly	-13.9584
▁transformed	-13.9584
▁Holly	-13.9584
▁premiered	-13.9584
▁yup	-13.9585
▁speeches	-13.9585
hine	-13.9585
▁addresses	-13.9585
▁drafted	-13.9585
▁automatic	-13.9585
▁TIME	-13.9585
▁significantly	-13.9586
▁wheat	-13.9586
▁antibiotics	-13.9587
▁destroying	-13.9588
▁planets	-13.9588
▁bothering	-13.9589
▁unity	-13.9589
▁claiming	-13.9589
▁monthly	-13.9591
▁ingredients	-13.9591
▁Lucky	-13.9591
▁1996,	-13.9592
▁rises	-13.9594
▁supporters	-13.9597
▁mechanics	-13.9598
▁Dex	-13.9605
▁volunteers	-13.9605
deh	-13.9608
aut	-13.9608
▁Commons	-13.961
▁AB	-13.961
uta	-13.9613
▁proposals	-13.9618
eak	-13.9618
▁interact	-13.9621
▁customs	-13.9621
▁Jam	-13.9623
▁directors	-13.9627
▁wage	-13.9629
▁Cer	-13.9629
▁fl	-13.9633
bir	-13.9633
▁Form	-13.9635
▁Vas	-13.9637
▁Lost	-13.964
MS	-13.9641
pie	-13.9643
▁Pack	-13.9648
▁departments	-13.9648
▁qui	-13.9649
▁nests	-13.9652
▁references	-13.9652
▁bail	-13.9652
thing	-13.9653
▁Lie	-13.9657
▁Mall	-13.9659
▁Ec	-13.9659
▁1908	-13.9663
▁temporarily	-13.9663
▁Faith	-13.9664
city	-13.9665
kle	-13.9665
▁Tia	-13.9666
eek	-13.9666
▁flavor	-13.9669
▁Care	-13.9671
▁beggar	-13.9676
▁segment	-13.9676
▁landlord	-13.9676
▁HA	-13.9676
John	-13.9677
why	-13.9678
July	-13.9678
June	-13.9678
":	-13.9681
pic	-13.9681
miss	-13.9682
LS	-13.9683
▁flee	-13.9689
good	-13.9695
▁slice	-13.9697
▁satisfy	-13.9697
▁passionate	-13.9698
▁exploit	-13.9698
▁congregation	-13.9699
▁leisure	-13.9699
▁syndrome	-13.9699
▁Adolf	-13.9699
▁Axel	-13.9699
▁solitary	-13.9699
▁velocity	-13.9699
▁Computer	-13.9699
▁Trevor	-13.9699
▁navy	-13.9699
▁Sallie	-13.9699
▁Movie	-13.9699
▁query	-13.9699
▁unfair	-13.9699
▁revolutionary	-13.9699
▁integrated	-13.9699
▁exclusively	-13.9699
▁lifestyle	-13.97
▁pillar	-13.97
▁Adrian	-13.9701
▁Peak	-13.9701
▁ofthe	-13.9701
hee	-13.9701
▁masses	-13.9701
▁Porter	-13.9702
▁bald	-13.9702
▁magical	-13.9702
▁Scientists	-13.9702
▁awfully	-13.9702
▁Fla	-13.9702
▁flashed	-13.9702
▁prayed	-13.9702
▁struggled	-13.9704
▁Warner	-13.9704
▁Worth	-13.9704
▁commissioned	-13.9706
▁Dig	-13.9711
▁doorway	-13.9713
▁heck	-13.9714
▁limbs	-13.9715
feld	-13.9716
▁Eden	-13.9717
▁hurting	-13.9723
▁vocals	-13.9723
other	-13.9726
▁Bond	-13.9736
▁lighted	-13.9736
rial	-13.9736
▁tails	-13.9738
▁Ard	-13.974
▁Kho	-13.9741
▁protests	-13.9743
▁Gas	-13.9747
▁fr	-13.9748
▁Bit	-13.9752
lade	-13.9753
▁rides	-13.9755
sum	-13.9757
tia	-13.9757
▁fog	-13.9762
▁Chart	-13.9764
▁myth	-13.9777
▁1963	-13.9778
NC	-13.9784
maid	-13.9788
▁pump	-13.979
stick	-13.979
lett	-13.9791
▁relate	-13.9792
because	-13.9795
Na	-13.9796
rist	-13.9797
▁thumb	-13.9799
▁1869	-13.9804
shop	-13.9805
▁predict	-13.981
▁reject	-13.9815
▁dwell	-13.9815
hing	-13.9815
▁vertical	-13.9815
▁guilt	-13.9815
▁compute	-13.9816
GRUNTS	-13.9816
▁Buffalo	-13.9816
▁Corsica	-13.9816
▁Radhika	-13.9816
▁amazed	-13.9816
▁conspiracy	-13.9816
▁ignorance	-13.9816
▁industries	-13.9816
▁rehearsal	-13.9816
▁swung	-13.9816
▁yogurt	-13.9816
▁LIKE	-13.9816
▁widespread	-13.9816
▁Plummer	-13.9816
▁scrub	-13.9816
▁Cruz	-13.9816
▁Freddie	-13.9816
▁Gregory	-13.9816
▁Concha	-13.9816
▁Delhi	-13.9816
▁Prussia	-13.9816
▁Android	-13.9816
▁Previously	-13.9816
sthetic	-13.9816
▁cupboard	-13.9816
▁Fish	-13.9817
▁trumpet	-13.9817
▁laser	-13.9817
▁im	-13.9817
▁Movement	-13.9817
▁Throw	-13.9817
▁fastest	-13.9818
▁replacement	-13.9818
atory	-13.9818
▁taller	-13.9818
▁healing	-13.9818
▁Ian	-13.982
▁Starting	-13.982
www	-13.982
▁hyper	-13.982
itation	-13.9821
▁Mikey	-13.9821
▁cellar	-13.9822
▁generated	-13.9822
mia	-13.9822
▁gaze	-13.9822
Sp	-13.9822
anti	-13.9823
▁Plot	-13.9827
▁Pri	-13.9829
▁garments	-13.983
▁Lea	-13.9831
mis	-13.9834
lung	-13.9834
▁25.	-13.9835
▁Cox	-13.9839
▁har	-13.9839
glo	-13.9843
aging	-13.9843
▁AV	-13.9845
▁Raj	-13.9847
▁Tate	-13.9851
▁roses	-13.9851
▁12-	-13.9853
▁specialist	-13.9855
▁pr	-13.9861
▁Baba	-13.9866
▁5:	-13.9875
▁Mau	-13.9876
hara	-13.9878
▁Ravens	-13.988
▁Andrews	-13.9882
active	-13.9884
▁Dai	-13.9885
▁Mira	-13.9888
▁Bala	-13.9888
▁ink	-13.9889
▁quiz	-13.989
▁Sony	-13.9891
▁concerts	-13.9893
▁Forces	-13.9896
▁MS	-13.9898
▁challenges	-13.9899
dr	-13.9899
wise	-13.99
▁strikes	-13.99
▁Tai	-13.9901
code	-13.9905
▁prizes	-13.9907
▁dial	-13.991
▁vocal	-13.9911
▁exhibit	-13.9911
▁scout	-13.9913
▁alcoholic	-13.9915
▁Reform	-13.9915
▁Dream	-13.9916
▁Lynn	-13.9918
scale	-13.9919
▁Bird	-13.9925
BC	-13.9927
▁16.	-13.9927
Ju	-13.9929
▁epi	-13.9932
▁discharge	-13.9933
▁exile	-13.9933
▁exceed	-13.9934
▁Meredith	-13.9935
▁Nicholas	-13.9935
▁Wagner	-13.9935
▁YEAH	-13.9935
▁computing	-13.9935
▁essence	-13.9935
▁feminist	-13.9935
▁oatmeal	-13.9935
▁offspring	-13.9935
▁withdrew	-13.9935
▁dioxide	-13.9935
▁Athens	-13.9935
▁pigeon	-13.9935
▁Munich	-13.9935
▁Shirley	-13.9935
▁waving	-13.9935
▁horizontal	-13.9935
▁Style	-13.9935
▁blah	-13.9936
▁mindfulness	-13.9936
▁evaluation	-13.9936
▁Smart	-13.9936
▁senator	-13.9936
cylinder	-13.9936
▁Chess	-13.9936
▁Independent	-13.9936
▁dominated	-13.9936
▁stating	-13.9936
▁conquered	-13.9936
▁respectable	-13.9937
quantum	-13.9937
▁halfway	-13.9937
▁complained	-13.9937
▁CLARE	-13.9938
talk	-13.9938
bro	-13.9938
▁aimed	-13.9938
▁execute	-13.9939
▁kilometers	-13.9939
▁toxic	-13.9939
▁focusing	-13.9943
▁blamed	-13.9944
▁packet	-13.9946
▁Ariel	-13.9948
▁researchers	-13.9948
▁poop	-13.9949
▁Lay	-13.9952
▁Iike	-13.9954
▁peoples	-13.9955
icle	-13.9956
▁mag	-13.9958
vat	-13.9959
▁clearing	-13.9964
▁canton	-13.9964
mok	-13.9969
▁questioning	-13.9971
rage	-13.9972
aux	-13.9974
cop	-13.9975
▁sorted	-13.9977
▁bade	-13.998
▁1905	-13.9982
▁wit	-13.9983
▁shaped	-13.9986
rb	-13.9986
une	-13.9987
▁distances	-13.9993
vas	-13.9993
▁affects	-13.9997
mad	-13.9998
ush	-14
Will	-14.0003
urs	-14.0009
▁posts	-14.001
▁1992.	-14.001
▁bri	-14.0011
▁Para	-14.0018
▁BA	-14.0022
▁hedge	-14.0024
▁sings	-14.0027
▁arena	-14.0032
▁diagram	-14.0033
▁demonstration	-14.0033
▁dialect	-14.0033
Woman	-14.0034
Pol	-14.0035
▁regulation	-14.0037
▁7-	-14.0039
KE	-14.0039
▁hunter	-14.004
▁Web	-14.0043
March	-14.0044
▁swords	-14.0045
▁publish	-14.0052
▁disturb	-14.0053
▁sizes	-14.0053
▁loo	-14.0053
CP	-14.0053
▁pioneer	-14.0054
▁mock	-14.0054
▁fortunate	-14.0055
▁Oriental	-14.0055
oga	-14.0055
▁adopt	-14.0056
▁compact	-14.0056
▁Express	-14.0056
▁GEORGE	-14.0056
▁Latvia	-14.0056
▁Sussex	-14.0056
▁admiration	-14.0056
▁automobile	-14.0056
▁consecutive	-14.0056
▁enthusiasm	-14.0056
▁grammar	-14.0056
▁situated	-14.0056
▁squirrel	-14.0056
▁supplied	-14.0056
▁umbrella	-14.0056
▁Universe	-14.0056
▁Weather	-14.0056
▁pussy	-14.0056
abbage	-14.0056
▁insight	-14.0056
▁disappointment	-14.0056
▁Rhine	-14.0056
eux	-14.0056
▁readily	-14.0057
▁descended	-14.0057
▁perceived	-14.0057
▁altered	-14.0057
▁outstanding	-14.0057
▁Making	-14.0058
▁hopeless	-14.0058
▁Jose	-14.0058
▁advised	-14.0058
▁acute	-14.0058
▁canvas	-14.0059
▁sip	-14.006
▁packing	-14.0062
▁flowing	-14.0063
▁wept	-14.0063
▁stripes	-14.0064
▁constitutional	-14.0065
▁Mission	-14.0066
III	-14.0068
bone	-14.007
▁reporter	-14.0071
idal	-14.0071
▁buzz	-14.008
rig	-14.0082
did	-14.0087
▁2"	-14.009
▁lakes	-14.0091
want	-14.0097
arry	-14.0098
idi	-14.0099
kill	-14.0099
rina	-14.0099
▁Dal	-14.0101
▁speakers	-14.0104
▁6:	-14.0104
lights	-14.0105
pet	-14.0109
▁owl	-14.011
▁Meet	-14.0116
▁MI	-14.0119
ota	-14.012
sson	-14.0122
zzi	-14.0122
▁Abd	-14.0125
▁unco	-14.0127
wall	-14.0128
uli	-14.013
▁tips	-14.0133
Par	-14.0134
▁jaw	-14.0136
▁cleaner	-14.014
Ne	-14.0144
▁unions	-14.0145
▁orphan	-14.0155
▁turtle	-14.0155
▁recommendation	-14.0155
Raw	-14.0157
▁Hare	-14.0157
▁hospitals	-14.0157
▁treason	-14.0159
▁Cam	-14.0163
▁missions	-14.0163
great	-14.0163
▁Corr	-14.0167
▁worm	-14.0169
▁announce	-14.017
▁fiddle	-14.017
iting	-14.0172
▁interrupt	-14.0172
Te	-14.0175
▁Pig	-14.0175
▁acknowledge	-14.0176
▁arise	-14.0177
▁Further	-14.0178
▁Century	-14.0178
▁Mandalay	-14.0178
▁astronaut	-14.0178
▁breeze	-14.0178
▁circulation	-14.0178
▁contempt	-14.0178
▁fishermen	-14.0178
▁fountain	-14.0178
▁infrastructure	-14.0178
▁inquiry	-14.0178
▁mathematician	-14.0178
▁smack	-14.0178
▁streak	-14.0178
▁twentieth	-14.0178
▁Hopkins	-14.0178
▁indication	-14.0178
▁prophet	-14.0178
▁prostitute	-14.0178
▁Infantry	-14.0178
▁Naples	-14.0178
▁Travis	-14.0178
▁NEED	-14.0178
▁Manager	-14.0178
▁Seems	-14.0178
▁Cairo	-14.0178
▁Organization	-14.0178
▁Tracy	-14.0178
▁ginger	-14.0178
▁imprisoned	-14.0178
▁keyboard	-14.0178
▁Jump	-14.0178
▁Somalia	-14.0178
▁deliberately	-14.0178
▁Roland	-14.0178
▁isolated	-14.0178
▁Originally	-14.0178
▁confined	-14.0178
▁disturbed	-14.0179
▁cheated	-14.0179
▁Atlantis	-14.018
▁leaned	-14.018
tropolitan	-14.018
▁Garcia	-14.0181
▁ray	-14.0181
▁formally	-14.0181
▁alarmed	-14.0181
test	-14.0182
uaker	-14.0183
▁endure	-14.0183
▁blues	-14.0184
▁maintaining	-14.0184
▁Week	-14.0184
ace	-14.0186
▁Monk	-14.0186
ICK	-14.0187
RED	-14.0188
▁parked	-14.0188
play	-14.0196
tat	-14.0199
ref	-14.0202
grow	-14.0202
▁Milan	-14.0204
kel	-14.0206
▁consumers	-14.0208
▁runway	-14.021
Fe	-14.0216
▁Assyrians	-14.0217
▁scent	-14.0218
▁swa	-14.022
▁bean	-14.0222
▁Bai	-14.0223
▁Andr	-14.0231
▁schemes	-14.0231
▁Roth	-14.0235
▁connects	-14.024
▁festivals	-14.024
▁conventional	-14.0241
▁Ober	-14.0247
erg	-14.0248
▁fees	-14.025
▁Tur	-14.0253
▁cousins	-14.0254
▁AL	-14.0256
▁Tris	-14.0259
zel	-14.026
▁burns	-14.0263
▁hee	-14.0264
▁kite	-14.0264
ATION	-14.0266
▁Java	-14.0267
cas	-14.027
ways	-14.0271
▁neighbour	-14.0277
▁dwarf	-14.0278
▁update	-14.0279
▁Woo	-14.0279
▁genre	-14.0279
ground	-14.0279
them	-14.0282
▁Sultan	-14.0287
▁Mer	-14.0288
▁disgrace	-14.029
▁badge	-14.0291
bia	-14.0293
▁prospect	-14.0293
Our	-14.0296
gram	-14.0297
▁Arena	-14.0299
▁embrace	-14.0299
▁rattle	-14.0299
▁adapt	-14.03
▁Penn	-14.03
▁Tamsui	-14.0301
▁Ukraine	-14.0301
▁auction	-14.0301
▁diversity	-14.0301
▁nonconvex	-14.0301
▁relating	-14.0301
▁sausage	-14.0301
▁sophisticated	-14.0301
▁Consider	-14.0301
▁Melissa	-14.0301
▁shrine	-14.0301
▁rotten	-14.0301
▁Higgins	-14.0301
▁Register	-14.0301
▁probable	-14.0301
▁uncertainty	-14.0301
▁sarah	-14.0301
▁Geoff	-14.0301
▁Montana	-14.0301
▁Oakland	-14.0301
▁ownership	-14.0301
▁corruption	-14.0301
▁stepping	-14.0301
▁Foster	-14.0301
▁Kenya	-14.0301
▁Outside	-14.0302
▁Wilbur	-14.0302
▁diesel	-14.0302
▁mining	-14.0302
▁strictly	-14.0302
mie	-14.0303
▁"".	-14.0303
▁vest	-14.0303
▁persuaded	-14.0303
▁repeatedly	-14.0303
▁Culture	-14.0304
▁Midland	-14.0304
▁dough	-14.0305
▁Hence	-14.0306
wy	-14.0308
EC	-14.0309
▁acquire	-14.0309
▁visa	-14.0309
▁logical	-14.031
▁descendants	-14.031
▁fixing	-14.0312
▁respected	-14.0313
▁gal	-14.0314
wed	-14.0314
▁swamp	-14.0318
▁traded	-14.032
▁Dana	-14.0321
▁token	-14.0325
▁civilians	-14.0328
▁trips	-14.0329
▁expenses	-14.033
logy	-14.0331
▁bob	-14.0334
▁monument	-14.0339
▁Socialist	-14.034
▁depths	-14.0346
▁bananas	-14.0347
▁rot	-14.0352
▁hatch	-14.0354
cation	-14.0355
last	-14.0355
▁associations	-14.0355
▁ITV	-14.0356
DY	-14.0358
▁rabbits	-14.0361
▁Buy	-14.0363
▁monsters	-14.0367
Big	-14.037
roo	-14.0373
▁Kah	-14.0375
▁Brook	-14.0376
▁damp	-14.0379
▁1907	-14.0383
▁restless	-14.0387
▁Steel	-14.0388
▁cluster	-14.0398
▁prom	-14.0399
TION	-14.0403
CS	-14.0403
▁crayon	-14.0404
▁Owen	-14.0404
related	-14.0404
girl	-14.0405
beat	-14.0405
founded	-14.0406
▁outcome	-14.0407
Best	-14.0408
▁Mul	-14.041
Pi	-14.0416
▁trials	-14.0417
▁outline	-14.0417
▁disguise	-14.0424
▁expose	-14.0424
▁casual	-14.0425
▁Cincinnati	-14.0426
▁Construction	-14.0426
▁Crystal	-14.0426
▁Dunkirk	-14.0426
▁Miyamoto	-14.0426
▁Nottingham	-14.0426
▁Phoenix	-14.0426
▁derivative	-14.0426
▁dominant	-14.0426
▁motherfucker	-14.0426
▁rhyme	-14.0426
▁lantern	-14.0426
▁presume	-14.0426
▁Living	-14.0426
▁involvement	-14.0426
▁gym	-14.0426
▁cereal	-14.0426
▁morality	-14.0427
▁Presently	-14.0427
▁cloak	-14.0427
▁Regan	-14.0427
▁Often	-14.0427
▁virtually	-14.0427
▁accidentally	-14.0427
uru	-14.0427
▁bushes	-14.0427
▁Artie	-14.0427
▁eagerly	-14.0427
▁bitterly	-14.0428
▁strongest	-14.0428
▁Somers	-14.0428
▁Apart	-14.0429
▁mentally	-14.0429
▁ross	-14.0429
▁Hop	-14.043
▁attending	-14.0431
▁broadcasting	-14.0432
▁Lovely	-14.0432
▁Turner	-14.0434
▁Palmer	-14.0434
RU	-14.0434
▁homeless	-14.0434
▁hotels	-14.0437
ators	-14.0437
Di	-14.0438
HI	-14.0438
▁marrying	-14.0439
▁poorly	-14.0441
▁Dasht	-14.0443
▁yell	-14.0445
▁Jar	-14.0451
real	-14.0451
▁genes	-14.0451
bid	-14.0451
▁ko	-14.0453
NO	-14.0454
▁Sud	-14.0464
DA	-14.0473
chair	-14.0474
▁Via	-14.0475
▁SH	-14.0477
tti	-14.0478
EM	-14.0485
▁Range	-14.0486
▁charter	-14.0487
▁Josh	-14.0489
tty	-14.0489
ders	-14.0493
ald	-14.0493
▁Glad	-14.0494
▁Israeli	-14.0496
arra	-14.0497
▁streams	-14.0499
ssing	-14.0503
arl	-14.0505
ely	-14.0505
▁hydro	-14.0508
▁SN	-14.0509
mile	-14.0513
▁Rec	-14.0513
mbo	-14.0514
▁Pir	-14.0514
▁Dee	-14.0515
▁Hunt	-14.0516
▁Matter	-14.0518
▁prim	-14.0524
▁backed	-14.0527
OO	-14.0527
CE	-14.0531
father	-14.0531
pal	-14.0531
Nothing	-14.0531
▁distinguish	-14.0532
mine	-14.0532
▁Kre	-14.0533
ees	-14.0536
▁Till	-14.0538
AGE	-14.0538
▁bastards	-14.0542
tell	-14.0543
▁Beau	-14.0544
▁Evans	-14.0544
▁persuade	-14.0551
ologist	-14.0552
▁SE	-14.0552
▁municipal	-14.0553
▁Bermuda	-14.0553
▁Definitely	-14.0553
▁Shutterstock	-14.0553
▁WOULD	-14.0553
▁membrane	-14.0553
▁siege	-14.0553
▁telescope	-14.0553
▁width	-14.0553
▁Studies	-14.0553
▁constitute	-14.0553
▁Mustafa	-14.0553
▁Preston	-14.0553
▁SOME	-14.0553
▁witchcraft	-14.0553
▁pedal	-14.0553
▁surveillance	-14.0553
▁Airlines	-14.0553
▁Gaelic	-14.0553
▁Nepal	-14.0553
▁Bailey	-14.0553
▁Bravo	-14.0553
▁colonies	-14.0553
scribe	-14.0553
▁Honestly	-14.0553
▁Broadcasting	-14.0553
▁spotted	-14.0553
▁potatoes	-14.0553
▁condemned	-14.0553
▁fitted	-14.0553
▁Drew	-14.0553
▁Regiment	-14.0554
▁greeting	-14.0554
▁Rice	-14.0554
proof	-14.0554
▁substantial	-14.0554
▁sufficiently	-14.0555
▁screamed	-14.0555
▁Buddha	-14.0555
▁thriller	-14.0555
▁stout	-14.0555
▁offended	-14.0555
▁declined	-14.0555
bli	-14.0556
▁ignored	-14.0556
▁kilometres	-14.0557
▁separately	-14.0558
▁failing	-14.0558
▁Syriac	-14.0559
▁vol	-14.056
▁tastes	-14.056
▁corrected	-14.056
▁fuss	-14.0562
legged	-14.0562
▁noun	-14.0564
▁collector	-14.0565
▁storms	-14.0565
▁shine	-14.0565
▁tends	-14.0565
▁competitions	-14.0565
▁Mora	-14.0566
▁VII	-14.0566
▁rider	-14.0568
▁Whit	-14.0571
▁jewels	-14.0571
til	-14.0572
▁Eye	-14.0573
aught	-14.0576
▁careless	-14.0576
▁Guide	-14.0578
▁provisions	-14.058
▁boiler	-14.058
▁Bul	-14.058
rom	-14.0582
▁Days	-14.0582
▁BL	-14.0586
▁1911	-14.0587
▁indicates	-14.0588
election	-14.0591
▁1948	-14.0598
▁rated	-14.0604
▁rig	-14.0604
eye	-14.0606
▁App	-14.0607
iers	-14.0608
▁ants	-14.061
▁crane	-14.0611
aving	-14.0612
any	-14.0614
▁pipes	-14.0616
bles	-14.0618
ichi	-14.0622
reh	-14.0625
▁Brent	-14.0626
▁deed	-14.0628
▁centers	-14.063
isco	-14.0639
▁ft	-14.0639
ibility	-14.0639
▁tasks	-14.064
▁pat	-14.0642
▁displays	-14.0645
▁Bid	-14.0648
udd	-14.0651
dez	-14.0652
▁ambition	-14.0658
▁valve	-14.0658
▁initiative	-14.0658
▁interval	-14.0658
half	-14.0659
August	-14.0659
▁cannon	-14.066
keeping	-14.066
▁chickens	-14.0661
▁checks	-14.0663
▁1988.	-14.0663
▁suite	-14.0665
Bar	-14.0666
▁Cond	-14.0667
▁TE	-14.0667
▁Bagh	-14.0668
▁Brit	-14.0668
▁Mai	-14.0675
▁employ	-14.0677
iki	-14.0681
▁Yellow	-14.0681
▁custody	-14.0681
▁muttered	-14.0681
▁paradox	-14.0681
▁regulator	-14.0681
▁theoretical	-14.0681
extraterrestrial	-14.0681
▁FOUR	-14.0681
▁Hawkins	-14.0681
▁Montreal	-14.0681
▁robbed	-14.0681
▁Lydia	-14.0681
▁radar	-14.0681
▁Desert	-14.0681
▁Freedom	-14.0681
▁massacre	-14.0681
▁hastily	-14.0681
▁fridge	-14.0681
▁Boots	-14.0681
▁diverse	-14.0681
▁cunning	-14.0681
▁Canyon	-14.0681
▁Ghost	-14.0681
▁filthy	-14.0681
▁Travel	-14.0681
▁infected	-14.0681
▁wretched	-14.0681
▁Lilly	-14.0682
▁tossed	-14.0682
▁neighbouring	-14.0683
▁anyhow	-14.0683
▁Frankie	-14.0683
▁institute	-14.0683
▁talented	-14.0684
▁Using	-14.0684
pot	-14.0685
▁soda	-14.0686
▁Hamlet	-14.0686
lies	-14.0687
▁Murder	-14.0687
▁rapper	-14.0687
▁Est	-14.0687
▁assuming	-14.0688
▁guardian	-14.0688
▁attempting	-14.069
drop	-14.069
isha	-14.0691
OK	-14.0691
▁pressing	-14.0692
▁VIII	-14.0692
▁practiced	-14.0697
▁expectations	-14.0698
▁stored	-14.0699
date	-14.0699
▁claws	-14.0699
Love	-14.07
isi	-14.0702
sters	-14.0702
▁Ave	-14.0705
cht	-14.0712
▁Intel	-14.0717
▁cigarettes	-14.0717
▁Cons	-14.072
▁Richie	-14.0725
▁7:	-14.0725
▁heated	-14.0728
▁adds	-14.073
gla	-14.0733
incorporated	-14.074
▁sto	-14.0747
atter	-14.0753
▁professors	-14.0758
▁Bri	-14.0762
▁targets	-14.0763
dig	-14.0764
▁Mil	-14.0765
oronation	-14.0765
ugh	-14.0766
▁dimension	-14.077
▁Vic	-14.0779
▁1861	-14.0781
▁interpret	-14.0782
ures	-14.0785
▁1901	-14.0786
faced	-14.0788
▁publisher	-14.0789
April	-14.0789
January	-14.0789
General	-14.0792
▁credits	-14.0792
▁Actor	-14.0793
▁conquer	-14.0794
working	-14.0795
thy	-14.0798
anta	-14.08
grad	-14.0803
▁Large	-14.0806
▁thrill	-14.0806
AND	-14.0808
▁seize	-14.0809
▁sustain	-14.0809
care	-14.081
▁Electric	-14.081
▁sovereign	-14.0811
▁Villa	-14.0811
▁Independence	-14.0811
▁bamboo	-14.0811
▁Andersen	-14.0811
▁Argentine	-14.0811
▁Buddhism	-14.0811
▁IBM	-14.0811
▁Violet	-14.0811
▁abdomen	-14.0811
▁apology	-14.0811
▁confusing	-14.0811
▁jingle	-14.0811
▁necessity	-14.0811
▁occupy	-14.0811
▁voluntary	-14.0811
▁deceased	-14.0811
▁vacuum	-14.0811
▁Urban	-14.0811
▁psychology	-14.0811
▁decay	-14.0811
▁vivid	-14.0811
▁vault	-14.0811
▁cooperation	-14.0811
▁Morton	-14.0811
▁meanwhile	-14.0811
▁greedy	-14.0811
▁patent	-14.0811
▁tractor	-14.0811
▁Jamie	-14.0811
hai	-14.0811
▁Chp	-14.0811
▁1980,	-14.0812
▁merge	-14.0812
▁Verde	-14.0812
▁Circle	-14.0812
▁ANY	-14.0812
▁Antarctica	-14.0812
▁unlikely	-14.0812
▁encountered	-14.0813
▁Andrea	-14.0813
OU	-14.0813
▁paradise	-14.0813
▁lumber	-14.0814
▁deity	-14.0815
▁Daily	-14.0816
▁premises	-14.0816
▁Alberta	-14.0816
▁inscription	-14.0816
▁Louise	-14.0817
▁Wish	-14.0818
▁relics	-14.0822
▁investors	-14.0822
▁lowered	-14.0823
lene	-14.0828
▁Understand	-14.0829
ional	-14.0833
having	-14.0834
▁nope	-14.0834
▁Singh	-14.0836
shaw	-14.0836
MD	-14.0843
▁questioned	-14.0844
▁beak	-14.0851
▁1979.	-14.0852
▁Bennet	-14.0853
▁Rico	-14.0856
Her	-14.086
▁Gang	-14.0861
ished	-14.0862
misunderstanding	-14.0865
cies	-14.0868
sit	-14.0868
▁1870	-14.0871
▁Table	-14.0873
▁pets	-14.0874
▁errors	-14.0876
FL	-14.0877
▁import	-14.0879
▁Ker	-14.0879
▁respects	-14.088
▁ward	-14.0884
brow	-14.0885
▁websites	-14.0886
huck	-14.0896
▁blog	-14.09
▁1991.	-14.09
Art	-14.0901
▁Carr	-14.0903
▁developments	-14.0907
▁Arch	-14.0909
ND	-14.091
▁reads	-14.0915
season	-14.0921
through	-14.0921
▁demons	-14.0923
▁Marsh	-14.0924
IVE	-14.0925
Great	-14.0927
ood	-14.0928
order	-14.0928
▁1906	-14.0933
ige	-14.0936
▁Imp	-14.0937
DS	-14.0938
▁1993,	-14.0939
ffer	-14.0941
▁Rhode	-14.0942
▁spec	-14.0942
GASPS	-14.0942
▁Olivia	-14.0942
▁Pradesh	-14.0942
▁integer	-14.0942
▁portfolio	-14.0942
▁prosecution	-14.0942
▁retiring	-14.0942
▁Lavender	-14.0942
▁Shaolin	-14.0942
▁Halvor	-14.0942
▁gallery	-14.0942
▁hull	-14.0942
▁Background	-14.0942
▁Bastard	-14.0942
▁Darreh	-14.0942
▁Funny	-14.0942
▁Jimmie	-14.0942
▁Denver	-14.0942
▁stool	-14.0942
▁submitted	-14.0942
▁Geneva	-14.0942
▁Standard	-14.0943
▁feedback	-14.0943
▁Rather	-14.0943
▁awareness	-14.0943
▁departed	-14.0943
▁cooperate	-14.0944
▁acceptable	-14.0944
▁madness	-14.0944
▁implementation	-14.0944
▁louder	-14.0946
think	-14.0946
▁hears	-14.0946
▁Snake	-14.0947
▁hooked	-14.0947
▁crosses	-14.0947
▁calmly	-14.0947
▁Cult	-14.0948
▁truncate	-14.0949
▁Stage	-14.095
▁hats	-14.095
▁negotiations	-14.0951
▁watches	-14.0951
▁transit	-14.0951
▁proceedings	-14.0953
▁Classic	-14.0954
▁pasture	-14.0956
▁measurements	-14.0958
▁someday	-14.0959
PC	-14.0962
▁17.	-14.0963
▁1800	-14.0965
▁scar	-14.0966
▁Saints	-14.0969
ggie	-14.097
meter	-14.097
▁Usta	-14.0971
▁boxer	-14.0972
▁risks	-14.0973
▁sour	-14.0973
itz	-14.0974
▁Bone	-14.0976
ulu	-14.0977
▁organisations	-14.0978
dry	-14.0979
▁Saul	-14.0982
▁1990.	-14.0982
▁ol	-14.0984
PT	-14.0985
▁shovel	-14.0986
▁Rao	-14.0989
▁2,000	-14.0997
▁treasures	-14.0998
▁Opera	-14.1006
lag	-14.1008
imo	-14.1009
eau	-14.1009
▁debts	-14.1011
▁Senators	-14.102
▁Pas	-14.1033
▁Ap	-14.1034
▁Wha	-14.1035
fulness	-14.1037
▁parted	-14.104
▁Wh	-14.1041
▁peril	-14.1044
ggle	-14.1045
look	-14.1045
rise	-14.1049
▁Kali	-14.1049
▁Por	-14.1052
▁fiber	-14.1053
▁molecule	-14.1053
▁vegetable	-14.1053
▁requirement	-14.1053
glass	-14.1054
Door	-14.1056
rump	-14.1057
▁herd	-14.1058
▁gut	-14.1065
▁Beg	-14.1065
▁foe	-14.1066
▁CON	-14.1066
▁Diet	-14.1066
Stop	-14.1067
▁Cock	-14.1067
▁gardener	-14.1068
▁Bees	-14.1069
▁Ara	-14.1071
▁meteor	-14.1073
pass	-14.1073
wer	-14.1073
IP	-14.1073
▁refuge	-14.1074
▁echo	-14.1074
▁evident	-14.1075
▁betray	-14.1075
▁uncertain	-14.1076
prehensi	-14.1076
▁Album	-14.1076
▁Ambassador	-14.1076
▁Audrey	-14.1076
▁Behind	-14.1076
▁Correct	-14.1076
▁Discovery	-14.1076
▁Hogarth	-14.1076
▁Jennifer	-14.1076
▁Laxminarayan	-14.1076
▁Raymond	-14.1076
▁Symphony	-14.1076
▁Territory	-14.1076
▁Twelve	-14.1076
▁Wrong	-14.1076
▁investigating	-14.1076
▁nucleus	-14.1076
▁nursing	-14.1076
▁refrigerator	-14.1076
▁tribute	-14.1076
▁grams	-14.1076
▁Gharb	-14.1076
▁bulb	-14.1076
▁singular	-14.1076
▁Finnish	-14.1076
▁attendance	-14.1076
▁Afterwards	-14.1076
▁chorus	-14.1076
▁Randy	-14.1076
▁portrayed	-14.1076
▁originated	-14.1077
▁partially	-14.1077
▁audition	-14.1077
▁annoying	-14.1077
pit	-14.1077
▁penis	-14.1077
▁inferior	-14.1078
▁Lance	-14.1078
▁admired	-14.1078
▁concentrated	-14.1078
▁publicity	-14.1078
▁SP	-14.1079
▁abdominal	-14.1079
▁Working	-14.1079
▁Vincent	-14.108
▁rushing	-14.1081
▁praying	-14.1081
▁Forty	-14.1082
▁switching	-14.1082
▁Vladimir	-14.1082
▁Spaniards	-14.1083
▁sofa	-14.1083
▁trustees	-14.1083
▁wander	-14.1084
▁illustrate	-14.1085
▁AP	-14.1086
▁pence	-14.1087
▁aloud	-14.1088
▁puff	-14.1088
▁messing	-14.109
▁mates	-14.1093
bie	-14.1095
▁trend	-14.1095
▁pupils	-14.1096
anga	-14.1097
lab	-14.11
▁Solo	-14.1101
▁dinosaurs	-14.1103
▁canal	-14.1104
walk	-14.1105
▁improvements	-14.1106
▁wishing	-14.1106
▁TH	-14.1108
▁disk	-14.111
▁thanked	-14.1111
▁Thou	-14.1124
▁Pala	-14.1125
▁Illustration	-14.1126
▁Dame	-14.1128
gang	-14.1129
▁pastor	-14.1131
▁rains	-14.1132
ART	-14.1134
▁dame	-14.1134
▁NE	-14.1135
▁goats	-14.1138
▁profits	-14.114
▁lip	-14.1146
iko	-14.115
▁grades	-14.1158
▁odds	-14.1165
agi	-14.1174
▁ripe	-14.1179
▁interviews	-14.118
▁shirts	-14.1185
▁Article	-14.1188
▁skirt	-14.1188
▁hostage	-14.1189
Girl	-14.1189
UT	-14.1198
▁disagree	-14.1205
▁adequate	-14.121
▁mutual	-14.121
▁Eisenhower	-14.1211
▁Episode	-14.1211
▁Heritage	-14.1211
▁Liberal	-14.1211
▁academy	-14.1211
▁foetus	-14.1211
▁fugitive	-14.1211
▁innovation	-14.1211
▁misfortune	-14.1211
▁stubborn	-14.1211
▁thieves	-14.1211
▁mercury	-14.1211
▁prototype	-14.1211
▁revival	-14.1211
▁accordance	-14.1211
▁Jobling	-14.1211
▁dependence	-14.1211
▁removing	-14.1211
▁Sandford	-14.1211
▁Beatles	-14.1211
▁legendary	-14.1211
▁simultaneously	-14.1211
▁Ahmed	-14.1211
▁underwear	-14.1211
▁Hughes	-14.1212
odice	-14.1212
▁initiated	-14.1212
▁violation	-14.1212
▁dissolved	-14.1212
▁chemist	-14.1212
▁urged	-14.1212
▁limestone	-14.1213
▁buzzing	-14.1213
▁Eleanor	-14.1213
▁spoiled	-14.1213
▁Silence	-14.1213
▁Double	-14.1214
▁authentic	-14.1214
▁reserved	-14.1214
▁teaches	-14.1214
▁mustard	-14.1216
▁sadly	-14.1218
▁Blow	-14.122
▁credited	-14.122
▁suited	-14.1221
MU	-14.1222
▁Trinity	-14.1222
▁applause	-14.1223
ondo	-14.1227
▁surf	-14.1227
▁MUSIC	-14.1228
▁lesser	-14.1229
▁Bud	-14.1229
▁forcing	-14.123
▁axe	-14.1232
▁Tag	-14.1234
▁pine	-14.1238
▁SM	-14.1238
▁sweater	-14.1244
▁atoms	-14.1246
▁Bass	-14.1246
▁Musical	-14.1247
ashi	-14.1247
▁Mills	-14.125
FM	-14.125
▁SPEAK	-14.1252
▁learns	-14.1254
▁publications	-14.1254
gli	-14.1257
▁Rod	-14.1258
▁Sex	-14.1258
opped	-14.1259
▁legends	-14.126
▁receiver	-14.1264
dev	-14.1266
▁savings	-14.1267
▁Blu	-14.127
▁tubes	-14.1271
shed	-14.1277
▁Dec	-14.1278
▁bases	-14.1278
pra	-14.1283
▁Dy	-14.1284
▁extract	-14.1284
▁Af	-14.1286
▁sleeps	-14.1288
▁squares	-14.1293
▁broadcasts	-14.1295
_;	-14.1295
▁lions	-14.1295
DD	-14.1298
▁Phillip	-14.1299
▁criminals	-14.1299
▁IP	-14.13
Ke	-14.1304
▁Maha	-14.1306
selling	-14.1312
▁merit	-14.1313
osa	-14.1316
▁origins	-14.132
rium	-14.1322
ouch	-14.1324
▁adaptation	-14.1325
▁interaction	-14.1325
▁rebel	-14.1326
October	-14.1326
Music	-14.1326
Right	-14.1327
▁audiences	-14.1333
kai	-14.1337
rug	-14.134
▁viola	-14.134
▁1864	-14.134
ider	-14.1342
▁FI	-14.1342
▁confront	-14.1343
▁ram	-14.1343
▁compromise	-14.1346
▁explode	-14.1346
▁lodge	-14.1346
▁accompany	-14.1346
▁corrupt	-14.1346
▁mature	-14.1346
▁tomato	-14.1348
▁Gerald	-14.1348
▁hybrid	-14.1348
▁Associate	-14.1348
▁Climate	-14.1348
▁Confederation	-14.1348
▁Goddess	-14.1348
▁Harriet	-14.1348
▁Prophet	-14.1348
▁Shelton	-14.1348
▁Tropical	-14.1348
▁caterpillar	-14.1348
▁huntsman	-14.1348
▁laundry	-14.1348
▁reservoir	-14.1348
▁sympathetic	-14.1348
▁urine	-14.1348
▁Duncan	-14.1348
▁promising	-14.1348
▁rubbed	-14.1348
▁harmony	-14.1348
▁fisherman	-14.1348
▁Webster	-14.1348
▁bugger	-14.1348
rant	-14.1348
▁Wonderful	-14.1348
▁Cabinet	-14.1348
▁Otto	-14.1348
▁Treaty	-14.1348
▁Lightning	-14.1349
▁Edge	-14.1349
▁annoyed	-14.1349
▁welding	-14.1349
▁floors	-14.1349
▁flushed	-14.1349
▁realistic	-14.1349
▁elite	-14.1349
▁sustained	-14.1349
▁sunny	-14.1349
▁circular	-14.1349
▁startled	-14.135
▁vs	-14.135
▁Yesterday	-14.135
▁expanding	-14.135
▁100,000	-14.1351
▁Panthoibi	-14.1351
▁someplace	-14.1351
▁Reid	-14.1352
▁profound	-14.1352
▁hunted	-14.1352
▁spelled	-14.1352
▁eliminate	-14.1352
▁sheer	-14.1352
▁endless	-14.1354
▁prevented	-14.1355
▁Englishman	-14.1355
▁gaining	-14.1356
▁awhile	-14.1357
▁pork	-14.1357
▁apron	-14.1359
▁==	-14.1359
still	-14.1361
hina	-14.1362
Ta	-14.1362
FF	-14.1362
Du	-14.1363
give	-14.1363
▁Devi	-14.1366
▁donated	-14.1366
▁beautifully	-14.1366
ships	-14.137
▁developers	-14.137
cious	-14.1372
▁Grove	-14.1373
▁costumes	-14.1377
▁metric	-14.1378
▁Shore	-14.138
▁porch	-14.138
ality	-14.1382
▁handy	-14.1383
▁Dur	-14.1385
▁commissioner	-14.1386
▁beep	-14.1386
▁releases	-14.1388
▁suggestions	-14.1388
▁Taka	-14.139
▁sue	-14.1401
▁1989.	-14.1401
▁dove	-14.1408
wig	-14.1415
▁sentimental	-14.1416
▁Rud	-14.142
▁Hank	-14.1426
▁vent	-14.1426
▁SCH	-14.1429
▁pulls	-14.1432
▁Wick	-14.1432
▁Miya	-14.1434
▁Late	-14.1436
ontinental	-14.1439
▁Nas	-14.1439
▁Brain	-14.1439
▁sentences	-14.1439
▁def	-14.1441
umber	-14.1441
BS	-14.1442
▁Amen	-14.1443
mil	-14.1443
▁Rule	-14.1443
▁().	-14.1444
▁SW	-14.1446
▁Ant	-14.1447
▁princes	-14.145
▁drivers	-14.1453
uka	-14.1456
▁combine	-14.1463
▁Mak	-14.1463
▁suburb	-14.1464
▁Athletic	-14.1464
▁Production	-14.1464
▁corporation	-14.1464
yang	-14.1464
profit	-14.1465
February	-14.1465
▁Lamb	-14.1465
second	-14.147
using	-14.147
post	-14.1472
▁paw	-14.1472
▁processor	-14.1472
▁paste	-14.1473
▁Pam	-14.1478
▁edit	-14.1485
▁roast	-14.1485
▁virtual	-14.1486
▁experimental	-14.1486
▁Speed	-14.1487
▁Pedro	-14.1487
▁Professional	-14.1487
▁analyst	-14.1487
▁champagne	-14.1487
▁conservation	-14.1487
▁dessert	-14.1487
▁gambling	-14.1487
▁pandemic	-14.1487
▁perfume	-14.1487
▁seldom	-14.1487
▁summary	-14.1487
▁Guinea	-14.1487
▁Sharqi	-14.1487
▁Florence	-14.1487
▁Winchester	-14.1487
▁varied	-14.1487
▁casualties	-14.1487
▁screenwriter	-14.1487
▁Prague	-14.1487
▁acres	-14.1487
▁Underground	-14.1487
▁Pierce	-14.1487
▁suitcase	-14.1487
▁mainstream	-14.1487
▁Prison	-14.1487
▁probation	-14.1487
▁testify	-14.1487
▁Broad	-14.1487
▁remainder	-14.1487
▁regardless	-14.1487
▁pony	-14.1487
▁declaration	-14.1487
▁abolished	-14.1487
▁tourism	-14.1487
▁Marcel	-14.1487
▁Challenge	-14.1488
▁Training	-14.1488
▁Fairy	-14.1488
▁equality	-14.1488
▁swap	-14.1489
▁Natural	-14.1489
▁illustrated	-14.1489
▁assessment	-14.149
▁potentially	-14.149
▁Sleep	-14.149
▁haul	-14.1491
▁pursued	-14.1491
▁displayed	-14.1493
▁Brock	-14.1496
▁Singles	-14.1497
tom	-14.1501
▁inmates	-14.1501
▁mount	-14.1502
▁NY	-14.1502
▁frost	-14.1502
vir	-14.1502
ibi	-14.1503
▁Hatch	-14.1503
▁Sai	-14.1504
fri	-14.1505
Col	-14.1505
▁Sco	-14.1513
▁evaluate	-14.1514
▁nick	-14.1516
das	-14.1524
▁rested	-14.1525
▁2018)	-14.1527
▁ph	-14.1529
stock	-14.153
wit	-14.1533
▁grains	-14.1534
omme	-14.1534
gne	-14.1537
indian	-14.1539
ax	-14.154
▁Hyo	-14.154
▁Soul	-14.1542
▁aliens	-14.1542
ania	-14.1546
▁faction	-14.1547
▁informal	-14.155
HA	-14.1553
aq	-14.1553
aper	-14.1553
ickle	-14.1555
▁threats	-14.1556
mart	-14.1556
▁1980.	-14.1557
▁Ky	-14.1558
▁Minor	-14.1559
▁2013)	-14.1561
▁deserves	-14.1562
▁WP	-14.1563
▁Ob	-14.1564
uld	-14.157
▁stem	-14.1571
▁Done	-14.1572
graph	-14.1577
ulo	-14.1595
core	-14.1595
flower	-14.1595
▁Less	-14.1596
OC	-14.1599
ambi	-14.1602
MO	-14.1603
▁assumption	-14.1605
▁curtain	-14.1605
▁Studio	-14.1605
▁terrorist	-14.1605
▁teenager	-14.1605
December	-14.1606
mouth	-14.1606
German	-14.1606
▁sur	-14.1606
Jack	-14.1607
▁1982.	-14.1611
▁Sca	-14.1618
▁Kl	-14.1618
eas	-14.162
▁Search	-14.1622
▁stalk	-14.1626
▁slaughter	-14.1627
▁thorough	-14.1627
▁Arkansas	-14.1628
▁CAPTAIN	-14.1628
▁THREE	-14.1628
▁daisy	-14.1628
▁elegant	-14.1628
▁inevitable	-14.1628
▁marvellous	-14.1628
▁oxidation	-14.1628
▁strategies	-14.1628
▁utility	-14.1628
▁violet	-14.1628
▁Regency	-14.1628
▁certified	-14.1628
▁discrimination	-14.1628
▁unemployment	-14.1628
▁burrow	-14.1628
▁Brighton	-14.1628
▁ripped	-14.1628
▁rebuilt	-14.1628
▁postcard	-14.1628
▁bonus	-14.1628
▁Churchill	-14.1628
▁Gustav	-14.1628
▁repay	-14.1628
▁Additionally	-14.1628
▁Patty	-14.1628
▁Labor	-14.1628
▁teenage	-14.1628
▁compilation	-14.1628
▁Stuff	-14.1628
dicating	-14.1628
▁Against	-14.1628
▁Gotta	-14.1629
▁outbreak	-14.1629
▁Leipzig	-14.1629
▁portal	-14.1629
▁Flight	-14.163
▁drift	-14.163
▁rigid	-14.163
▁annually	-14.163
▁Joel	-14.1631
▁cursor	-14.1632
▁pouring	-14.1632
▁Defense	-14.1632
▁diplomat	-14.1633
▁Kr	-14.1633
▁Direction	-14.1633
▁Thai	-14.1634
birds	-14.1635
▁quicker	-14.1635
▁Sant	-14.1635
▁avoided	-14.1636
sama	-14.1638
▁Deep	-14.1639
yst	-14.1639
▁pitcher	-14.164
▁Knock	-14.164
▁Viper	-14.1642
▁raining	-14.1642
▁Rush	-14.1648
▁erect	-14.1648
▁cruiser	-14.1649
UND	-14.1649
▁minerals	-14.1649
▁bout	-14.165
▁Foot	-14.1651
▁MR	-14.1653
▁hunters	-14.1655
▁myths	-14.1655
URE	-14.1656
▁Lots	-14.1657
Fra	-14.1657
▁Teacher	-14.166
ound	-14.1661
OH	-14.1661
▁reserves	-14.1665
▁Saw	-14.1668
▁zoom	-14.1668
▁wu	-14.1671
▁rulers	-14.1672
hung	-14.1673
▁bugs	-14.1675
▁Stro	-14.1676
▁Bend	-14.1678
▁sucks	-14.1678
▁payments	-14.1681
tale	-14.1683
▁productions	-14.1686
▁comrade	-14.1691
eous	-14.1693
MM	-14.1697
▁pickle	-14.1698
page	-14.1699
▁laughs	-14.1699
▁rev	-14.1704
oids	-14.1705
▁dec	-14.1705
▁2015)	-14.1706
▁comrades	-14.1707
▁hive	-14.1707
▁Powers	-14.1708
▁medals	-14.171
mos	-14.171
▁reforms	-14.1712
▁Europeans	-14.1712
▁novelist	-14.1712
▁snub	-14.1713
▁Richards	-14.1723
yah	-14.1731
dance	-14.1743
eased	-14.1745
▁rolls	-14.1745
▁18.	-14.1746
▁generator	-14.1748
▁Democrat	-14.1748
▁Economic	-14.1748
DOOR	-14.1749
November	-14.1749
Total	-14.1749
front	-14.1749
school	-14.1751
▁fella	-14.1752
dha	-14.1754
Cr	-14.1755
▁heel	-14.1755
▁Rem	-14.1757
▁duo	-14.176
yle	-14.1764
OP	-14.1765
▁Bou	-14.1766
▁Erik	-14.1766
▁decrease	-14.1768
step	-14.1769
▁armour	-14.1769
▁respective	-14.177
▁Songshan	-14.177
imbabwe	-14.177
▁Squirrel	-14.177
▁Friedrich	-14.177
▁Kenneth	-14.177
▁Nevada	-14.177
▁Presbyterian	-14.177
▁Seattle	-14.177
▁Writing	-14.177
▁courtesy	-14.177
▁deciding	-14.177
▁hypothesis	-14.177
▁referendum	-14.177
▁vodka	-14.177
▁Performance	-14.177
▁choosing	-14.177
▁gunpowder	-14.177
▁junction	-14.177
▁slut	-14.177
▁McGee	-14.177
▁Chapter	-14.177
▁Nigel	-14.177
▁somethin	-14.177
▁whipped	-14.177
▁Laurie	-14.177
▁stirred	-14.1771
▁Duck	-14.1771
▁Mouna	-14.1771
▁WERE	-14.1771
▁tallest	-14.1771
PHONE	-14.1771
▁skipper	-14.1771
▁completion	-14.1771
▁assassination	-14.1771
▁productive	-14.1771
▁daring	-14.1771
▁Drama	-14.1771
▁rogue	-14.1771
▁Season	-14.1771
▁edited	-14.1772
▁Hood	-14.1772
▁revelation	-14.1772
▁sickness	-14.1772
▁indexed	-14.1773
▁violently	-14.1773
▁beaches	-14.1773
▁fade	-14.1773
▁Fern	-14.1773
▁crooked	-14.1774
▁brandy	-14.1774
West	-14.1774
▁tightly	-14.1775
▁Strait	-14.1775
▁swinging	-14.1775
▁Door	-14.1781
▁OVER	-14.1781
▁couples	-14.1783
▁mushrooms	-14.1783
▁Ahh	-14.1787
▁lens	-14.1788
MB	-14.1788
▁10:	-14.1788
▁Ruth	-14.1795
uga	-14.1798
morph	-14.1798
▁lick	-14.18
▁Wor	-14.18
uro	-14.18
▁Schools	-14.1802
▁lively	-14.1806
shu	-14.1806
▁mentor	-14.181
▁candles	-14.181
▁variables	-14.1811
▁Bea	-14.1812
ete	-14.1812
▁doc	-14.1815
hap	-14.182
▁intentions	-14.182
▁Stock	-14.1827
▁aims	-14.1828
▁tanks	-14.1828
▁weed	-14.183
▁Flag	-14.1832
▁remembering	-14.1834
▁bats	-14.1836
rik	-14.1836
▁fir	-14.1836
AH	-14.1844
▁ramp	-14.1845
▁bets	-14.1846
grunts	-14.1847
▁Kama	-14.1849
▁Bitch	-14.1849
▁amid	-14.185
minded	-14.1852
▁editions	-14.1852
▁concepts	-14.1857
!--	-14.186
whi	-14.1865
ovich	-14.1865
rol	-14.1868
▁towers	-14.1869
lessness	-14.1872
▁beats	-14.1873
ueens	-14.1873
lp	-14.1876
▁Tir	-14.1877
▁Rest	-14.1877
ception	-14.1884
shore	-14.1887
▁Wing	-14.1888
▁peanut	-14.1893
▁Giant	-14.1893
rank	-14.1893
Laughing	-14.1894
wife	-14.1894
▁creator	-14.1894
Very	-14.1895
▁developer	-14.1896
▁sweets	-14.1901
▁logo	-14.1904
▁manifest	-14.1906
▁communes	-14.1909
tify	-14.1909
stor	-14.1912
▁locate	-14.1913
etto	-14.1915
▁alleged	-14.1915
▁flour	-14.1915
▁irregular	-14.1915
▁Belshazzar	-14.1915
▁Boulevard	-14.1915
▁Heisenberg	-14.1915
▁Superintendent	-14.1915
▁bosom	-14.1915
▁crocodile	-14.1915
▁determination	-14.1915
▁energies	-14.1915
▁errand	-14.1915
▁scissors	-14.1915
▁skeleton	-14.1915
▁theatrical	-14.1915
▁vacant	-14.1915
▁Prepare	-14.1915
▁default	-14.1915
▁gospel	-14.1915
▁reckless	-14.1915
▁Monica	-14.1915
▁euthanasia	-14.1915
▁placing	-14.1915
▁municipalities	-14.1915
▁subordinate	-14.1915
▁Venus	-14.1915
▁john	-14.1915
▁disappearance	-14.1915
▁rites	-14.1916
▁abortion	-14.1916
▁infantry	-14.1916
▁Burton	-14.1916
▁settlers	-14.1916
▁Revolutionary	-14.1916
▁Currently	-14.1916
▁immune	-14.1916
▁rally	-14.1916
▁Charleston	-14.1916
▁promptly	-14.1916
▁Medland	-14.1916
▁odor	-14.1916
▁decorated	-14.1916
▁pumpkin	-14.1916
▁concealed	-14.1916
▁coastline	-14.1917
▁Superman	-14.1917
▁hesitated	-14.1917
▁boiling	-14.1917
▁DJ	-14.1917
MlD	-14.1918
▁View	-14.1918
▁appetite	-14.1919
▁gangster	-14.1919
▁foam	-14.192
▁recalled	-14.192
▁Subtitles	-14.192
ike	-14.1921
▁delivering	-14.1922
▁loading	-14.1922
▁grid	-14.1923
▁Cambrian	-14.1927
▁Paula	-14.1929
▁notably	-14.1931
▁Jong	-14.1932
▁calculations	-14.1933
▁Players	-14.1933
▁coordinate	-14.1935
▁Fur	-14.1937
hopped	-14.1938
▁Sil	-14.1938
ios	-14.1939
▁intervals	-14.1941
▁Says	-14.1941
▁1898	-14.1942
▁mineral	-14.1945
oro	-14.1945
▁deposits	-14.1946
stadt	-14.1947
rack	-14.1948
▁Fly	-14.1949
▁thereby	-14.1951
aking	-14.1952
▁Bertie	-14.1952
▁weep	-14.1954
▁phoned	-14.1955
▁Pok	-14.1955
Mal	-14.1959
▁wagons	-14.196
▁Lor	-14.1961
▁"_	-14.1961
Pl	-14.1964
▁rays	-14.1964
▁Sung	-14.1965
▁sessions	-14.1969
▁dash	-14.1971
▁dome	-14.1972
▁1903	-14.1975
took	-14.1976
▁Math	-14.1979
opho	-14.198
▁exercises	-14.1982
▁dye	-14.1982
▁Pitt	-14.1986
akes	-14.1987
▁fig	-14.1988
drum	-14.199
▁Bros	-14.1993
vine	-14.1993
Ex	-14.2
▁Tam	-14.2004
▁Oz	-14.2005
▁picks	-14.2008
eda	-14.2009
tered	-14.201
▁DI	-14.2014
▁plea	-14.2016
media	-14.2018
▁Nicole	-14.2019
though	-14.202
▁pint	-14.2024
FC	-14.2024
▁Choi	-14.2026
vu	-14.2027
comb	-14.2027
▁20-	-14.2028
▁instances	-14.2031
amine	-14.2032
cross	-14.2035
▁prejudice	-14.204
▁snack	-14.204
▁mod	-14.204
Because	-14.2041
▁LI	-14.2041
Long	-14.2042
▁Slav	-14.2043
▁bud	-14.2044
ld	-14.2046
▁Mater	-14.2047
▁Mack	-14.2048
vari	-14.2048
Hu	-14.2048
50,000	-14.2049
ault	-14.2051
etta	-14.2051
rv	-14.2052
▁pupil	-14.2052
utt	-14.2053
easing	-14.2057
▁consume	-14.206
▁navigation	-14.2062
▁Cabrera	-14.2062
▁Crazy	-14.2062
▁Energy	-14.2062
▁GDP	-14.2062
▁Jupiter	-14.2062
▁LOVE	-14.2062
▁Laxmi	-14.2062
▁Presidency	-14.2062
▁WHEN	-14.2062
▁abilities	-14.2062
▁congratulations	-14.2062
▁exploration	-14.2062
▁moustache	-14.2062
▁noisy	-14.2062
▁orientation	-14.2062
▁prosecutor	-14.2062
▁shekhar	-14.2062
▁synthesis	-14.2062
▁whistling	-14.2062
▁Basically	-14.2062
▁harbor	-14.2062
▁unnecessary	-14.2062
▁Already	-14.2062
▁microwave	-14.2062
▁turkey	-14.2062
▁Biography	-14.2062
▁Shahrak	-14.2062
▁optical	-14.2062
▁carved	-14.2062
▁PLAYING	-14.2062
▁coarse	-14.2062
▁describing	-14.2062
▁disposition	-14.2062
▁reliable	-14.2063
▁Bosnia	-14.2063
▁casino	-14.2063
▁Chester	-14.2063
▁discoveries	-14.2063
▁Diane	-14.2063
▁Southeast	-14.2063
▁Pasha	-14.2063
▁inspection	-14.2063
▁implemented	-14.2064
▁Newport	-14.2064
▁Renaissance	-14.2064
▁Bose	-14.2064
▁interpreted	-14.2064
▁resumed	-14.2064
▁Fantastic	-14.2064
▁Pakhangba	-14.2065
▁leaped	-14.2065
▁complaining	-14.2065
▁shifted	-14.2067
▁Programme	-14.2068
▁longing	-14.2068
▁Crime	-14.2072
▁gladly	-14.2073
▁Sort	-14.2077
▁6-	-14.2079
▁Bangladeshi	-14.2079
▁Past	-14.2079
▁Dover	-14.2079
▁Mini	-14.2079
▁Flash	-14.2079
jour	-14.2084
▁Gates	-14.2084
▁boast	-14.2085
Armor	-14.2087
hrer	-14.2088
▁boxing	-14.2088
[...]
