<unk>	0
<s>	0
</s>	0
0	-1.8345
n	-1.94716
▁c	-1.96263
▁t	-2.02705
1	-3.94784
2	-4.31957
3	-4.38654
5	-4.39538
4	-4.4507
6	-4.60634
8	-4.69856
7	-4.75902
9	-4.88238
.	-5.00867
,	-5.24505
62	-5.39731
67	-5.39995
▁the	-5.41382
65	-5.45498
64	-5.47892
69	-5.48458
72	-5.52579
12	-5.53809
55	-5.5471
63	-5.54937
11	-5.54987
74	-5.55741
57	-5.56497
58	-5.57202
68	-5.60199
61	-5.62995
13	-5.6339
59	-5.63534
66	-5.65011
71	-5.67063
56	-5.69408
73	-5.70797
76	-5.73157
53	-5.74632
75	-5.75126
77	-5.77138
'	-5.78822
14	-5.8188
79	-5.82325
s	-5.84006
52	-5.84841
60	-5.878
54	-5.89053
48	-5.92122
51	-5.95456
78	-5.99775
15	-6.01742
70	-6.05245
49	-6.06574
▁a	-6.07724
▁	-6.08676
81	-6.10476
▁to	-6.11656
▁of	-6.15856
▁I	-6.15871
46	-6.16065
43	-6.16894
▁and	-6.16987
45	-6.17125
47	-6.18513
16	-6.22786
44	-6.27298
82	-6.27455
18	-6.30546
17	-6.34702
84	-6.36242
83	-6.37535
▁you	-6.40313
19	-6.40547
▁in	-6.44016
41	-6.44904
36	-6.47937
39	-6.4887
42	-6.49568
38	-6.5309
37	-6.53204
86	-6.55655
85	-6.59776
22	-6.60712
34	-6.6289
33	-6.63563
21	-6.67097
24	-6.69355
29	-6.69953
87	-6.71117
35	-6.71192
25	-6.72246
?	-6.74022
▁that	-6.74027
23	-6.74205
28	-6.7432
32	-6.74514
27	-6.75
31	-6.7576
▁is	-6.77109
▁it	-6.7951
26	-6.80541
88	-6.80825
89	-6.91967
t	-6.9462
▁was	-6.99475
▁.	-7.20369
▁-	-7.2531
▁for	-7.28741
91	-7.30572
▁on	-7.34812
92	-7.37077
-	-7.40164
!	-7.4429
▁he	-7.46221
▁with	-7.49688
▁The	-7.52044
93	-7.5366
▁"	-7.57752
▁have	-7.58876
▁be	-7.62855
94	-7.64562
▁this	-7.65733
▁are	-7.6583
▁me	-7.66421
▁we	-7.69064
▁as	-7.69776
▁not	-7.7644
▁do	-7.77767
▁at	-7.83897
▁,	-7.84978
re	-7.88945
m	-7.90789
95	-7.91023
▁You	-7.92635
▁his	-7.92963
▁It	-7.93203
▁they	-7.9503
▁what	-7.95748
▁know	-7.96587
97	-7.98583
...	-7.99313
▁?	-8.00881
▁can	-8.01167
▁from	-8.05384
▁by	-8.05939
96	-8.07379
▁all	-8.08589
d	-8.09395
▁one	-8.09413
▁there	-8.09636
▁my	-8.10423
ing	-8.10543
▁(	-8.13167
ed	-8.13328
▁He	-8.13538
▁your	-8.13585
▁but	-8.13869
▁so	-8.14002
▁had	-8.14348
99	-8.14473
▁her	-8.18233
▁like	-8.22179
▁up	-8.25971
▁were	-8.26875
▁him	-8.26907
▁And	-8.2716
▁out	-8.2851
98	-8.28649
▁or	-8.28889
▁about	-8.28987
▁she	-8.32138
ll	-8.34166
▁just	-8.40677
▁here	-8.42388
▁no	-8.4632
▁What	-8.47667
▁get	-8.4845
▁go	-8.48601
▁would	-8.49954
ve	-8.51554
▁if	-8.51746
▁see	-8.52053
"	-8.54165
)	-8.54226
:	-8.54715
▁will	-8.55667
▁them	-8.5661
;	-8.59223
▁which	-8.60303
▁has	-8.6142
▁right	-8.61612
▁who	-8.61891
▁don	-8.62237
▁A	-8.65547
▁think	-8.65592
▁said	-8.66152
▁We	-8.66753
▁when	-8.67004
▁did	-8.69003
▁So	-8.69703
▁=	-8.70226
▁No	-8.70548
ly	-8.71152
▁time	-8.71195
e	-8.7184
▁got	-8.72594
▁But	-8.7328
▁been	-8.73662
▁now	-8.74928
▁their	-8.78787
o	-8.78806
▁want	-8.81297
y	-8.82316
▁some	-8.82968
▁more	-8.82979
er	-8.83641
▁going	-8.84226
▁Oh	-8.84323
▁Yeah	-8.84713
101	-8.85521
▁people	-8.86159
a	-8.86557
▁could	-8.87203
▁That	-8.87577
▁very	-8.92534
▁back	-8.94873
▁over	-8.9567
▁two	-8.96371
▁'	-8.97313
▁good	-9.0095
▁They	-9.01082
▁other	-9.01591
▁first	-9.02383
▁This	-9.02482
▁into	-9.02687
▁where	-9.05265
▁i	-9.06304
▁She	-9.06346
▁come	-9.06732
▁down	-9.06978
▁also	-9.08028
▁take	-9.08309
▁Well	-9.08335
▁how	-9.09346
▁well	-9.10494
▁say	-9.11011
▁only	-9.14476
▁way	-9.14696
102	-9.14704
▁little	-9.15131
▁us	-9.16326
▁our	-9.19527
▁because	-9.2119
▁man	-9.23603
▁make	-9.25574
I	-9.26693
▁`	-9.27622
▁any	-9.28143
103	-9.28221
▁really	-9.28931
."	-9.29146
▁than	-9.29514
▁There	-9.32438
▁look	-9.32489
▁these	-9.32795
▁[	-9.33216
es	-9.33265
i	-9.33501
▁should	-9.33744
--	-9.3612
▁much	-9.36499
▁off	-9.37124
▁after	-9.37626
▁something	-9.3834
▁too	-9.3878
▁let	-9.3904
]	-9.39712
▁gonna	-9.4087
▁Yes	-9.40926
104	-9.42572
▁made	-9.43149
▁put	-9.43489
al	-9.43491
`	-9.44062
S	-9.46918
r	-9.47689
▁''	-9.48369
▁If	-9.48811
▁mean	-9.48896
▁before	-9.49393
▁need	-9.50181
▁never	-9.50913
▁again	-9.51879
▁work	-9.53115
▁its	-9.54199
▁day	-9.54581
▁tell	-9.55873
107	-9.55947
▁many	-9.56251
▁Do	-9.56546
105	-9.57519
▁life	-9.57588
▁er	-9.58031
th	-9.58482
▁years	-9.58546
▁okay	-9.58594
▁give	-9.59111
▁!	-9.60677
109	-9.62503
▁even	-9.62561
▁still	-9.62634
▁those	-9.62707
106	-9.63468
▁thing	-9.63493
108	-9.63804
▁things	-9.63833
▁How	-9.65138
▁three	-9.6536
▁am	-9.65423
▁long	-9.65814
▁went	-9.66357
▁away	-9.67309
▁thought	-9.674
▁through	-9.67695
▁yeah	-9.68121
▁came	-9.68404
▁new	-9.68685
▁used	-9.68806
▁called	-9.69078
l	-9.69161
▁most	-9.69415
▁must	-9.70755
▁does	-9.70871
▁doing	-9.71077
c	-9.71109
▁last	-9.72516
▁oh	-9.73113
▁home	-9.74021
▁being	-9.74534
▁Now	-9.7552
▁great	-9.7557
to	-9.76426
▁such	-9.77654
".	-9.77784
▁why	-9.78427
▁Why	-9.78478
▁may	-9.7855
▁old	-9.79319
▁love	-9.79535
▁name	-9.80268
▁same	-9.80314
▁All	-9.80461
▁When	-9.81136
▁part	-9.8125
amp	-9.82003
▁find	-9.8385
▁won	-9.85445
▁place	-9.86995
u	-9.88139
h	-9.88826
▁night	-9.88826
▁S	-9.88921
▁Let	-9.89714
▁Come	-9.90513
▁didn	-9.90664
▁Mr	-9.90914
▁found	-9.9117
▁world	-9.91493
▁might	-9.91674
▁around	-9.92427
or	-9.92555
▁own	-9.92975
▁another	-9.94059
ers	-9.95163
▁C	-9.95515
▁lot	-9.95651
▁always	-9.95661
▁My	-9.96117
▁Okay	-9.96786
▁help	-9.97104
",	-9.98544
A	-9.98723
▁left	-9.98886
▁use	-9.98927
in	-9.99106
▁better	-9.99738
▁money	-9.99776
▁under	-10.0007
▁Hey	-10.0022
▁anything	-10.0026
▁United	-10.0055
▁show	-10.0064
▁house	-10.0273
▁kind	-10.03
▁sure	-10.0349
▁done	-10.0398
▁between	-10.043
▁year	-10.0466
g	-10.0492
▁every	-10.05
▁E	-10.0552
▁As	-10.0628
).	-10.0636
▁P	-10.065
▁told	-10.0677
▁different	-10.0728
▁Don	-10.0753
▁big	-10.0759
▁uh	-10.0769
▁erm	-10.0781
▁For	-10.0802
▁while	-10.0808
man	-10.0891
▁God	-10.0894
▁ever	-10.0918
,"	-10.0947
),	-10.0983
▁19	-10.103
The	-10.1155
▁end	-10.1165
▁talk	-10.1184
k	-10.1197
▁took	-10.1257
▁course	-10.1258
▁States	-10.1267
le	-10.1366
▁water	-10.1404
▁;	-10.1411
▁B	-10.1416
C	-10.1544
▁At	-10.1558
▁next	-10.1581
de	-10.1583
ie	-10.162
▁re	-10.1662
▁both	-10.1708
▁nothing	-10.1758
▁head	-10.1769
▁Is	-10.1808
▁city	-10.1817
▁New	-10.1859
▁--	-10.1883
▁de	-10.1913
▁Where	-10.1922
▁saw	-10.1961
▁best	-10.1972
▁until	-10.1982
▁each	-10.2026
▁To	-10.2044
▁call	-10.2048
▁number	-10.2058
▁T	-10.2088
▁keep	-10.2174
▁actually	-10.2214
▁second	-10.224
▁four	-10.2275
▁Go	-10.2276
B	-10.2291
▁father	-10.2331
▁later	-10.2331
▁play	-10.2372
▁hand	-10.2459
▁Are	-10.2525
T	-10.2551
▁Just	-10.2559
▁school	-10.2562
▁once	-10.269
▁mother	-10.2773
▁yes	-10.2786
▁wanted	-10.2825
ry	-10.2861
▁against	-10.2865
p	-10.2896
▁Who	-10.29
▁_	-10.2924
▁family	-10.3009
▁enough	-10.308
▁bit	-10.309
▁One	-10.3115
▁G	-10.3134
▁On	-10.3159
▁became	-10.3173
the	-10.318
▁together	-10.3245
▁O	-10.3266
at	-10.333
▁everything	-10.3343
▁feel	-10.3348
▁else	-10.3361
▁Not	-10.3388
▁D	-10.3396
ro	-10.3403
▁since	-10.3414
▁side	-10.3423
▁without	-10.3431
▁says	-10.3449
▁American	-10.3468
▁believe	-10.3473
ic	-10.3482
▁car	-10.349
able	-10.3498
▁His	-10.3522
▁quite	-10.3525
ity	-10.3555
▁U	-10.3606
▁girl	-10.3613
▁few	-10.3653
▁sorry	-10.3664
ation	-10.3679
▁R	-10.3738
▁died	-10.3767
▁live	-10.3782
▁Thank	-10.3786
▁K	-10.3787
▁set	-10.3854
▁looking	-10.3878
▁five	-10.3923
▁coming	-10.3925
▁point	-10.3939
▁during	-10.3955
▁room	-10.3963
▁leave	-10.3975
▁Good	-10.4017
▁whole	-10.4026
▁Right	-10.4048
▁though	-10.4052
▁un	-10.4061
b	-10.4096
▁happened	-10.4098
▁Can	-10.4148
▁small	-10.4224
▁today	-10.4231
▁face	-10.4242
▁far	-10.4242
▁sir	-10.4255
▁please	-10.4282
▁children	-10.43
▁Did	-10.4315
▁...	-10.4396
▁Uh	-10.4402
▁days	-10.4436
▁getting	-10.4441
▁F	-10.4444
ar	-10.4446
▁John	-10.4455
▁Look	-10.4463
P	-10.4484
▁asked	-10.4514
M	-10.4521
▁heard	-10.457
▁himself	-10.4584
ion	-10.4612
▁times	-10.4617
ra	-10.4638
▁nice	-10.4643
▁book	-10.4666
▁hear	-10.4671
▁woman	-10.4693
▁e	-10.4705
▁mind	-10.4705
▁morning	-10.4734
▁M	-10.4748
te	-10.476
▁person	-10.4772
▁eyes	-10.481
ri	-10.4902
▁gave	-10.4919
us	-10.4931
▁yet	-10.4949
▁country	-10.4959
▁remember	-10.4988
la	-10.4999
▁s	-10.5019
_	-10.5025
▁hard	-10.5029
▁having	-10.5032
▁real	-10.5038
▁care	-10.5047
▁bad	-10.5057
▁important	-10.506
▁stop	-10.508
▁state	-10.5122
▁boy	-10.5127
▁Mm	-10.5141
▁already	-10.5151
▁understand	-10.52
▁doesn	-10.5208
▁high	-10.5222
▁Me	-10.5226
▁knew	-10.5243
ur	-10.5269
?"	-10.5308
▁upon	-10.5346
gt	-10.5361
▁wrong	-10.5366
▁After	-10.5385
▁young	-10.5393
▁saying	-10.5409
▁Your	-10.5425
▁start	-10.5432
▁half	-10.545
▁case	-10.5469
and	-10.5481
▁game	-10.5491
ch	-10.5505
▁W	-10.551
▁ask	-10.5522
▁born	-10.553
D	-10.5537
st	-10.5619
▁dead	-10.5628
▁town	-10.5638
▁death	-10.5638
▁talking	-10.5652
▁began	-10.5667
▁sort	-10.5695
▁guy	-10.5696
▁means	-10.5734
it	-10.5776
▁shall	-10.5783
▁L	-10.579
▁line	-10.5796
▁Here	-10.5815
▁trying	-10.5885
▁Get	-10.5886
▁started	-10.5897
▁heart	-10.5918
▁open	-10.5985
▁light	-10.6025
▁often	-10.6035
▁run	-10.6042
▁friend	-10.6059
el	-10.6064
N	-10.6071
co	-10.6072
▁music	-10.6087
f	-10.6096
ul	-10.6114
▁idea	-10.613
ine	-10.6135
▁round	-10.6135
▁war	-10.6153
G	-10.6158
▁job	-10.6227
▁eat	-10.6231
▁gone	-10.6239
▁wife	-10.6257
▁word	-10.627
▁door	-10.63
z	-10.6321
▁team	-10.6325
▁try	-10.6349
▁wanna	-10.6359
▁change	-10.6386
▁Co	-10.6495
▁matter	-10.6531
est	-10.6534
▁soon	-10.6549
▁pretty	-10.6589
▁played	-10.6602
F	-10.6603
▁Because	-10.6679
▁goes	-10.6735
▁turn	-10.6752
▁N	-10.6779
▁story	-10.6792
▁able	-10.68
se	-10.6811
▁six	-10.6826
ha	-10.6828
up	-10.6892
▁St	-10.6898
▁problem	-10.6923
▁wait	-10.6924
▁along	-10.6933
ta	-10.6935
▁fact	-10.6935
▁power	-10.6957
▁stay	-10.6965
▁women	-10.6966
▁King	-10.7035
▁area	-10.7036
▁someone	-10.7059
▁moment	-10.706
▁Ha	-10.707
▁lost	-10.7089
ling	-10.7098
x	-10.711
▁read	-10.7143
▁May	-10.7155
R	-10.7169
▁making	-10.7175
ist	-10.7187
▁Mo	-10.7199
▁order	-10.7218
ness	-10.7248
▁probably	-10.7264
ty	-10.7311
am	-10.7317
▁full	-10.7323
!"	-10.7324
▁fine	-10.7351
w	-10.7356
▁kill	-10.7375
E	-10.7394
▁yourself	-10.7425
▁looked	-10.7436
▁true	-10.7437
do	-10.7456
▁English	-10.7461
ate	-10.748
▁comes	-10.7512
one	-10.7522
▁guys	-10.757
▁bring	-10.7594
▁become	-10.7614
▁ago	-10.7667
▁ready	-10.7678
▁working	-10.7687
▁almost	-10.77
▁baby	-10.7701
▁body	-10.7706
li	-10.7723
ow	-10.7726
▁maybe	-10.7734
ia	-10.7741
▁Or	-10.7755
ism	-10.7811
is	-10.782
▁pay	-10.7821
lt	-10.7826
▁rest	-10.7841
▁move	-10.7854
▁University	-10.7867
ted	-10.7879
▁France	-10.7893
O	-10.7894
▁p	-10.7909
▁fire	-10.7932
▁hands	-10.7937
da	-10.7945
▁These	-10.798
▁Please	-10.8009
▁group	-10.8023
L	-10.8036
be	-10.8057
▁early	-10.8062
▁Mrs	-10.8153
▁week	-10.8161
▁movie	-10.8167
▁late	-10.8176
▁Some	-10.8182
ive	-10.8183
▁large	-10.8202
ge	-10.8234
lo	-10.825
▁question	-10.8266
K	-10.8267
▁myself	-10.831
ous	-10.8328
▁brought	-10.834
ent	-10.8354
ment	-10.8356
▁Have	-10.8375
ce	-10.8385
▁released	-10.8393
▁child	-10.8422
▁H	-10.8436
▁least	-10.8437
▁business	-10.8466
▁stuff	-10.8467
il	-10.8477
▁less	-10.8483
▁friends	-10.8499
▁Hi	-10.8509
▁age	-10.8514
▁killed	-10.8537
▁War	-10.8554
▁air	-10.8573
▁system	-10.8578
▁brother	-10.8578
▁Ah	-10.8582
▁daughter	-10.8582
▁THE	-10.8583
▁land	-10.8584
▁January	-10.8639
▁South	-10.8654
▁County	-10.8669
▁hope	-10.8672
▁words	-10.868
▁white	-10.8683
▁station	-10.8704
▁government	-10.8735
▁million	-10.8739
go	-10.8761
ter	-10.8767
▁example	-10.8776
▁behind	-10.8795
ga	-10.8839
▁happy	-10.8858
▁thank	-10.8878
▁company	-10.8885
▁sea	-10.8887
▁York	-10.8901
▁bed	-10.8939
W	-10.8956
▁short	-10.8962
▁top	-10.897
▁De	-10.8988
▁near	-10.9028
▁rather	-10.9036
▁several	-10.9041
ting	-10.9078
▁married	-10.909
▁taking	-10.9108
▁Re	-10.9138
▁close	-10.9152
▁front	-10.9174
born	-10.9174
ye	-10.9187
▁either	-10.9232
▁hold	-10.9255
▁alone	-10.926
son	-10.9264
▁black	-10.9266
ies	-10.9284
▁food	-10.9289
▁makes	-10.9314
ard	-10.9324
▁guess	-10.9324
▁J	-10.9376
▁red	-10.9392
▁turned	-10.9399
ma	-10.94
age	-10.9401
▁Be	-10.9406
as	-10.9421
um	-10.9422
▁Hello	-10.9434
▁World	-10.9456
less	-10.9528
▁series	-10.9535
You	-10.9545
▁song	-10.9547
et	-10.9568
▁March	-10.9582
▁party	-10.9594
▁living	-10.9615
H	-10.9646
ti	-10.9648
▁reason	-10.9673
▁meet	-10.9681
em	-10.9685
▁thinking	-10.9703
▁free	-10.9706
▁past	-10.9713
▁With	-10.9722
▁Of	-10.9764
▁British	-10.9766
▁Her	-10.977
▁beautiful	-10.98
▁sent	-10.9808
▁human	-10.9884
▁sometimes	-10.9903
▁sleep	-10.9925
▁Al	-10.9945
▁form	-10.9953
▁others	-10.9956
▁looks	-10.9983
▁North	-10.9984
▁main	-11.0008
all	-11.0041
▁sit	-11.0045
▁history	-11.0085
▁La	-11.0085
▁within	-11.0104
▁Dr	-11.0105
▁named	-11.0107
U	-11.0121
▁fight	-11.0122
▁happen	-11.0134
▁l	-11.0147
▁held	-11.0181
V	-11.0209
▁dear	-11.0221
land	-11.0231
dy	-11.0269
ci	-11.0279
▁President	-11.0316
▁o	-11.0323
▁third	-11.0323
▁America	-11.0323
ir	-11.0352
▁minute	-11.0362
▁hit	-11.0414
▁built	-11.0428
▁usually	-11.0428
▁inside	-11.0447
ca	-11.0452
▁ship	-11.0475
▁buy	-11.0494
▁outside	-11.0497
▁single	-11.0518
▁French	-11.0521
▁film	-11.0557
▁September	-11.0572
▁wants	-11.058
▁population	-11.0596
▁watch	-11.0597
▁deal	-11.0608
▁across	-11.0617
▁hair	-11.064
▁clear	-11.0652
▁July	-11.0662
ad	-11.0679
▁poor	-11.0684
he	-11.0708
rs	-11.0714
▁possible	-11.0724
mo	-11.0743
▁months	-11.0747
▁minutes	-11.0773
▁playing	-11.0776
▁National	-11.0783
▁season	-11.0786
▁met	-11.0804
▁stand	-11.0849
▁per	-11.0859
▁local	-11.0866
▁gotta	-11.0869
ey	-11.0884
▁using	-11.0928
▁Man	-11.0931
▁Na	-11.0932
▁including	-11.0932
▁Maybe	-11.0934
▁building	-11.0957
▁mine	-11.0969
▁Sir	-11.097
▁Ka	-11.0995
ated	-11.1005
▁London	-11.1017
ary	-11.1024
ru	-11.1025
▁public	-11.1027
▁Like	-11.1057
▁voice	-11.1087
▁band	-11.1105
▁huh	-11.1124
▁Ba	-11.1129
▁king	-11.1144
▁June	-11.1171
▁law	-11.1175
les	-11.1188
om	-11.1204
▁August	-11.1204
▁certain	-11.1208
▁England	-11.1216
▁couple	-11.1226
▁Sa	-11.1227
▁cut	-11.123
▁lived	-11.1251
ful	-11.1254
▁blood	-11.1255
▁By	-11.1258
▁drink	-11.1259
ant	-11.1267
by	-11.1271
▁However	-11.1277
ley	-11.1278
▁office	-11.128
▁tried	-11.1283
▁following	-11.1293
▁Su	-11.1299
▁felt	-11.1318
▁sense	-11.1318
▁written	-11.1319
▁present	-11.1342
▁album	-11.1344
▁die	-11.1371
ap	-11.1376
▁Le	-11.1383
op	-11.1401
▁special	-11.1402
▁Take	-11.1402
▁answer	-11.1433
▁anyone	-11.1442
ki	-11.1501
▁common	-11.1502
▁April	-11.1504
▁wish	-11.1533
▁husband	-11.1545
What	-11.155
▁seven	-11.1573
ING	-11.158
▁north	-11.1581
▁See	-11.1594
▁chance	-11.1642
▁sound	-11.1643
sa	-11.1654
▁walk	-11.168
▁language	-11.1699
▁fun	-11.1701
▁Bo	-11.1724
▁V	-11.1726
▁member	-11.1742
▁worked	-11.1757
▁From	-11.1757
▁October	-11.1771
▁hell	-11.1777
id	-11.178
▁hundred	-11.1784
▁cannot	-11.1828
▁City	-11.1835
▁ten	-11.1844
▁hours	-11.187
▁whether	-11.187
▁everyone	-11.1871
huh	-11.1874
▁century	-11.1887
▁German	-11.1898
▁December	-11.19
▁based	-11.1905
ah	-11.1911
bo	-11.1912
▁phone	-11.1918
▁till	-11.1939
▁speak	-11.1951
▁police	-11.1971
di	-11.1974
▁wrote	-11.1979
▁gets	-11.1995
▁seems	-11.1995
▁write	-11.1999
▁service	-11.2
▁easy	-11.2008
▁November	-11.2009
ish	-11.2012
▁tomorrow	-11.2018
▁information	-11.2037
▁road	-11.2038
▁Er	-11.2049
▁works	-11.2059
▁however	-11.2088
ba	-11.2119
▁break	-11.2132
▁dad	-11.2155
ance	-11.2167
▁commune	-11.2185
▁Peter	-11.2185
▁list	-11.2188
ke	-11.2192
▁members	-11.2207
▁Miss	-11.2214
▁West	-11.2226
ig	-11.2228
▁boys	-11.223
▁ground	-11.2239
we	-11.2243
pe	-11.2248
▁worry	-11.2263
▁fell	-11.2271
▁lives	-11.2275
me	-11.2276
▁feet	-11.2282
▁changed	-11.2324
▁dog	-11.2328
▁twenty	-11.2333
▁Ra	-11.2349
▁February	-11.235
▁news	-11.2356
▁James	-11.2371
▁general	-11.2378
▁among	-11.2402
▁OK	-11.2411
▁moved	-11.2421
▁George	-11.2425
▁hour	-11.2427
vi	-11.2448
▁Wait	-11.2458
▁exactly	-11.2463
▁career	-11.2463
gu	-11.2472
▁listen	-11.2472
▁paper	-11.2494
▁ex	-11.2495
▁Thanks	-11.2501
▁longer	-11.2515
oo	-11.2519
ut	-11.2529
Y	-11.253
▁alright	-11.2539
▁support	-11.2556
ka	-11.2577
▁supposed	-11.2579
▁Ta	-11.2596
▁Mar	-11.2608
▁control	-11.2643
▁former	-11.2645
▁themselves	-11.2655
pa	-11.2666
ja	-11.2692
bi	-11.2716
▁space	-11.272
▁lady	-11.2733
ho	-11.274
▁drive	-11.2757
▁send	-11.2766
▁ones	-11.279
▁check	-11.2807
ze	-11.2809
▁pick	-11.282
ial	-11.2823
im	-11.2824
▁eight	-11.2827
▁trouble	-11.2838
▁ma	-11.2853
▁Mi	-11.2873
▁pre	-11.2874
▁afraid	-11.2891
▁truth	-11.2891
▁ran	-11.2891
▁strong	-11.2895
▁shot	-11.2906
▁hot	-11.291
▁region	-11.292
▁hurt	-11.2922
▁perhaps	-11.2939
▁knows	-11.2962
▁dis	-11.2978
▁blue	-11.2979
▁picture	-11.299
▁sister	-11.303
ya	-11.3035
▁national	-11.3046
▁fast	-11.3046
▁Will	-11.3047
▁Li	-11.3055
▁Se	-11.3062
▁letter	-11.3074
▁television	-11.3092
▁kept	-11.3092
▁department	-11.3092
ver	-11.3092
▁YOU	-11.3095
▁video	-11.3119
ac	-11.3125
▁ball	-11.3149
▁received	-11.315
hi	-11.3163
▁dark	-11.3165
ence	-11.3181
▁running	-11.3183
▁India	-11.3189
▁seemed	-11.3193
▁cried	-11.3206
▁fall	-11.3214
▁lay	-11.3217
ian	-11.3243
▁kids	-11.3248
au	-11.325
▁court	-11.3271
▁Great	-11.3277
▁due	-11.3288
▁needs	-11.3312
ff	-11.3314
ee	-11.3315
time	-11.3315
▁Ro	-11.3335
▁tonight	-11.3337
▁art	-11.3337
▁above	-11.3347
▁type	-11.3347
j	-11.337
ip	-11.3375
▁doctor	-11.3377
▁bar	-11.3384
▁cold	-11.3404
▁d	-11.3405
▁level	-11.3429
▁Ho	-11.3443
▁Even	-11.3452
▁Sorry	-11.3456
▁whatever	-11.3474
▁village	-11.3485
▁instead	-11.3491
led	-11.3499
sh	-11.353
No	-11.357
lu	-11.357
per	-11.3586
ake	-11.3595
▁gold	-11.3599
tion	-11.3618
▁include	-11.3619
▁low	-11.3623
▁People	-11.3626
▁waiting	-11.364
▁Erm	-11.3644
▁throw	-11.3657
▁itself	-11.367
▁Tell	-11.3675
▁draw	-11.3683
▁class	-11.3691
▁State	-11.3694
▁position	-11.3712
os	-11.3716
▁countries	-11.3729
▁piece	-11.3729
ak	-11.3735
▁horse	-11.3737
▁tree	-11.3743
▁somebody	-11.3755
▁return	-11.3772
▁created	-11.3774
out	-11.3778
▁House	-11.3798
▁Ma	-11.3799
▁Stop	-11.381
▁shit	-11.3819
gi	-11.3838
▁Lord	-11.3844
▁everybody	-11.385
▁player	-11.3852
▁period	-11.3856
ub	-11.3861
▁Give	-11.3898
tic	-11.39
▁fish	-11.3926
▁major	-11.3929
▁spoke	-11.395
▁seem	-11.3965
▁Vi	-11.3985
▁fucking	-11.3985
ger	-11.3998
▁box	-11.4008
▁Ga	-11.4008
▁evening	-11.4009
▁Captain	-11.401
fi	-11.4052
▁um	-11.4055
za	-11.4063
ina	-11.408
▁sat	-11.4091
▁eye	-11.41
▁plan	-11.4111
▁famous	-11.4118
ally	-11.4127
▁books	-11.4154
▁District	-11.4171
▁Two	-11.4172
▁learn	-11.4173
▁girls	-11.4182
▁green	-11.4191
▁nine	-11.4207
▁Japan	-11.4216
▁decided	-11.4227
▁feeling	-11.4232
▁stood	-11.4253
▁football	-11.4259
▁social	-11.4272
▁weeks	-11.4279
▁served	-11.4292
▁role	-11.4315
▁match	-11.4318
▁pro	-11.4332
v	-11.4362
ong	-11.437
It	-11.437
▁takes	-11.437
▁g	-11.4372
▁forget	-11.4373
▁popular	-11.439
▁Australia	-11.4391
▁passed	-11.4393
▁f	-11.44
▁future	-11.44
ol	-11.4405
▁]	-11.4418
▁b	-11.4426
▁kid	-11.4436
▁anyway	-11.444
▁sub	-11.4443
▁funny	-11.4446
ex	-11.4461
▁led	-11.4474
▁Paul	-11.4498
▁Michael	-11.4512
old	-11.4517
▁further	-11.4521
▁telling	-11.4532
▁save	-11.4534
▁Ru	-11.4536
▁David	-11.4539
que	-11.4549
ons	-11.4563
red	-11.4572
▁capital	-11.4577
▁thousand	-11.4586
▁attack	-11.4589
▁Dad	-11.4614
▁School	-11.4624
▁final	-11.4626
▁games	-11.4627
▁ha	-11.4629
▁given	-11.4644
▁problems	-11.4649
line	-11.4668
day	-11.4671
▁win	-11.4677
▁sun	-11.4681
▁la	-11.4685
so	-11.469
▁floor	-11.4692
▁herself	-11.471
▁returned	-11.4723
▁figure	-11.4726
way	-11.4732
ities	-11.4752
▁ahead	-11.4757
▁train	-11.4757
▁mommy	-11.4758
▁m	-11.4761
▁county	-11.4768
▁rock	-11.4769
▁followed	-11.477
▁meeting	-11.4782
you	-11.4784
▁East	-11.4796
▁First	-11.4797
▁record	-11.4798
▁Pe	-11.4811
▁2010	-11.4821
ating	-11.4834
ward	-11.4836
▁mouth	-11.4847
▁Japanese	-11.4855
▁During	-11.4864
che	-11.4871
▁Germany	-11.4905
▁ain	-11.491
▁wind	-11.4917
▁Di	-11.4923
▁cause	-11.494
ko	-11.4944
ag	-11.4966
▁beginning	-11.4971
▁opened	-11.4978
▁parents	-11.4979
▁mm	-11.4996
▁mom	-11.5005
▁sweet	-11.5029
▁view	-11.5032
▁whose	-11.5034
ER	-11.5039
ana	-11.5048
▁animals	-11.5081
▁Ca	-11.5087
of	-11.5109
▁broke	-11.5111
ries	-11.5112
▁island	-11.5119
▁Jo	-11.5136
▁process	-11.5142
▁happens	-11.5147
▁character	-11.515
▁foot	-11.5155
pi	-11.5156
▁cos	-11.5157
▁honey	-11.5159
▁species	-11.5159
▁clean	-11.5179
▁pass	-11.5201
men	-11.521
▁crazy	-11.5219
▁lose	-11.5225
▁interest	-11.5225
▁whom	-11.5237
▁hospital	-11.5239
▁south	-11.524
▁straight	-11.5245
if	-11.5286
▁TO	-11.5289
▁Virginia	-11.529
▁General	-11.5291
▁cost	-11.5299
▁similar	-11.53
▁moving	-11.53
▁original	-11.5312
▁bear	-11.5317
▁field	-11.5317
▁term	-11.533
▁1,	-11.5333
▁parts	-11.5371
▁force	-11.5376
ized	-11.5377
▁political	-11.5381
▁Really	-11.5382
▁Park	-11.539
▁certainly	-11.5394
▁size	-11.541
der	-11.5421
▁post	-11.5428
▁gun	-11.5429
▁touch	-11.5435
▁Illinois	-11.5463
▁sitting	-11.5474
▁Nothing	-11.5476
▁middle	-11.5484
▁River	-11.5484
▁quickly	-11.5495
▁towards	-11.5496
▁interesting	-11.5507
ec	-11.5524
▁Was	-11.5531
ster	-11.5541
▁Most	-11.5541
▁church	-11.5545
ji	-11.5545
▁total	-11.5548
▁forward	-11.5553
▁act	-11.5556
▁paid	-11.5556
▁finished	-11.5558
▁fear	-11.556
▁100	-11.5561
▁Am	-11.5563
▁Fa	-11.5563
▁dream	-11.5574
ler	-11.5595
▁Ja	-11.5596
ueen	-11.5604
▁street	-11.5621
▁difficult	-11.5627
▁answered	-11.5644
▁giving	-11.565
▁catch	-11.5652
▁Europe	-11.5659
▁places	-11.5662
▁Ar	-11.5679
▁leaving	-11.5682
▁table	-11.5696
wa	-11.5699
▁questions	-11.5732
▁club	-11.5737
▁daddy	-11.5756
▁Henry	-11.5757
sta	-11.5772
▁El	-11.5774
▁fuck	-11.5775
▁Which	-11.5777
po	-11.578
▁amount	-11.5784
▁glad	-11.5789
_,	-11.5801
▁suppose	-11.5816
▁professional	-11.5836
▁Jack	-11.5842
▁safe	-11.5844
wi	-11.5846
▁Lo	-11.5863
▁reached	-11.5864
ring	-11.5865
bb	-11.5881
▁grow	-11.5882
▁California	-11.5883
▁value	-11.5887
▁writing	-11.5908
▁students	-11.591
▁experience	-11.5917
si	-11.5923
▁("	-11.593
▁hm	-11.5936
▁river	-11.5941
▁wear	-11.5953
▁miss	-11.5955
▁terms	-11.5957
▁community	-11.5959
▁modern	-11.5981
ck	-11.5987
▁Tom	-11.601
ier	-11.6015
▁simple	-11.6023
▁various	-11.6024
▁Car	-11.6031
▁report	-11.6042
▁follow	-11.6054
▁step	-11.606
▁Many	-11.6072
▁sick	-11.6091
▁US	-11.6093
▁stage	-11.6096
▁particular	-11.6099
▁Da	-11.6104
ang	-11.6134
▁star	-11.6141
▁strange	-11.6144
▁market	-11.6145
▁Mary	-11.615
▁published	-11.6156
▁st	-11.6167
▁lead	-11.6178
▁private	-11.6189
over	-11.6189
We	-11.6204
▁numbers	-11.6209
▁equal	-11.6213
▁League	-11.6222
▁Robert	-11.6225
ical	-11.6235
▁allowed	-11.6236
▁window	-11.6237
▁trust	-11.6239
▁miles	-11.6261
cy	-11.6266
ise	-11.6275
▁deep	-11.6276
▁natural	-11.6276
▁Pa	-11.6279
▁dance	-11.6288
ber	-11.6304
▁meant	-11.6308
ab	-11.6314
▁shut	-11.6315
ham	-11.6318
▁seat	-11.6322
▁ho	-11.6333
▁anymore	-11.6334
Ma	-11.6343
")	-11.6352
ick	-11.6353
ship	-11.6355
▁month	-11.6359
▁ways	-11.6362
▁build	-11.6364
Oh	-11.6365
▁Ko	-11.6366
▁college	-11.6367
▁Du	-11.6369
▁Cha	-11.6389
▁serious	-11.64
▁TV	-11.6406
▁study	-11.6421
▁involved	-11.6436
▁dinner	-11.6447
mer	-11.6458
▁thou	-11.6466
hu	-11.6484
▁Our	-11.6484
▁hey	-11.6489
▁especially	-11.6493
▁murder	-11.6501
▁blow	-11.6502
▁nature	-11.6504
▁development	-11.6504
▁somewhere	-11.6515
Do	-11.6517
ung	-11.6526
▁science	-11.6527
▁wonder	-11.6536
▁battle	-11.6549
shi	-11.6554
▁hate	-11.6556
▁Only	-11.6556
▁board	-11.6558
▁clothes	-11.6561
▁boat	-11.6564
▁Florida	-11.6572
▁cool	-11.6573
▁shows	-11.6574
▁Um	-11.6583
▁located	-11.6584
▁Would	-11.6585
ock	-11.6596
▁president	-11.6608
▁Ne	-11.6618
▁Gu	-11.6621
▁II	-11.6629
▁rain	-11.6633
▁Church	-11.6641
ile	-11.6663
▁San	-11.6667
▁)	-11.6668
He	-11.6669
▁result	-11.6676
▁alive	-11.6676
cha	-11.668
▁Union	-11.6688
▁y	-11.6704
▁rich	-11.6708
▁project	-11.6708
▁needed	-11.6714
▁finally	-11.6725
▁anybody	-11.6735
▁Since	-11.6758
▁program	-11.6776
▁situation	-11.6788
ute	-11.6791
▁summer	-11.6793
▁sa	-11.6813
▁design	-11.6819
▁Red	-11.6824
▁earth	-11.6824
▁color	-11.6837
▁ba	-11.6839
▁appeared	-11.6842
▁gives	-11.6846
▁di	-11.6852
ft	-11.6852
▁energy	-11.6852
RE	-11.6865
▁Roman	-11.6865
▁caught	-11.688
▁subject	-11.6882
▁worth	-11.6889
▁ring	-11.6893
for	-11.6902
▁event	-11.6907
▁added	-11.6914
ide	-11.6925
▁considered	-11.6925
▁title	-11.6931
▁Cor	-11.6941
▁mhm	-11.6947
▁Frank	-11.6949
▁Court	-11.6959
▁spent	-11.6971
▁action	-11.7006
▁hi	-11.7018
▁self	-11.7024
▁Wi	-11.7025
▁stopped	-11.7031
▁except	-11.7032
▁army	-11.7033
ls	-11.7036
▁thanks	-11.7037
▁fa	-11.704
▁promise	-11.704
▁sign	-11.704
▁sc	-11.704
▁beat	-11.7055
fe	-11.7062
chi	-11.7069
▁god	-11.707
▁Sha	-11.7071
ping	-11.7074
tro	-11.7079
▁Listen	-11.7081
▁respect	-11.7089
▁bought	-11.7092
▁wall	-11.7092
▁pain	-11.7105
▁standing	-11.7111
▁master	-11.7115
▁grew	-11.7116
▁Africa	-11.7136
▁indeed	-11.714
▁perfect	-11.7151
ure	-11.7153
▁Sp	-11.7153
▁Party	-11.7165
ell	-11.7174
▁marriage	-11.7177
▁Pro	-11.7185
▁Very	-11.7193
▁pull	-11.7196
▁produced	-11.7204
▁cross	-11.7212
▁attention	-11.7226
king	-11.7231
▁Richard	-11.7238
▁Black	-11.724
▁ye	-11.7243
▁2006	-11.7256
▁sold	-11.7258
▁x	-11.7284
▁entire	-11.7286
▁William	-11.7287
ding	-11.7294
▁Mom	-11.7294
▁ice	-11.73
ot	-11.7317
▁trade	-11.7327
▁Does	-11.7332
ria	-11.7349
▁Hu	-11.7361
▁White	-11.7365
ram	-11.7371
our	-11.7372
[	-11.7376
▁Ni	-11.7391
▁lie	-11.7443
▁date	-11.745
ud	-11.749
qui	-11.7508
▁seeing	-11.7513
AR	-11.7526
▁simply	-11.755
▁Fi	-11.7556
▁square	-11.756
▁ear	-11.7563
▁Sure	-11.7571
▁current	-11.7575
▁although	-11.7576
▁search	-11.7595
▁length	-11.7615
▁race	-11.7616
my	-11.7623
▁imp	-11.7633
▁military	-11.764
▁OF	-11.7649
▁mo	-11.766
▁European	-11.7668
▁secret	-11.7671
▁sing	-11.7673
▁carried	-11.7678
▁tea	-11.7682
▁included	-11.7695
ach	-11.7701
▁Alan	-11.7702
▁Y	-11.7704
▁key	-11.7711
▁difference	-11.7713
▁arms	-11.7722
▁dry	-11.7725
▁Asia	-11.7725
▁da	-11.7732
▁fair	-11.7733
▁Dan	-11.7739
▁groups	-11.7741
▁captain	-11.7742
▁milk	-11.7742
▁center	-11.775
▁yours	-11.7752
▁officer	-11.7755
▁Italian	-11.7755
▁largest	-11.7757
▁names	-11.777
▁asking	-11.777
▁Dick	-11.7782
ble	-11.7787
▁bag	-11.7791
▁doubt	-11.7797
ass	-11.7811
▁west	-11.7815
va	-11.7816
▁district	-11.7817
▁speed	-11.782
sy	-11.7821
her	-11.783
▁completely	-11.7835
▁AND	-11.7838
▁arm	-11.7839
ists	-11.7853
mp	-11.7854
▁Christ	-11.7858
▁education	-11.7858
▁Charles	-11.7859
▁While	-11.7859
▁loved	-11.7869
▁risk	-11.7872
▁()	-11.7882
▁account	-11.7882
▁computer	-11.7897
▁points	-11.7898
▁sell	-11.7902
▁reach	-11.7905
▁Street	-11.7912
▁Excuse	-11.7913
ray	-11.7919
▁double	-11.7925
▁version	-11.7926
rap	-11.7945
▁fellow	-11.7959
▁scene	-11.7963
uff	-11.7973
but	-11.7984
▁IN	-11.799
▁research	-11.799
▁watching	-11.7997
cr	-11.8007
▁joined	-11.802
Yes	-11.8023
tra	-11.8031
abad	-11.8032
▁Three	-11.8032
rd	-11.8047
▁k	-11.8057
ple	-11.8059
▁r	-11.8059
res	-11.8061
▁below	-11.8074
ave	-11.8077
▁agree	-11.8078
▁sight	-11.8094
▁2012	-11.8098
▁path	-11.8109
eh	-11.8117
▁shoot	-11.8118
▁animal	-11.8121
▁meaning	-11.8133
▁evidence	-11.8138
▁Other	-11.8138
house	-11.8144
ath	-11.8145
▁director	-11.8148
▁page	-11.8149
ov	-11.8157
▁expect	-11.8159
▁High	-11.8163
▁Washington	-11.8165
▁distance	-11.8165
▁bridge	-11.8169
▁success	-11.8171
▁plus	-11.8178
▁lying	-11.8184
▁radio	-11.8195
▁Got	-11.8208
▁east	-11.8213
▁College	-11.8219
▁suddenly	-11.822
▁health	-11.8231
▁happening	-11.8239
▁talked	-11.8249
▁Cup	-11.825
▁plays	-11.8252
▁ride	-11.8257
▁share	-11.8257
▁count	-11.8266
▁forest	-11.8268
▁nearly	-11.8277
▁Put	-11.8287
▁style	-11.8291
▁caused	-11.8305
▁vi	-11.8314
▁Master	-11.8315
▁effect	-11.8326
▁Island	-11.8327
▁quiet	-11.834
mon	-11.8342
off	-11.8343
▁carry	-11.8352
▁wild	-11.8356
▁site	-11.8358
▁nor	-11.837
▁corner	-11.8373
▁oil	-11.8381
du	-11.8384
▁bird	-11.8393
▁heavy	-11.8402
▁coach	-11.841
vo	-11.8412
▁hat	-11.8414
▁media	-11.842
ied	-11.8423
▁formula	-11.8424
▁push	-11.8432
▁warm	-11.8434
▁higher	-11.8444
ue	-11.8457
▁wood	-11.8459
tal	-11.846
▁sex	-11.8465
ay	-11.8467
▁Pi	-11.8467
▁China	-11.8469
▁areas	-11.8472
ville	-11.8476
har	-11.8477
▁normal	-11.8478
▁wonderful	-11.8479
▁Paris	-11.8482
com	-11.8486
▁Ri	-11.8486
▁census	-11.8494
▁states	-11.85
▁protect	-11.8502
▁stupid	-11.8508
▁Tri	-11.8517
ize	-11.8522
▁super	-11.8523
▁Father	-11.8523
▁bet	-11.8525
ions	-11.8533
▁Ya	-11.8535
▁personal	-11.8537
▁families	-11.855
▁fly	-11.8553
▁Ju	-11.856
▁International	-11.8565
▁interested	-11.8568
▁trees	-11.8573
▁add	-11.8574
▁fit	-11.8583
▁finish	-11.8586
▁coffee	-11.8592
▁Jesus	-11.8593
▁v	-11.8603
ale	-11.8646
▁continued	-11.8665
▁speaking	-11.8673
▁formed	-11.8675
ob	-11.8681
▁Nor	-11.8687
▁quick	-11.8688
▁park	-11.8689
▁Minister	-11.8691
▁developed	-11.8693
▁cases	-11.8702
▁available	-11.8705
▁showed	-11.871
▁Earth	-11.8719
that	-11.8721
▁Ben	-11.8721
▁join	-11.8721
ative	-11.8726
▁songs	-11.8735
▁peace	-11.8747
▁Che	-11.8755
▁Its	-11.876
▁spend	-11.876
▁bottom	-11.8762
▁huge	-11.877
▁actor	-11.8775
▁bo	-11.8777
▁production	-11.8793
field	-11.8797
year	-11.8804
▁movement	-11.8805
▁announced	-11.8806
ep	-11.8832
▁Sea	-11.8838
▁data	-11.8839
▁Mc	-11.8841
▁pop	-11.8847
ess	-11.8848
▁birthday	-11.8848
▁gas	-11.8861
▁worse	-11.8863
ea	-11.8879
ified	-11.8882
▁helped	-11.8897
▁movies	-11.8904
▁Christian	-11.8906
▁eating	-11.8917
▁snow	-11.8923
▁mad	-11.8926
▁contract	-11.8932
ED	-11.8935
And	-11.8941
▁Act	-11.8947
▁lines	-11.8956
▁Lee	-11.8963
side	-11.8964
▁lower	-11.8968
▁dress	-11.8978
omb	-11.8981
▁Green	-11.8983
pp	-11.8987
▁founded	-11.8989
uc	-11.8992
▁sad	-11.9013
▁bus	-11.9014
▁mu	-11.902
▁code	-11.902
▁mistake	-11.9023
ku	-11.9034
▁tired	-11.9039
▁scared	-11.904
▁Bu	-11.9048
▁Their	-11.9051
ology	-11.9052
▁visit	-11.9061
▁stories	-11.9067
▁Po	-11.907
▁store	-11.908
▁model	-11.9086
▁ended	-11.9091
▁society	-11.9097
▁About	-11.9097
▁pieces	-11.9102
▁inter	-11.9104
ade	-11.9117
▁bank	-11.9126
▁Every	-11.9131
▁welcome	-11.9141
▁bright	-11.9142
▁careful	-11.9155
▁leg	-11.916
q	-11.9164
▁Gra	-11.9166
ite	-11.917
▁raised	-11.9173
▁sounds	-11.9174
▁Bi	-11.9178
ear	-11.9184
▁Award	-11.919
▁closed	-11.9195
▁Any	-11.9196
▁learned	-11.9206
▁walked	-11.9207
ily	-11.9214
▁Could	-11.9216
▁putting	-11.9218
▁charge	-11.9219
wood	-11.9227
▁plant	-11.9227
▁Lu	-11.9227
▁starting	-11.9228
ious	-11.9229
▁Sch	-11.9236
aw	-11.924
▁Mark	-11.9251
▁base	-11.9261
▁training	-11.9266
og	-11.9274
▁Day	-11.9276
▁ah	-11.9285
▁Je	-11.9293
▁teacher	-11.9294
ita	-11.9299
▁Indian	-11.9301
▁complete	-11.9306
▁decision	-11.9307
▁cover	-11.9317
▁History	-11.9321
▁po	-11.9322
▁politician	-11.9323
▁rose	-11.9326
▁choice	-11.9327
▁changes	-11.9337
▁international	-11.9337
▁nobody	-11.9337
▁trip	-11.9338
▁birds	-11.9338
ome	-11.9357
▁Province	-11.9367
▁Before	-11.9382
ash	-11.9387
▁extra	-11.9395
▁brain	-11.9402
▁Anne	-11.9405
▁chair	-11.9411
▁Ge	-11.9425
▁Central	-11.9428
▁yesterday	-11.9428
▁disease	-11.9433
▁likely	-11.9435
▁travel	-11.9437
▁letters	-11.9437
su	-11.9439
▁afternoon	-11.9443
▁price	-11.9445
▁Mu	-11.9458
use	-11.946
▁bi	-11.9468
▁explain	-11.947
▁chief	-11.9476
▁begin	-11.9477
▁Over	-11.9483
▁accept	-11.9486
▁escape	-11.9486
▁ancient	-11.9489
▁angry	-11.9489
▁thirty	-11.9489
▁stone	-11.9502
io	-11.9503
▁command	-11.9506
▁ought	-11.952
▁Hall	-11.9522
art	-11.9525
▁prison	-11.9534
▁believed	-11.9535
▁issue	-11.9542
des	-11.9544
end	-11.9547
▁release	-11.9548
▁coast	-11.9553
▁calling	-11.9555
▁garden	-11.9558
lar	-11.9563
lic	-11.9564
▁se	-11.9566
ice	-11.9566
▁luck	-11.9568
▁glass	-11.957
J	-11.9575
▁slow	-11.9581
▁mostly	-11.9583
▁soul	-11.9588
▁allow	-11.9588
ore	-11.9594
▁Those	-11.96
▁fourth	-11.9602
▁create	-11.9602
▁university	-11.9613
▁Cos	-11.9629
▁message	-11.9631
▁leader	-11.9635
▁necessary	-11.9645
▁Army	-11.9645
▁singer	-11.9651
ube	-11.9654
ame	-11.9656
▁bloody	-11.9664
▁opening	-11.9672
▁Air	-11.9673
▁Thomas	-11.9676
▁fault	-11.9676
▁immediately	-11.9676
▁culture	-11.9677
▁storm	-11.9679
ations	-11.9679
▁schools	-11.968
od	-11.9681
▁events	-11.9683
▁Wa	-11.9686
▁2,	-11.9692
▁ideas	-11.9694
▁busy	-11.9709
▁theory	-11.9719
▁hang	-11.9752
▁rule	-11.9753
▁Ki	-11.9776
▁enemy	-11.9786
▁Congress	-11.9786
▁Italy	-11.9786
▁covered	-11.9806
▁:	-11.9807
▁lovely	-11.9817
▁therefore	-11.9819
▁Bar	-11.9821
act	-11.9829
▁track	-11.9845
▁Bob	-11.9858
ez	-11.9861
▁Hold	-11.9864
▁Another	-11.9866
▁stars	-11.9871
▁arrived	-11.9883
mi	-11.9887
▁marry	-11.9895
▁earlier	-11.9898
▁surface	-11.9898
▁Canada	-11.9898
▁offer	-11.9901
▁ill	-11.9904
hor	-11.9907
▁continue	-11.9914
ris	-11.9933
▁Ok	-11.9935
ps	-11.9938
▁Pyr	-11.9946
▁prove	-11.9949
ium	-11.9949
oy	-11.9949
qu	-11.9953
like	-11.9961
▁lawyer	-11.9962
▁purpose	-11.9965
▁Sam	-11.9967
▁access	-11.9978
▁terrible	-11.9978
▁Royal	-11.9984
▁h	-11.9985
▁broken	-11.9988
▁wide	-12.0013
▁official	-12.0014
▁election	-12.0018
▁Once	-12.0028
gg	-12.0036
▁rights	-12.0039
▁Los	-12.0042
▁aha	-12.0045
▁holding	-12.0052
AN	-12.0071
▁mountain	-12.0072
▁Alright	-12.0076
▁established	-12.0077
▁successful	-12.0092
▁Everything	-12.0092
▁contact	-12.0092
▁Saint	-12.0098
bu	-12.0102
light	-12.0114
▁nose	-12.0118
car	-12.0126
▁reading	-12.0136
▁Keep	-12.0142
ough	-12.0144
▁fighting	-12.015
▁drop	-12.0151
▁knowledge	-12.0159
▁More	-12.0167
ek	-12.0167
▁crew	-12.0171
▁According	-12.0174
▁policy	-12.0174
▁relationship	-12.0178
ari	-12.0183
▁influence	-12.0188
▁rate	-12.0194
ization	-12.02
sto	-12.0201
▁neck	-12.0209
ami	-12.0209
▁IT	-12.0211
▁tape	-12.0211
▁Yu	-12.0213
▁enjoy	-12.0218
▁weight	-12.0221
▁spring	-12.0224
AL	-12.0239
▁shop	-12.024
▁forth	-12.024
▁fresh	-12.0241
▁none	-12.0257
▁average	-12.0257
▁absolutely	-12.0258
▁w	-12.0263
▁Korea	-12.029
▁minus	-12.029
▁fi	-12.0293
▁shape	-12.0301
▁Scotland	-12.0307
▁forces	-12.0309
▁Bye	-12.0311
▁Sta	-12.0312
▁forced	-12.0312
▁yellow	-12.0324
ica	-12.0335
▁stick	-12.0336
zz	-12.0338
▁regular	-12.0339
▁li	-12.0339
▁campaign	-12.0341
▁Spanish	-12.0341
▁Ooh	-12.0341
II	-12.0342
▁Wow	-12.0342
▁spot	-12.0345
tu	-12.0345
▁le	-12.0347
▁gr	-12.0351
▁mass	-12.0357
▁grave	-12.0358
▁practice	-12.0359
▁thus	-12.0383
▁Kingdom	-12.0391
▁liked	-12.0395
▁host	-12.0406
▁author	-12.042
▁Say	-12.0431
▁walking	-12.0449
▁accident	-12.0459
▁notice	-12.046
▁machine	-12.0464
▁pen	-12.0473
cing	-12.0477
ther	-12.0488
Atlantiques	-12.0493
▁beyond	-12.0493
▁bill	-12.0495
ju	-12.05
▁imagine	-12.0507
▁fool	-12.051
▁directed	-12.0512
=	-12.0519
ever	-12.0525
▁spirit	-12.0532
▁1.	-12.0539
▁Council	-12.0544
ual	-12.055
▁range	-12.0563
▁sp	-12.0571
▁address	-12.0574
ev	-12.0578
▁iron	-12.0581
▁patient	-12.0583
▁2013	-12.0593
hr	-12.0593
▁Greek	-12.0595
▁twice	-12.0595
▁signed	-12.0599
tor	-12.0602
▁Hill	-12.0604
That	-12.0608
fa	-12.0609
▁unless	-12.0613
▁Doctor	-12.0615
▁material	-12.0618
▁Bay	-12.0623
▁services	-12.063
▁choose	-12.063
▁Tony	-12.0634
▁Big	-12.0634
▁judge	-12.0638
ors	-12.0653
ging	-12.0656
▁Bur	-12.066
▁Iran	-12.0662
ks	-12.0663
▁Today	-12.0665
ford	-12.0673
▁pounds	-12.0675
▁wine	-12.0679
tes	-12.068
▁dropped	-12.0682
▁rise	-12.0682
▁dangerous	-12.0686
med	-12.069
LE	-12.0698
▁discovered	-12.0718
▁Lake	-12.0722
ai	-12.0741
Co	-12.0746
▁kinds	-12.0749
▁leaves	-12.0752
▁flowers	-12.0753
But	-12.0758
str	-12.0768
▁opportunity	-12.0769
▁farm	-12.0772
▁native	-12.0773
▁condition	-12.0775
▁tells	-12.0785
▁Joe	-12.079
▁Love	-12.0791
▁kiss	-12.0797
▁winter	-12.0805
▁metal	-12.0814
▁legs	-12.0821
▁competition	-12.0821
▁Steve	-12.0823
▁pe	-12.0853
▁biggest	-12.0857
▁religious	-12.0858
ura	-12.0858
mu	-12.0861
▁hide	-12.0867
▁dollars	-12.0867
▁lots	-12.0872
ery	-12.0885
▁fifty	-12.0892
▁driving	-12.0892
▁according	-12.0892
▁systems	-12.0903
▁Although	-12.091
▁Western	-12.0911
▁bomb	-12.0912
▁anti	-12.0915
▁Sometimes	-12.0928
▁soldiers	-12.0928
well	-12.0931
rack	-12.0937
▁anywhere	-12.0946
▁Help	-12.0946
▁hotel	-12.095
▁planet	-12.0951
▁Star	-12.0953
▁ass	-12.0957
▁fix	-12.0958
▁pressure	-12.0963
▁female	-12.097
▁vote	-12.097
▁sh	-12.0973
▁sides	-12.0977
▁smile	-12.0978
▁proud	-12.0981
▁entered	-12.0983
▁heat	-12.0983
▁ra	-12.0984
▁elected	-12.0984
▁mark	-12.0987
▁laugh	-12.0996
▁foreign	-12.0999
▁highest	-12.1
sis	-12.1006
▁Ti	-12.1006
pos	-12.1009
ets	-12.1009
▁economic	-12.1018
▁legal	-12.1027
▁1980	-12.1034
▁Prince	-12.1035
▁memory	-12.1035
▁Perhaps	-12.1037
▁Show	-12.1038
▁jump	-12.1047
▁birth	-12.1053
▁Mike	-12.1054
▁growing	-12.1058
▁Never	-12.1074
▁block	-12.1075
ming	-12.1075
▁religion	-12.1078
▁dogs	-12.108
lor	-12.108
▁sky	-12.1082
▁calls	-12.1094
▁mission	-12.1102
istic	-12.1105
▁Chinese	-12.1107
▁easily	-12.1107
▁Shi	-12.111
fu	-12.1114
▁pound	-12.1115
ack	-12.1121
▁negative	-12.1125
▁twelve	-12.1125
▁1990	-12.1126
▁throughout	-12.1126
▁Life	-12.1128
▁flat	-12.1128
▁smaller	-12.1133
▁characters	-12.1142
▁boss	-12.1144
▁honest	-12.116
▁du	-12.1167
ration	-12.1168
▁2005	-12.1169
let	-12.1172
sk	-12.1178
▁percent	-12.1178
▁weather	-12.118
▁individual	-12.1187
ix	-12.119
▁currently	-12.12
ens	-12.1201
▁episode	-12.1205
min	-12.1224
▁pictures	-12.1227
▁Ad	-12.1232
▁Association	-12.1234
▁medicine	-12.1234
▁positive	-12.1234
ook	-12.1236
▁skin	-12.1236
▁teams	-12.1236
▁Si	-12.1242
bs	-12.1267
▁hall	-12.1269
vers	-12.1269
▁Tu	-12.1269
▁laid	-12.1271
▁expected	-12.1275
▁plants	-12.1288
▁port	-12.1291
▁remained	-12.1292
ops	-12.1301
▁suit	-12.1305
▁missing	-12.1313
▁smell	-12.1316
▁Chi	-12.1323
▁older	-12.1323
▁industry	-12.1326
▁smart	-12.1327
ture	-12.1328
▁note	-12.1332
ou	-12.1337
▁spread	-12.1342
▁Mac	-12.1345
dic	-12.1352
▁consider	-12.1352
▁includes	-12.1352
▁Martin	-12.1355
▁3,	-12.1355
yo	-12.1358
berg	-12.1359
▁Smith	-12.1364
▁Mother	-12.1367
▁originally	-12.1367
▁wearing	-12.1371
▁players	-12.1373
▁direction	-12.1375
▁fat	-12.1384
ik	-12.1388
▁handle	-12.1396
▁rules	-12.1398
▁provide	-12.1399
▁civil	-12.14
▁2016	-12.14
ug	-12.142
▁wedding	-12.1421
▁lack	-12.1422
▁crime	-12.1428
▁2018	-12.1429
uck	-12.1433
▁Pre	-12.1433
▁ya	-12.1434
▁Jackson	-12.1438
▁studio	-12.1439
▁Make	-12.144
▁particularly	-12.1441
▁Catholic	-12.1446
law	-12.1463
cause	-12.1467
fer	-12.1469
▁Shut	-12.1482
▁forty	-12.1485
▁Time	-12.1485
▁Ab	-12.1496
▁bread	-12.1513
▁definitely	-12.1514
▁Jim	-12.1524
ew	-12.1525
._	-12.1526
▁Ex	-12.1531
▁Old	-12.1533
▁sake	-12.1533
▁soft	-12.1553
int	-12.1555
▁manager	-12.1567
▁duty	-12.157
▁content	-12.1579
▁staff	-12.1589
▁teach	-12.159
Well	-12.159
▁eggs	-12.1592
▁structure	-12.1599
▁uses	-12.1603
▁Next	-12.1608
▁strength	-12.1613
▁uncle	-12.1614
ast	-12.1615
iz	-12.1621
rop	-12.1625
mar	-12.163
iv	-12.1631
▁Per	-12.1636
▁realize	-12.1643
▁press	-12.1652
ele	-12.166
▁Republic	-12.1665
▁pleasure	-12.1665
▁Something	-12.1665
low	-12.1672
▁text	-12.1673
▁heaven	-12.1686
▁slowly	-12.1686
ural	-12.1688
▁degree	-12.1694
▁placed	-12.17
tri	-12.1707
▁Ch	-12.1709
▁moon	-12.1715
mit	-12.1717
▁hello	-12.1727
▁hill	-12.173
▁powerful	-12.1735
▁smoke	-12.1742
▁Spain	-12.1742
▁larger	-12.1745
ight	-12.1755
ric	-12.176
▁taste	-12.1761
▁Th	-12.1763
row	-12.1766
▁rec	-12.1783
▁mentioned	-12.1783
▁addition	-12.179
▁tax	-12.1792
▁2015	-12.1792
ui	-12.1798
▁worried	-12.18
illa	-12.1803
▁apart	-12.1812
gue	-12.1813
ped	-12.1821
▁Four	-12.1822
▁agreed	-12.1824
▁finger	-12.1829
▁pair	-12.1829
ef	-12.1836
▁avoid	-12.1839
▁wake	-12.1842
▁student	-12.1849
▁waste	-12.185
▁dreams	-12.1854
▁southwestern	-12.1858
▁circle	-12.1878
▁security	-12.1879
La	-12.1881
▁Bill	-12.1887
▁killing	-12.1891
▁Ve	-12.1892
..."	-12.1897
▁Road	-12.1898
ett	-12.1899
vis	-12.1899
▁Little	-12.19
cu	-12.1904
(	-12.1907
▁excuse	-12.1917
▁medical	-12.1917
▁direct	-12.1923
▁picked	-12.1924
▁youth	-12.1925
▁issues	-12.1934
▁zero	-12.1937
tte	-12.1945
▁object	-12.1954
▁bigger	-12.1957
▁Chicago	-12.1957
▁acting	-12.1962
ski	-12.1964
▁source	-12.197
▁fl	-12.1972
▁Fuck	-12.1976
▁Also	-12.1977
▁totally	-12.1979
▁consist	-12.198
▁designed	-12.1981
ire	-12.1988
▁product	-12.1988
▁Fe	-12.1991
▁honor	-12.1994
tter	-12.1994
▁sha	-12.1997
▁lucky	-12.1998
▁Both	-12.1999
ata	-12.2
▁centre	-12.2005
▁serve	-12.2006
▁orders	-12.2006
▁mate	-12.2007
▁section	-12.2009
▁forms	-12.2015
▁Texas	-12.2016
▁Yo	-12.2024
▁flight	-12.2026
▁Line	-12.2033
▁bitch	-12.2035
▁empty	-12.2036
▁records	-12.2036
▁troops	-12.2041
▁related	-12.2042
ral	-12.2055
ae	-12.2055
▁companies	-12.2055
▁Ber	-12.2058
▁brothers	-12.2068
▁conditions	-12.2069
▁Christmas	-12.2075
▁replaced	-12.2077
▁Ed	-12.2078
zi	-12.208
gil	-12.2084
▁Fine	-12.2087
▁danger	-12.209
▁brown	-12.2097
▁mum	-12.2102
ane	-12.2105
▁performance	-12.2106
▁generally	-12.212
▁rid	-12.2121
▁mainly	-12.2121
▁becomes	-12.2121
▁Grand	-12.213
▁bye	-12.2135
▁Nice	-12.2138
▁Has	-12.2143
ope	-12.2144
pt	-12.2153
▁houses	-12.2154
▁reported	-12.2161
▁leading	-12.2161
▁writer	-12.2172
bar	-12.2174
▁speech	-12.2175
▁Ku	-12.2175
fl	-12.2176
▁weird	-12.2176
▁basically	-12.2176
AT	-12.2177
▁partner	-12.2182
▁Chief	-12.2196
▁filled	-12.2198
▁plans	-12.2203
▁image	-12.2207
IN	-12.221
▁cast	-12.2211
▁surprise	-12.2213
▁temperature	-12.2216
▁teeth	-12.2216
▁obviously	-12.2217
▁performed	-12.2217
▁Out	-12.2225
▁bath	-12.2232
▁roof	-12.2236
▁unit	-12.2239
▁wa	-12.2241
▁appear	-12.2242
ches	-12.2255
▁pet	-12.2269
▁truck	-12.2272
▁breath	-12.2275
▁Majesty	-12.2277
▁complex	-12.2277
▁Huh	-12.2282
▁Championship	-12.2288
▁replied	-12.2297
▁stole	-12.2297
▁offered	-12.2301
▁singing	-12.2302
▁recorded	-12.2303
▁Club	-12.2306
.--	-12.2308
▁types	-12.231
ible	-12.2311
ender	-12.2314
▁palace	-12.2318
▁sword	-12.2318
▁forgot	-12.232
▁hole	-12.233
▁willing	-12.2335
▁eventually	-12.2338
▁coat	-12.2338
▁evil	-12.2338
▁clearly	-12.2343
▁Later	-12.2348
▁edge	-12.2354
▁kitchen	-12.2359
▁stuck	-12.2359
▁mi	-12.2361
▁Ke	-12.2362
▁loss	-12.2365
,--	-12.237
▁network	-12.2371
▁mid	-12.2374
▁duck	-12.2379
▁described	-12.2381
unt	-12.2381
izing	-12.2383
▁remain	-12.2385
▁lo	-12.2395
▁features	-12.2397
▁split	-12.24
▁Scott	-12.2401
▁Rock	-12.2411
spi	-12.2413
▁Major	-12.242
▁failed	-12.2422
▁central	-12.2423
▁Pat	-12.2423
eg	-12.2428
partement	-12.2441
▁thee	-12.2444
▁plain	-12.245
EN	-12.2452
▁Government	-12.2462
▁Mor	-12.2472
gra	-12.2474
▁2.	-12.2476
RA	-12.2478
▁lies	-12.2482
▁interview	-12.2482
▁northern	-12.2483
▁lord	-12.2486
▁Jane	-12.2488
▁2022	-12.249
▁damn	-12.2495
▁separate	-12.2498
▁Brown	-12.2503
▁sand	-12.2505
▁becoming	-12.2505
▁em	-12.251
▁thinks	-12.2518
▁Rose	-12.2518
▁ships	-12.252
▁concerned	-12.2526
▁camera	-12.2526
▁Pu	-12.2529
▁stock	-12.2529
▁opinion	-12.2537
Why	-12.2543
ada	-12.2544
ani	-12.2544
▁neither	-12.2545
▁actress	-12.2545
▁missed	-12.2551
room	-12.2552
jo	-12.2553
▁mention	-12.2553
▁universe	-12.2566
▁Lady	-12.2566
▁horses	-12.257
▁specific	-12.2573
▁pi	-12.2573
▁active	-12.2573
zo	-12.2577
▁1970	-12.2585
▁council	-12.2587
▁journey	-12.2587
▁solution	-12.2587
▁greatest	-12.259
▁goal	-12.2592
rie	-12.2597
▁conversation	-12.2608
▁grand	-12.2608
▁novel	-12.2609
Re	-12.2617
right	-12.2618
▁row	-12.2623
▁Dar	-12.2624
▁Academy	-12.2629
▁breakfast	-12.2629
▁ad	-12.2635
▁results	-12.2639
▁Russian	-12.2642
town	-12.2645
sha	-12.2647
▁property	-12.265
▁aged	-12.2651
▁van	-12.2652
▁produce	-12.2654
▁officers	-12.2656
▁meat	-12.2661
▁operation	-12.2663
▁Gi	-12.2665
▁greater	-12.2668
▁Boy	-12.2669
cer	-12.2672
back	-12.2674
▁Bor	-12.2677
▁saved	-12.2678
▁trial	-12.2678
ably	-12.2681
▁2020	-12.2686
▁prince	-12.2692
▁audience	-12.2692
▁hurry	-12.2692
▁divided	-12.2694
ments	-12.2695
port	-12.2695
▁cars	-12.2697
▁etc	-12.27
▁target	-12.2713
▁castle	-12.272
▁Law	-12.272
▁cities	-12.2725
▁Blue	-12.2725
▁dare	-12.2731
▁independent	-12.2735
▁scale	-12.2739
▁mess	-12.2755
▁lunch	-12.2755
ised	-12.2755
▁studied	-12.2756
sing	-12.2759
▁2011	-12.2766
▁brave	-12.2768
▁organization	-12.277
Mo	-12.2774
▁Sunday	-12.2777
SE	-12.2781
une	-12.2784
▁Jimmy	-12.2799
▁chain	-12.28
▁directly	-12.2801
oh	-12.2802
▁cancer	-12.2805
ole	-12.2811
▁ordered	-12.2813
▁test	-12.2815
▁buried	-12.282
ify	-12.2822
▁wow	-12.2823
▁Call	-12.2828
▁Sit	-12.2831
▁Bre	-12.2832
▁firm	-12.2836
▁papers	-12.2838
▁correct	-12.2841
▁Each	-12.2843
▁reasons	-12.2843
ua	-12.2846
▁decide	-12.2853
...?	-12.2853
▁calm	-12.2863
▁easier	-12.2863
▁impossible	-12.2863
▁THAT	-12.2863
▁gentlemen	-12.2863
▁Iowa	-12.2863
▁Open	-12.2869
▁faces	-12.2885
▁Soviet	-12.2885
▁surprised	-12.2888
▁increase	-12.2896
val	-12.2897
▁Ray	-12.2898
OR	-12.2903
ened	-12.2907
▁technology	-12.2907
▁worst	-12.2907
▁Te	-12.2908
▁silver	-12.2909
▁taught	-12.2915
ans	-12.2915
▁artist	-12.2917
▁shoes	-12.2928
tz	-12.2946
▁credit	-12.2949
▁silly	-12.2951
▁prepared	-12.2952
▁treatment	-12.2952
ving	-12.2955
▁keeping	-12.2956
▁Best	-12.2957
▁function	-12.2965
oma	-12.2965
▁Mexico	-12.2972
▁Leave	-12.2973
▁Susan	-12.2973
▁fill	-12.298
▁Russia	-12.2982
▁heads	-12.2985
▁Football	-12.2994
▁favorite	-12.2994
▁giant	-12.2995
▁chicken	-12.2996
ius	-12.2997
▁teaching	-12.2997
▁flying	-12.2998
▁learning	-12.3001
▁feed	-12.3003
az	-12.3008
ator	-12.3011
▁Still	-12.3016
▁finding	-12.3029
▁starts	-12.3031
▁ourselves	-12.3037
▁blind	-12.3037
ged	-12.3039
▁collection	-12.3041
▁crying	-12.3041
▁fashion	-12.3048
▁standard	-12.3053
▁origin	-12.3054
▁Empire	-12.3059
▁Up	-12.3066
▁2001	-12.3071
lia	-12.3072
ded	-12.3077
▁al	-12.3077
ants	-12.308
▁asleep	-12.3081
▁recently	-12.3083
▁runs	-12.3087
mb	-12.309
▁drinking	-12.3091
▁sleeping	-12.3093
▁route	-12.3097
▁prevent	-12.3101
▁traditional	-12.3102
par	-12.3104
▁engine	-12.3107
▁rep	-12.3107
Be	-12.3108
form	-12.311
ched	-12.3118
ool	-12.312
▁Professor	-12.3126
▁multiple	-12.313
bur	-12.3137
ano	-12.3139
▁cook	-12.3145
hy	-12.3151
dge	-12.3169
▁financial	-12.317
▁receive	-12.3176
▁province	-12.3185
If	-12.3195
ino	-12.3201
▁Sal	-12.3206
▁pocket	-12.3208
▁actual	-12.3213
▁Women	-12.3215
▁Ye	-12.322
▁Prime	-12.322
▁buildings	-12.3224
dia	-12.3234
▁drunk	-12.3237
▁tail	-12.3237
▁Anyway	-12.3238
▁thick	-12.3238
▁frog	-12.3243
▁environment	-12.3244
▁onto	-12.3247
oke	-12.3259
▁Louis	-12.3265
▁seconds	-12.3273
ara	-12.3278
▁tournament	-12.3282
▁ladies	-12.3282
▁Bra	-12.3287
are	-12.3289
▁swear	-12.3305
▁forever	-12.3314
rai	-12.3314
▁noise	-12.3318
ins	-12.3321
▁hungry	-12.3327
▁strike	-12.335
▁faith	-12.3352
lip	-12.3353
▁Maria	-12.337
▁amazing	-12.3372
▁Company	-12.3372
▁Port	-12.3388
▁kingdom	-12.3395
ON	-12.3395
▁railway	-12.3396
gar	-12.3396
▁DO	-12.3399
▁connection	-12.34
▁promised	-12.3401
▁Young	-12.3405
race	-12.3407
▁stayed	-12.341
▁quarter	-12.3411
▁soldier	-12.3418
▁screen	-12.3424
ES	-12.3425
▁listening	-12.3427
av	-12.3435
▁Remember	-12.3441
ties	-12.3452
▁proper	-12.3463
▁costs	-12.3463
▁Governor	-12.3464
▁Carter	-12.3464
▁roll	-12.3479
▁Princess	-12.3486
▁magazine	-12.3486
▁shirt	-12.3491
hal	-12.3492
rk	-12.3501
board	-12.3503
▁focus	-12.3504
▁Actually	-12.3509
▁municipality	-12.3511
▁ro	-12.3521
So	-12.353
▁commercial	-12.3533
▁Center	-12.3533
▁Second	-12.3534
▁planning	-12.3534
Le	-12.3536
oli	-12.3545
▁turns	-12.3548
▁Under	-12.3554
ky	-12.3558
ama	-12.3565
cho	-12.3575
▁previous	-12.3577
▁mis	-12.3581
ents	-12.3588
▁bottle	-12.3596
▁raise	-12.3599
▁threw	-12.3602
▁Indiana	-12.3605
▁languages	-12.3605
▁programs	-12.3613
▁wash	-12.3617
▁drama	-12.3625
▁required	-12.3627
How	-12.3629
▁shore	-12.3633
ette	-12.3633
pl	-12.3647
▁throat	-12.3649
▁sports	-12.3649
▁guard	-12.365
▁lights	-12.3653
▁plane	-12.3655
▁ga	-12.3658
yl	-12.3662
▁drew	-12.3672
▁appointed	-12.3672
▁spa	-12.368
▁pan	-12.3681
To	-12.3683
▁struck	-12.3695
▁Angeles	-12.3696
▁4,	-12.3697
▁reality	-12.3698
▁aware	-12.3704
▁treat	-12.3719
▁Far	-12.3721
ker	-12.3726
ese	-12.3733
▁Kennedy	-12.3742
▁Parliament	-12.3742
▁shift	-12.3742
▁ears	-12.3749
▁pot	-12.3757
▁turning	-12.3759
▁fruit	-12.376
▁location	-12.376
▁drug	-12.3762
▁beauty	-12.3766
ound	-12.3769
lle	-12.3785
▁construction	-12.379
▁southern	-12.379
▁Uncle	-12.3793
▁prize	-12.3795
▁hero	-12.3797
▁significant	-12.3812
▁managed	-12.3816
▁loose	-12.3817
RO	-12.3826
▁200	-12.3827
▁desire	-12.3834
▁Saturday	-12.3837
▁Daniel	-12.3837
▁destroyed	-12.3839
▁wet	-12.3846
CH	-12.3857
▁Girl	-12.3857
some	-12.3858
▁physical	-12.3859
▁silence	-12.3861
▁Division	-12.3861
▁introduced	-12.3862
▁stream	-12.3866
▁1960	-12.3873
▁Ce	-12.3879
▁method	-12.3879
▁favor	-12.3884
▁Rome	-12.3887
▁dragon	-12.3888
▁broad	-12.389
▁streets	-12.3903
▁instance	-12.3909
▁ocean	-12.3909
▁possibly	-12.3909
▁debut	-12.3909
see	-12.391
▁lad	-12.3916
set	-12.3917
▁units	-12.3919
▁sharp	-12.3931
▁Everybody	-12.3933
▁2017	-12.3936
▁weak	-12.3952
▁Canadian	-12.3957
▁nation	-12.3968
▁burn	-12.3969
▁1996	-12.397
▁nineteen	-12.3981
▁lock	-12.3981
▁Think	-12.3982
▁appears	-12.3991
▁wo	-12.3993
My	-12.3998
▁Pla	-12.4006
▁Gar	-12.4018
ates	-12.4026
▁gain	-12.4026
▁admit	-12.4029
▁basic	-12.4029
▁chocolate	-12.4029
▁losing	-12.4029
▁Americans	-12.403
▁male	-12.4031
▁accepted	-12.4034
ress	-12.4034
ses	-12.4034
▁hardly	-12.404
Si	-12.4043
▁loves	-12.4048
sp	-12.4049
▁concert	-12.4053
▁Fo	-12.4055
▁toward	-12.4056
▁dressed	-12.4058
ei	-12.4059
▁joke	-12.4065
lk	-12.4067
▁attempt	-12.4067
▁afterwards	-12.4078
▁dirty	-12.4078
▁sexual	-12.4084
▁showing	-12.4087
▁1997	-12.4093
▁fought	-12.4102
▁Latin	-12.4102
▁sweetie	-12.4104
▁Par	-12.411
▁fe	-12.4111
▁falling	-12.4111
▁African	-12.4113
ification	-12.4122
▁Wo	-12.4122
▁rocks	-12.4123
▁advantage	-12.4127
▁minister	-12.4127
ces	-12.4129
▁drugs	-12.413
▁1998	-12.4134
ula	-12.4134
▁drawing	-12.4135
▁grown	-12.4136
▁laws	-12.4137
rus	-12.415
▁responsible	-12.4151
▁Watch	-12.4151
▁settlement	-12.4153
sey	-12.4156
▁Last	-12.4158
▁quality	-12.4176
▁channel	-12.4176
▁Ji	-12.4176
▁Whatever	-12.4179
▁union	-12.4192
▁enter	-12.4196
ox	-12.4196
ena	-12.4199
▁humans	-12.4199
▁Friday	-12.42
▁Scottish	-12.42
▁retired	-12.4201
▁Year	-12.4204
▁prime	-12.4207
lam	-12.4218
▁wave	-12.4219
▁Austria	-12.4225
▁Summer	-12.4225
▁expression	-12.4228
rit	-12.423
-19	-12.4236
▁statement	-12.4247
▁league	-12.425
▁HE	-12.4253
lly	-12.4253
▁fixed	-12.4254
IC	-12.4254
--"	-12.4265
▁constant	-12.4273
▁sudden	-12.4273
▁reform	-12.4275
▁driver	-12.4282
▁Stay	-12.4283
work	-12.4286
▁photo	-12.4287
▁2014	-12.4293
▁division	-12.4295
▁joy	-12.4299
▁opposite	-12.4299
▁queen	-12.4299
▁grass	-12.4299
▁Nobody	-12.43
▁helping	-12.431
All	-12.431
▁feels	-12.4312
▁recent	-12.4323
▁UK	-12.4326
▁jail	-12.4326
▁gay	-12.4329
▁bull	-12.433
uyeh	-12.433
▁Hans	-12.4331
▁bound	-12.4335
▁pleased	-12.4335
▁Long	-12.4337
pro	-12.4344
bit	-12.4345
▁laughed	-12.4353
rab	-12.4355
rate	-12.4356
ering	-12.4369
▁display	-12.4371
▁Britain	-12.4374
▁royal	-12.4374
▁pa	-12.4377
▁Five	-12.438
▁approach	-12.4393
▁score	-12.4393
▁damage	-12.4397
cia	-12.4409
▁Ten	-12.4414
▁Tra	-12.4415
▁Shit	-12.4419
▁review	-12.4421
▁request	-12.4422
▁pulled	-12.4431
▁Com	-12.4432
▁brand	-12.4433
ability	-12.4433
▁shake	-12.4434
▁kick	-12.4447
▁signal	-12.4448
▁Joseph	-12.445
stone	-12.4454
▁comedy	-12.4455
Ha	-12.4456
▁billion	-12.4456
cle	-12.4465
▁younger	-12.4466
tive	-12.4467
▁gift	-12.4471
▁cash	-12.4472
▁response	-12.4475
▁appeal	-12.4475
▁odd	-12.4475
▁sugar	-12.4475
▁Valley	-12.4475
▁safety	-12.4476
▁Col	-12.4476
▁label	-12.4477
▁noticed	-12.448
late	-12.4486
▁products	-12.4487
ali	-12.4493
▁Gold	-12.4494
▁dr	-12.4496
▁challenge	-12.4498
▁bastard	-12.4501
▁dying	-12.4501
▁Tommy	-12.4501
head	-12.4501
▁pig	-12.4516
kh	-12.4521
▁management	-12.4526
▁entirely	-12.4529
rt	-12.4534
▁fingers	-12.4539
▁benefit	-12.4548
▁5,	-12.4549
▁su	-12.4549
▁Music	-12.455
▁Koh	-12.4551
▁protest	-12.4552
▁Gal	-12.4555
▁winning	-12.4556
▁Super	-12.4557
▁crowd	-12.4577
▁uniform	-12.4577
▁Edward	-12.4577
▁ON	-12.4579
▁Part	-12.4588
SS	-12.4592
▁remind	-12.46
▁forgive	-12.4603
▁task	-12.4605
▁jobs	-12.4606
▁tongue	-12.4607
table	-12.4609
▁cell	-12.461
▁beach	-12.4612
▁walls	-12.4613
▁remains	-12.4613
mal	-12.4621
with	-12.4622
▁matters	-12.4626
.]	-12.4627
▁gentleman	-12.4629
▁tiny	-12.4631
▁map	-12.4634
rick	-12.4638
oi	-12.4648
▁broadcast	-12.4651
▁northwest	-12.4654
▁Everyone	-12.4655
clock	-12.4664
ows	-12.4665
▁Nick	-12.4667
▁Too	-12.4671
There	-12.4671
▁par	-12.4673
▁cards	-12.4673
▁quit	-12.4674
els	-12.4674
ini	-12.4675
▁Back	-12.4681
cent	-12.4682
▁defeated	-12.4683
zer	-12.4691
lay	-12.4694
▁rent	-12.4698
▁musical	-12.4701
▁professor	-12.4706
▁steps	-12.4717
rail	-12.4723
▁Fu	-12.4726
▁effort	-12.4729
▁Aunt	-12.473
▁politics	-12.4732
▁bodies	-12.4732
▁Early	-12.4733
▁Someone	-12.4733
▁removed	-12.4734
▁sail	-12.4734
lou	-12.4743
▁RE	-12.4745
ill	-12.4753
▁br	-12.4757
▁mar	-12.4758
▁Group	-12.4758
ctor	-12.4759
mic	-12.477
ola	-12.4771
▁fur	-12.4775
pers	-12.4776
umble	-12.4778
▁Dutch	-12.4784
▁Should	-12.4784
▁Daddy	-12.4785
▁harm	-12.4785
▁thousands	-12.4786
▁IS	-12.479
EL	-12.4793
▁likes	-12.4801
know	-12.4802
▁historical	-12.4804
▁killer	-12.4806
▁refer	-12.4807
▁authority	-12.4811
▁flow	-12.4816
ima	-12.4823
▁bat	-12.4824
▁bra	-12.4831
▁ends	-12.4831
▁loud	-12.4834
▁qua	-12.4834
mes	-12.4837
▁faster	-12.4841
▁shooting	-12.4842
▁Force	-12.4846
▁Bro	-12.4847
▁agent	-12.4859
not	-12.4861
▁usual	-12.4863
▁afford	-12.4863
ava	-12.4864
▁fifth	-12.4865
▁connected	-12.4866
▁ge	-12.4866
▁Pan	-12.4869
▁manner	-12.487
▁details	-12.4882
▁1995	-12.4885
▁newspaper	-12.4887
▁failure	-12.4889
▁everywhere	-12.4889
▁egg	-12.489
▁honour	-12.489
▁somewhat	-12.489
▁settled	-12.4891
▁committee	-12.4892
Yeah	-12.4893
This	-12.4895
▁Holy	-12.4896
lick	-12.4896
▁attacked	-12.4897
▁Home	-12.4906
▁knife	-12.4916
▁Constitution	-12.4916
▁2007	-12.4922
ense	-12.4925
▁lake	-12.4927
▁sum	-12.4928
how	-12.4932
she	-12.4936
▁Brother	-12.494
▁awful	-12.4941
ars	-12.4941
▁silent	-12.4942
▁matches	-12.4945
▁provided	-12.4947
▁completed	-12.4948
▁Cap	-12.4949
▁1994	-12.495
▁colour	-12.4951
af	-12.4964
▁manage	-12.4967
De	-12.4968
▁traffic	-12.4969
▁km	-12.4976
St	-12.498
hand	-12.4984
▁contains	-12.4988
gh	-12.4989
"?	-12.4993
▁appreciate	-12.4995
▁flower	-12.4997
ory	-12.4998
▁useful	-12.5001
phi	-12.5011
▁guns	-12.5012
▁Dave	-12.5015
▁exchange	-12.5022
▁steam	-12.5024
▁2013,	-12.5024
▁medal	-12.5025
ree	-12.5026
▁closer	-12.5027
▁exist	-12.5035
▁develop	-12.5036
▁Wood	-12.5039
▁connect	-12.5045
▁forgotten	-12.5049
▁cousin	-12.5052
▁fr	-12.5054
▁highly	-12.5061
▁chose	-12.5073
▁Awards	-12.5075
▁salt	-12.5077
▁slightly	-12.5077
war	-12.509
▁knowing	-12.509
▁suck	-12.5091
▁Cho	-12.5095
rim	-12.5104
▁branch	-12.5104
▁causes	-12.5104
ST	-12.5106
▁thy	-12.5106
▁Chris	-12.5107
▁Inter	-12.5107
fully	-12.511
▁fired	-12.5121
▁eh	-12.5123
▁Art	-12.5125
▁progress	-12.513
▁expensive	-12.513
▁presence	-12.513
▁budget	-12.513
▁activity	-12.513
▁Whoa	-12.513
▁majority	-12.5131
▁western	-12.5132
▁Rob	-12.5134
▁Film	-12.5135
▁Order	-12.5135
▁shame	-12.5142
▁ability	-12.5154
▁Republican	-12.5155
▁witness	-12.5156
▁Secretary	-12.5157
▁Prize	-12.5157
▁lips	-12.5157
▁Southern	-12.5158
▁boo	-12.516
▁Hy	-12.5164
▁Va	-12.5167
▁Damn	-12.5172
app	-12.5172
ib	-12.5174
▁bringing	-12.5175
▁BE	-12.5177
▁demand	-12.5179
▁studies	-12.5184
hat	-12.5188
gy	-12.5194
its	-12.5197
IT	-12.5207
ington	-12.521
▁sentence	-12.5236
rr	-12.5237
▁weekend	-12.5239
▁bell	-12.5242
▁app	-12.5252
▁vo	-12.5261
▁Os	-12.5265
▁Massachusetts	-12.5266
▁victory	-12.5266
▁Carolina	-12.5266
▁extremely	-12.5267
▁upset	-12.5269
▁feelings	-12.5273
▁Max	-12.528
▁border	-12.5292
▁Institute	-12.5294
▁conference	-12.5294
▁status	-12.5294
▁princess	-12.5294
▁Jean	-12.5295
▁suggested	-12.5296
▁claim	-12.5297
ular	-12.5307
LY	-12.5316
▁brief	-12.532
lock	-12.532
▁advice	-12.5321
▁cheese	-12.5321
▁slip	-12.5327
ient	-12.533
UR	-12.5336
▁flag	-12.5341
▁seek	-12.5345
▁defeat	-12.5346
▁hearing	-12.5349
▁climate	-12.5349
ala	-12.535
▁moral	-12.5354
▁copy	-12.5355
▁WE	-12.5372
je	-12.5374
▁crash	-12.5376
▁Michigan	-12.5377
▁criminal	-12.5377
▁fifteen	-12.5377
aki	-12.5384
▁z	-12.5385
▁Ay	-12.5386
tai	-12.5396
ics	-12.5401
▁guilty	-12.5405
▁chest	-12.5406
hill	-12.541
lf	-12.5414
LL	-12.5425
rio	-12.5426
▁shoulder	-12.543
▁Again	-12.5432
▁worship	-12.5432
▁Society	-12.5432
▁understood	-12.5432
▁Addons	-12.5432
▁golden	-12.5433
▁narrow	-12.5433
▁Ow	-12.5441
ora	-12.5454
yard	-12.5454
▁Games	-12.5455
▁Kansas	-12.546
▁carbon	-12.546
▁tough	-12.5464
▁fully	-12.5465
▁resources	-12.5476
▁concept	-12.5485
▁spell	-12.5485
▁flew	-12.5488
▁Senate	-12.5488
sar	-12.5489
▁tower	-12.549
▁hanging	-12.5493
▁rough	-12.5493
▁owned	-12.55
▁clock	-12.5501
▁measure	-12.5502
br	-12.5515
▁federal	-12.5516
▁upstairs	-12.5516
▁Down	-12.5517
▁planned	-12.5518
▁setting	-12.5518
ological	-12.5519
uk	-12.5533
▁appearance	-12.5544
▁Light	-12.5544
▁Death	-12.5545
▁bl	-12.5546
▁reference	-12.5548
▁passing	-12.5553
▁mill	-12.5554
rum	-12.556
Pa	-12.5565
ero	-12.5567
rew	-12.5568
TER	-12.557
▁Department	-12.5573
▁occurred	-12.5573
ouch	-12.5573
▁bite	-12.5574
▁awarded	-12.5575
▁Hmm	-12.5576
VE	-12.5578
▁soil	-12.5583
TV	-12.5584
▁1999	-12.5588
▁na	-12.5588
▁Ver	-12.5592
▁1992	-12.5599
▁carefully	-12.5604
▁apple	-12.5605
▁lift	-12.5605
▁Cl	-12.5606
▁2008	-12.5608
▁Cat	-12.5619
▁knock	-12.5623
▁nest	-12.5625
▁Cre	-12.5626
▁blame	-12.5627
▁Had	-12.5629
▁Middle	-12.5629
▁proof	-12.5635
▁ka	-12.5641
bye	-12.5646
tha	-12.5654
▁orange	-12.5658
▁otherwise	-12.5658
▁6,	-12.566
▁parties	-12.5661
▁2000	-12.5663
ser	-12.5667
▁presented	-12.567
▁20,	-12.5674
▁Olympics	-12.5674
ose	-12.5682
tting	-12.5684
▁Harry	-12.5687
▁Ohio	-12.5689
▁perfectly	-12.569
▁Sh	-12.5691
▁1991	-12.5695
▁Ste	-12.5707
▁fail	-12.5715
▁Mhm	-12.5717
▁owe	-12.5717
▁communication	-12.5718
▁understanding	-12.5739
▁limited	-12.5746
▁10,	-12.5752
cher	-12.5753
▁advance	-12.5755
▁cont	-12.5766
American	-12.5767
▁wise	-12.5769
▁arrest	-12.577
▁wire	-12.5771
▁combination	-12.5773
▁Bat	-12.5774
hoo	-12.5775
▁mountains	-12.5779
place	-12.5779
▁lion	-12.5785
▁watched	-12.5786
sch	-12.5797
▁steal	-12.58
▁trick	-12.5804
tie	-12.5806
▁grade	-12.5811
▁suggest	-12.5815
▁1993	-12.5817
Sa	-12.5819
down	-12.5822
omi	-12.5829
▁excited	-12.583
▁volume	-12.583
▁represented	-12.5833
▁Alex	-12.5834
▁Try	-12.5834
▁pee	-12.5835
▁notes	-12.5844
ote	-12.5845
▁discuss	-12.5848
sia	-12.5853
▁counter	-12.5859
▁nurse	-12.5861
▁tears	-12.5868
▁recording	-12.5869
▁plate	-12.5869
▁breaking	-12.5871
▁Vo	-12.5876
▁flash	-12.5886
▁programme	-12.5888
▁nervous	-12.5889
▁dancing	-12.5889
▁unique	-12.5889
ising	-12.5889
▁increased	-12.5893
▁cheer	-12.5895
▁fund	-12.5907
▁ME	-12.591
▁express	-12.5912
bal	-12.5913
▁destroy	-12.5913
▁alcohol	-12.5914
▁mix	-12.5915
▁transport	-12.5918
▁effects	-12.5922
_.	-12.5922
▁""	-12.5923
ona	-12.5925
▁j	-12.5927
▁beside	-12.5928
lee	-12.5929
▁Kim	-12.5931
sur	-12.5934
▁wings	-12.5936
▁keeps	-12.5938
▁Pete	-12.5946
▁drove	-12.5947
▁eleven	-12.5947
▁governor	-12.5949
rry	-12.5949
▁Har	-12.595
▁fro	-12.596
tur	-12.5961
▁doors	-12.5961
▁pal	-12.5976
▁root	-12.5977
▁declared	-12.5978
▁carrying	-12.5983
▁Mer	-12.5983
▁motion	-12.5984
log	-12.5993
▁MAN	-12.5993
ort	-12.5997
more	-12.5999
▁remembered	-12.6001
▁Lou	-12.6004
▁reaction	-12.6007
▁ninety	-12.6007
▁bullet	-12.6009
iff	-12.601
thing	-12.6012
▁button	-12.6014
▁laughing	-12.6016
▁magic	-12.602
aria	-12.6024
▁helps	-12.6025
▁Pri	-12.6026
▁stated	-12.6032
▁Pennsylvania	-12.6036
▁basis	-12.6036
▁background	-12.6036
uring	-12.6037
▁growth	-12.6038
ras	-12.604
▁height	-12.6045
▁teachers	-12.6064
▁Emperor	-12.6065
▁Kentucky	-12.6065
▁occur	-12.6066
▁goods	-12.6066
▁Welcome	-12.6067
▁ab	-12.6069
▁Cross	-12.607
▁agreement	-12.6071
eo	-12.6075
▁je	-12.6075
▁shock	-12.6095
▁Victoria	-12.6096
▁Senator	-12.6096
▁Water	-12.6096
▁apartment	-12.6098
▁Van	-12.6102
cal	-12.6106
▁signs	-12.6108
ys	-12.6114
▁hung	-12.6123
▁bang	-12.6124
▁freedom	-12.6125
▁devil	-12.6125
▁hiding	-12.6127
▁cream	-12.6128
ract	-12.6136
▁stations	-12.6142
▁Fire	-12.6147
▁switch	-12.6149
▁balls	-12.6152
NA	-12.6152
▁mail	-12.6155
▁Pacific	-12.6155
▁Ireland	-12.6155
▁Williams	-12.6155
▁Hurry	-12.6155
▁kidding	-12.6155
▁Johnson	-12.6157
▁normally	-12.6159
sie	-12.6161
▁15,	-12.6162
▁shared	-12.6162
Cause	-12.6162
▁bow	-12.6173
▁III	-12.6174
▁Shakespeare	-12.6185
▁Exactly	-12.6185
▁website	-12.6185
▁Anything	-12.6185
▁daily	-12.6185
▁FOR	-12.6186
▁Castle	-12.6186
▁symbol	-12.6186
▁12,	-12.6187
▁Andrew	-12.6188
▁thin	-12.6192
who	-12.6203
▁owner	-12.6207
▁spare	-12.6209
▁belong	-12.6214
▁museum	-12.6215
▁vector	-12.6215
▁Democratic	-12.6215
aught	-12.6215
▁protection	-12.6217
▁pu	-12.6227
▁shell	-12.6232
RI	-12.6232
lea	-12.6235
▁plenty	-12.6245
▁comfortable	-12.6246
▁latter	-12.6246
night	-12.6246
▁figures	-12.6249
▁profit	-12.6252
ked	-12.6256
shire	-12.6256
▁pie	-12.6258
▁staying	-12.6266
▁Land	-12.6272
▁gods	-12.6275
▁Museum	-12.6276
▁violence	-12.6276
▁mixed	-12.6279
▁motor	-12.628
▁sheep	-12.6281
ered	-12.6287
▁Mal	-12.6288
▁ate	-12.6288
▁bowl	-12.6294
▁Lieutenant	-12.6306
▁paint	-12.6306
▁eastern	-12.6307
▁pipe	-12.6308
▁aunt	-12.6311
▁bunch	-12.6311
▁Soon	-12.6318
").	-12.6318
▁Fr	-12.6327
ater	-12.6332
▁survive	-12.6333
▁critical	-12.6336
▁variety	-12.6337
▁Civil	-12.6337
▁Boston	-12.6337
▁invited	-12.6338
▁Amy	-12.6345
ball	-12.635
▁bother	-12.6356
▁follows	-12.6357
▁workers	-12.636
pper	-12.6367
▁piano	-12.6367
▁impact	-12.6367
▁steel	-12.6367
▁Jones	-12.6368
▁Vice	-12.6374
▁additional	-12.6382
bli	-12.6393
omp	-12.6399
▁disappeared	-12.64
▁classes	-12.6401
ept	-12.6402
▁3.	-12.6404
aries	-12.6405
OW	-12.6412
▁Anna	-12.6416
▁windows	-12.6417
cus	-12.6427
ok	-12.6428
▁supply	-12.6429
▁plot	-12.6429
his	-12.6431
tis	-12.6431
▁uns	-12.6435
ians	-12.644
bus	-12.6441
ement	-12.6446
fr	-12.6457
▁slept	-12.6459
▁Sidney	-12.6459
▁idiot	-12.6459
▁changing	-12.646
▁Eric	-12.646
avi	-12.646
rat	-12.646
▁somehow	-12.6461
▁dozen	-12.6462
dra	-12.6465
▁Shall	-12.6466
bra	-12.6466
▁Bee	-12.6467
eth	-12.6471
▁CO	-12.6471
▁darling	-12.649
▁innocent	-12.649
▁Power	-12.6491
▁proposed	-12.6492
▁captured	-12.6493
▁temple	-12.6502
▁Char	-12.6518
TE	-12.6519
▁unknown	-12.6521
▁fallen	-12.6522
▁acid	-12.6523
▁edition	-12.6524
▁ST	-12.6527
▁squared	-12.6529
▁Such	-12.653
RR	-12.6534
▁powers	-12.6541
▁equation	-12.6553
▁priest	-12.6555
▁print	-12.6555
▁Turn	-12.6558
▁serving	-12.6558
▁Romania	-12.6562
▁artists	-12.6564
▁operations	-12.6564
▁pin	-12.6569
▁solve	-12.6579
▁recognize	-12.6581
▁attitude	-12.6584
▁conflict	-12.6584
▁cycle	-12.6584
▁Night	-12.6584
▁mama	-12.6585
▁associated	-12.6585
ying	-12.6592
ux	-12.6594
▁selling	-12.6596
▁gate	-12.6598
▁beer	-12.6603
▁Move	-12.6608
▁Sy	-12.6612
▁sin	-12.6613
▁Mai	-12.6613
mm	-12.6616
▁eaten	-12.6617
ealand	-12.6623
▁supported	-12.6627
LA	-12.6631
▁sees	-12.6633
atory	-12.6636
▁senior	-12.6647
▁stomach	-12.6647
▁Arthur	-12.6647
▁Elizabeth	-12.6647
▁girlfriend	-12.6647
▁clever	-12.6647
▁Six	-12.6648
▁holiday	-12.6649
▁victim	-12.6649
▁ver	-12.665
die	-12.665
▁fairly	-12.6651
▁oldest	-12.6651
▁Cr	-12.666
hmm	-12.6663
▁paying	-12.6667
lum	-12.6667
▁yo	-12.6671
▁opera	-12.6672
ago	-12.6675
▁suffering	-12.6681
▁arrested	-12.6681
▁Bad	-12.6682
Al	-12.6706
▁juice	-12.671
▁file	-12.671
▁Wendy	-12.6711
▁Looks	-12.6725
▁suspect	-12.6739
▁Sergeant	-12.6742
▁balance	-12.6742
▁primary	-12.6742
▁ooh	-12.6742
▁monster	-12.6742
xi	-12.6744
▁roles	-12.6747
▁Sar	-12.675
US	-12.6752
▁Were	-12.6752
▁thoughts	-12.6753
▁upper	-12.6754
fo	-12.6757
▁materials	-12.6764
▁Ali	-12.6767
ros	-12.6771
▁prefer	-12.6773
▁championship	-12.6775
▁1950	-12.6775
▁previously	-12.6776
▁featured	-12.6776
▁spin	-12.6779
▁2013.	-12.6783
▁fu	-12.6784
▁producer	-12.6785
Me	-12.6795
▁boom	-12.6796
▁fields	-12.6801
▁Festival	-12.6805
▁familiar	-12.6805
▁insurance	-12.6805
▁sixty	-12.6807
▁realized	-12.6811
van	-12.6817
▁2009	-12.6823
▁deck	-12.6829
▁Eh	-12.6835
▁ordinary	-12.6837
▁boyfriend	-12.6838
▁scientific	-12.6838
▁suffered	-12.684
▁Dis	-12.6842
▁treated	-12.6844
what	-12.6846
▁pure	-12.685
▁Hor	-12.6856
▁affect	-12.6857
bri	-12.6858
▁pack	-12.6862
▁Ram	-12.6864
Is	-12.6865
▁Crow	-12.687
▁mirror	-12.687
▁slide	-12.687
▁determined	-12.6872
▁hoping	-12.6872
▁guest	-12.6873
▁Station	-12.6878
▁apply	-12.6885
▁pink	-12.6886
▁patients	-12.6892
▁tour	-12.6898
Bo	-12.69
▁transfer	-12.6902
▁pilot	-12.6902
▁philosophy	-12.6902
▁Thus	-12.6902
▁handsome	-12.6903
ova	-12.6905
▁argument	-12.6905
▁weapon	-12.6905
▁tight	-12.6908
▁bro	-12.6909
▁7,	-12.6913
pu	-12.6914
▁wheel	-12.6921
ith	-12.693
▁deserve	-12.6931
▁desert	-12.6931
Ba	-12.6933
▁8,	-12.6934
▁festival	-12.6934
▁dump	-12.6935
▁2004	-12.6938
▁para	-12.6938
▁string	-12.6938
▁11,	-12.6939
▁frame	-12.6945
▁Yet	-12.6946
▁award	-12.6946
▁mayor	-12.6949
▁2011,	-12.695
▁seasons	-12.6951
bia	-12.6952
▁dish	-12.6957
▁deliver	-12.6959
gent	-12.6959
lla	-12.6964
▁favour	-12.6966
▁responsibility	-12.6967
▁basketball	-12.6967
▁existence	-12.6967
▁estate	-12.6967
▁apparently	-12.6967
▁Cal	-12.6973
▁Khan	-12.6976
ico	-12.6995
▁begins	-12.6996
▁activities	-12.6999
▁debt	-12.6999
▁economy	-12.6999
▁exercise	-12.6999
▁guide	-12.6999
▁fancy	-12.6999
▁platform	-12.7003
rich	-12.7003
▁Live	-12.7004
▁1989	-12.7006
▁wondering	-12.7008
roll	-12.7012
atter	-12.7019
▁log	-12.702
▁weapons	-12.7029
▁Lincoln	-12.7032
▁incident	-12.7032
▁investigation	-12.7032
▁Jacob	-12.7032
▁Wales	-12.7033
▁Alice	-12.7033
▁Sim	-12.7033
▁circumstances	-12.7036
mor	-12.7037
wo	-12.704
dar	-12.7044
oe	-12.7053
Who	-12.7055
▁Ser	-12.7055
lim	-12.7061
▁plastic	-12.7065
▁false	-12.7065
▁assistant	-12.7065
▁article	-12.7068
▁burned	-12.7069
▁joint	-12.7072
▁via	-12.7075
▁Times	-12.7084
air	-12.7084
var	-12.7088
ony	-12.7088
▁Ken	-12.7092
▁Pra	-12.7097
▁engaged	-12.7099
▁Northern	-12.7099
▁bride	-12.7099
▁hundreds	-12.71
▁ne	-12.7105
rge	-12.7123
▁pretend	-12.7125
They	-12.7129
▁sport	-12.713
▁Val	-12.7133
▁seriously	-12.7135
▁highway	-12.7142
▁Simon	-12.7143
Ho	-12.7151
▁Nat	-12.7162
RS	-12.7163
She	-12.7163
▁minor	-12.7164
▁courage	-12.7164
lNG	-12.7167
▁crossed	-12.7172
▁goodness	-12.7173
▁online	-12.7186
▁1988	-12.7188
pr	-12.719
▁Pakistan	-12.7195
▁comfort	-12.7197
iggler	-12.7197
▁Atlantic	-12.7197
▁Besides	-12.7197
▁Director	-12.7197
▁pleasant	-12.7197
▁feature	-12.7198
▁Fox	-12.7198
▁dust	-12.72
▁Adam	-12.7209
▁Pope	-12.7212
▁Kill	-12.7214
vy	-12.7226
▁cheap	-12.723
▁empire	-12.723
▁relax	-12.723
▁brings	-12.7231
▁Battle	-12.7232
bert	-12.7234
ically	-12.7236
▁wished	-12.7244
del	-12.725
▁Mum	-12.7252
▁effective	-12.7263
▁Ocean	-12.7264
▁launched	-12.7266
▁Free	-12.7266
dale	-12.7272
▁films	-12.7275
▁link	-12.7282
▁Bal	-12.729
▁towns	-12.7291
▁Sc	-12.7292
▁exact	-12.7296
▁13,	-12.7297
▁error	-12.7297
▁airport	-12.7298
▁Bridge	-12.7298
▁garage	-12.7298
▁editor	-12.7299
▁era	-12.7301
▁Service	-12.7302
▁adult	-12.7302
▁riding	-12.7302
▁dude	-12.7303
bed	-12.7308
cut	-12.731
▁Brian	-12.7311
▁levels	-12.7313
▁vision	-12.7315
▁Mont	-12.7321
oid	-12.7321
sign	-12.7322
▁sales	-12.7325
▁leaders	-12.7328
▁Calvados	-12.7331
▁fortune	-12.7331
▁solid	-12.7333
▁recognized	-12.7334
▁ghost	-12.7336
▁rare	-12.7345
▁diet	-12.7354
▁Carl	-12.7357
list	-12.7359
▁maintain	-12.7359
▁Talk	-12.736
und	-12.7364
▁funeral	-12.7365
▁dig	-12.7365
▁chosen	-12.7369
▁islands	-12.737
▁Count	-12.7371
▁discussion	-12.7371
lie	-12.7387
▁waited	-12.7387
▁Want	-12.7391
▁library	-12.7399
▁rabbit	-12.7399
▁Jewish	-12.7399
▁Duke	-12.7399
▁Danny	-12.7399
▁intended	-12.74
▁Ly	-12.7401
▁attended	-12.7401
▁electric	-12.7401
▁curious	-12.7402
▁unusual	-12.7404
▁coal	-12.7411
ssi	-12.7415
▁dealing	-12.7415
▁continues	-12.7426
▁concern	-12.7432
▁Navy	-12.7433
hop	-12.7438
▁(;	-12.7449
▁jo	-12.7456
▁Bank	-12.7466
▁Jersey	-12.7467
▁ugly	-12.7467
▁Islam	-12.7467
▁Stephen	-12.7469
▁wounded	-12.747
▁justice	-12.7472
▁bu	-12.7472
gle	-12.7475
▁painting	-12.7476
▁News	-12.7476
▁ideal	-12.7477
▁rear	-12.7478
▁Bush	-12.7482
ension	-12.7484
▁whoa	-12.7487
rated	-12.749
▁butter	-12.7494
▁screw	-12.7498
▁rooms	-12.7498
▁sample	-12.7501
▁Georgia	-12.7501
Di	-12.7505
uri	-12.7506
▁commonly	-12.7509
tar	-12.7514
box	-12.7516
gre	-12.7518
▁falls	-12.752
uch	-12.7527
bel	-12.7529
▁Monday	-12.7535
▁fore	-12.7537
▁labor	-12.7538
▁refused	-12.7538
▁wound	-12.7538
▁efforts	-12.754
▁client	-12.7541
Sh	-12.7543
▁Top	-12.7548
▁stands	-12.7552
rage	-12.756
▁threat	-12.7563
just	-12.7565
▁1982	-12.7568
Let	-12.757
▁Irish	-12.757
▁Ryan	-12.757
▁earned	-12.7571
▁gotten	-12.7573
▁lecture	-12.7575
▁Bull	-12.7577
▁trans	-12.7577
una	-12.7578
fish	-12.7578
▁Sur	-12.7585
▁crown	-12.7586
burg	-12.7586
had	-12.7591
point	-12.7592
▁multi	-12.7597
hold	-12.7598
▁1979	-12.7602
▁happiness	-12.7604
▁treasure	-12.7604
▁Oxford	-12.7604
▁importance	-12.7605
mate	-12.7606
▁reward	-12.7606
▁mental	-12.7606
ema	-12.7607
▁belief	-12.761
▁pool	-12.7612
▁1984	-12.7614
Good	-12.7617
▁friendly	-12.7619
▁Sub	-12.7622
this	-12.7636
▁poison	-12.7639
▁Colonel	-12.7639
▁Tor	-12.7646
mat	-12.7651
▁poet	-12.7651
bre	-12.7657
▁Roger	-12.7659
▁16,	-12.7661
▁sy	-12.7667
sol	-12.7673
▁license	-12.7674
▁literature	-12.7674
▁passage	-12.7678
▁wore	-12.768
▁Swa	-12.7684
▁wi	-12.7691
Da	-12.7696
▁elements	-12.7701
igh	-12.7702
▁excellent	-12.7709
▁basket	-12.7709
▁pension	-12.7709
TH	-12.771
▁noted	-12.7712
▁limit	-12.7712
▁1987	-12.7714
arm	-12.772
▁Mag	-12.7723
zu	-12.7726
part	-12.7728
water	-12.7728
▁pointed	-12.7741
▁decisions	-12.7741
▁valley	-12.7744
▁Alexander	-12.7744
▁Emily	-12.7745
▁Yep	-12.7745
▁rope	-12.775
▁Wall	-12.7751
▁Know	-12.7755
phone	-12.7758
▁finds	-12.7762
hap	-12.7773
▁Bell	-12.7776
▁obvious	-12.7778
▁beneath	-12.7779
▁hidden	-12.7779
▁brush	-12.7779
▁reign	-12.778
GH	-12.7785
▁aid	-12.7791
rag	-12.7799
▁Baby	-12.7809
▁Egypt	-12.7813
uz	-12.7815
▁Until	-12.7815
▁shook	-12.7815
▁hunting	-12.7817
▁Eastern	-12.7818
tta	-12.7818
ich	-12.7823
worth	-12.7827
qua	-12.7838
▁Wal	-12.7838
▁tend	-12.7842
tti	-12.7849
▁Education	-12.785
▁territory	-12.785
▁flood	-12.785
▁Coast	-12.7851
▁homes	-12.7859
▁intention	-12.7861
▁rail	-12.7863
▁Committee	-12.7886
▁suicide	-12.7886
▁Turkey	-12.7886
▁9,	-12.7891
▁Leo	-12.7907
▁Hol	-12.7908
▁Jill	-12.7912
▁allows	-12.7921
▁Hang	-12.7922
▁Johnny	-12.7924
ugh	-12.7925
▁strip	-12.7927
▁loan	-12.7928
▁comment	-12.7929
▁fed	-12.7936
▁pr	-12.795
▁theme	-12.7953
▁compete	-12.7954
▁domestic	-12.7957
▁Berlin	-12.7957
▁committed	-12.7957
▁darkness	-12.7958
▁creating	-12.7959
ime	-12.796
ene	-12.7963
Go	-12.7964
▁generation	-12.7968
▁Officer	-12.7968
tus	-12.7968
▁fishing	-12.797
▁beg	-12.7979
▁Mad	-12.7982
most	-12.7988
▁Tre	-12.7989
▁Dean	-12.799
▁assume	-12.799
▁custom	-12.7991
▁Twenty	-12.7993
▁chamber	-12.7993
▁Sarah	-12.7994
▁Board	-12.7994
As	-12.7995
▁2014,	-12.7998
▁sale	-12.7998
▁explained	-12.8
▁passion	-12.8012
▁Sil	-12.8014
▁Play	-12.8014
▁mood	-12.8022
▁struggle	-12.8026
▁Albert	-12.8027
▁Em	-12.8027
▁sorts	-12.8028
▁Supreme	-12.8029
▁referred	-12.8029
▁seventy	-12.803
▁investment	-12.8031
▁selected	-12.8032
▁officially	-12.8033
▁Fred	-12.8035
▁aside	-12.8036
▁Kong	-12.8037
▁degrees	-12.8048
▁Gre	-12.8053
▁environmental	-12.8054
▁surely	-12.8056
▁es	-12.806
spe	-12.806
▁enemies	-12.8066
▁stress	-12.8066
▁impression	-12.8066
▁fuel	-12.8068
▁locked	-12.807
▁ju	-12.807
▁document	-12.8073
▁sons	-12.8073
▁pattern	-12.8073
▁HO	-12.808
▁Game	-12.8091
▁rode	-12.8093
hel	-12.8095
▁association	-12.8102
▁complicated	-12.8102
▁nearby	-12.8103
▁Billy	-12.8106
▁twin	-12.8107
uick	-12.8108
▁proved	-12.8109
▁armed	-12.811
vel	-12.8112
iness	-12.8112
zy	-12.8113
▁ja	-12.8124
▁23,	-12.8125
ati	-12.8126
eu	-12.8129
▁fate	-12.8131
pur	-12.8132
▁suffer	-12.8132
▁scheme	-12.8138
▁ladder	-12.8139
lit	-12.8139
▁hired	-12.814
▁glasses	-12.814
▁unable	-12.8142
▁healthy	-12.8142
▁overall	-12.8146
▁parent	-12.8147
▁touched	-12.8149
Now	-12.8152
hou	-12.8152
▁scientists	-12.8153
▁30,	-12.8153
▁faint	-12.8156
▁mode	-12.8156
hem	-12.8156
▁values	-12.8164
AD	-12.8174
▁awake	-12.8175
och	-12.8175
▁compared	-12.8177
▁del	-12.8179
▁Islands	-12.818
▁pages	-12.8181
▁harder	-12.819
▁buying	-12.8193
ira	-12.8194
▁Book	-12.82
▁aim	-12.8207
▁repeat	-12.8209
▁communities	-12.8212
▁entrance	-12.8212
▁regret	-12.8212
▁pla	-12.8212
keeper	-12.8213
era	-12.8215
▁Cast	-12.8216
▁Beach	-12.8216
▁ph	-12.8222
▁Ever	-12.8226
▁depends	-12.8232
ace	-12.8233
▁SO	-12.8234
lus	-12.8243
was	-12.8247
▁AT	-12.8248
▁Switzerland	-12.8249
▁Railway	-12.8249
lai	-12.825
▁arch	-12.8262
eck	-12.8265
▁26,	-12.8267
▁reports	-12.8273
▁horrible	-12.8286
▁romantic	-12.8286
▁fleet	-12.8286
▁Jr	-12.8291
▁Records	-12.8298
▁Matt	-12.8299
▁citizens	-12.8302
AM	-12.8305
▁millions	-12.8306
▁sec	-12.8307
▁tank	-12.8308
▁dec	-12.831
▁rat	-12.831
▁25,	-12.831
▁severe	-12.8321
▁belongs	-12.8322
▁Mazraeh	-12.8323
▁software	-12.8323
▁conduct	-12.8324
▁truly	-12.8324
▁moves	-12.8325
▁properly	-12.8326
▁whenever	-12.8327
▁creature	-12.8331
Hi	-12.8333
▁web	-12.8336
based	-12.8337
▁load	-12.8343
cat	-12.8346
▁Stand	-12.8348
▁grant	-12.8354
▁discover	-12.8358
iro	-12.836
▁Instead	-12.8362
▁Seven	-12.8368
▁spending	-12.8368
▁element	-12.8368
▁Commander	-12.8372
▁portion	-12.8375
▁Ter	-12.8375
▁Head	-12.8378
▁1981	-12.838
▁anger	-12.8383
under	-12.8384
▁Town	-12.8398
▁merchant	-12.8398
▁random	-12.8398
▁Walter	-12.8401
▁1971	-12.8405
▁closely	-12.8409
LO	-12.8412
"),	-12.8414
▁factor	-12.8417
▁sisters	-12.8421
▁equals	-12.8421
fire	-12.8429
ried	-12.8432
boy	-12.8432
▁launch	-12.8432
▁prior	-12.8435
▁analysis	-12.8435
▁numerous	-12.8435
▁bathroom	-12.8435
▁Number	-12.8435
ega	-12.8437
▁Philip	-12.8439
▁describe	-12.8441
Ahmad	-12.8449
▁mile	-12.8453
ost	-12.8454
long	-12.8456
▁angle	-12.8466
▁14,	-12.8468
▁hook	-12.847
▁Erasmus	-12.8473
▁brilliant	-12.8473
▁emergency	-12.8473
▁Police	-12.8473
▁Betty	-12.8473
▁1986	-12.8473
▁Trust	-12.8474
hur	-12.8475
▁toilet	-12.8477
▁marked	-12.8479
▁eighty	-12.848
▁income	-12.8482
▁Fort	-12.8485
Where	-12.8488
which	-12.8488
▁Tar	-12.8488
▁Place	-12.8493
▁ending	-12.8498
▁24,	-12.8499
verse	-12.8501
▁Metro	-12.8502
▁Radio	-12.8503
ert	-12.8506
▁net	-12.8509
▁CHAPTER	-12.8511
▁injury	-12.8511
▁orchestra	-12.8511
▁debate	-12.8511
▁Francisco	-12.8511
▁poem	-12.8511
▁Boss	-12.8511
ways	-12.8515
ille	-12.8516
▁sixth	-12.8517
▁enjoyed	-12.8518
▁application	-12.852
▁beast	-12.852
▁script	-12.8522
▁instructions	-12.8522
▁colors	-12.8529
▁gi	-12.8529
▁Office	-12.8537
For	-12.8538
▁Cut	-12.8539
▁reduce	-12.8546
▁Au	-12.8547
▁alternative	-12.8549
▁advanced	-12.8553
▁reviews	-12.8555
▁Dam	-12.8555
▁winner	-12.8559
uit	-12.8559
▁17,	-12.8561
▁nu	-12.8561
▁Tang	-12.8563
book	-12.8575
▁Germans	-12.8588
sky	-12.859
cker	-12.859
▁ok	-12.859
▁el	-12.8595
▁Mur	-12.86
▁pit	-12.8604
▁witch	-12.8609
▁emotional	-12.8612
▁nominated	-12.8625
▁swimming	-12.8625
▁composed	-12.8626
▁observed	-12.8627
TS	-12.8629
▁tools	-12.8635
▁ski	-12.8638
▁rush	-12.8639
▁Bla	-12.8641
▁Mel	-12.8642
pic	-12.8654
Come	-12.8654
▁woods	-12.8655
▁creation	-12.8661
▁represent	-12.8663
▁FIFA	-12.8664
▁atmosphere	-12.8664
▁principal	-12.8664
▁1976	-12.8667
▁Sister	-12.8667
▁toys	-12.8667
▁Sara	-12.8668
▁pity	-12.867
▁cooking	-12.867
▁stronger	-12.8671
IS	-12.8672
ode	-12.8674
▁grab	-12.8678
ache	-12.8679
foot	-12.868
▁None	-12.8681
▁sacrifice	-12.8683
tric	-12.8687
▁Es	-12.8692
rest	-12.8693
▁1985	-12.8697
▁rob	-12.87
▁potential	-12.8701
▁Greece	-12.8702
▁description	-12.8702
▁liquid	-12.8702
▁ridiculous	-12.8702
▁buddy	-12.8703
iva	-12.8704
▁Team	-12.8705
▁perform	-12.871
get	-12.8711
▁ticket	-12.8712
mus	-12.8713
umb	-12.8722
itch	-12.8726
▁beating	-12.8732
rv	-12.8735
▁pale	-12.8739
▁explanation	-12.8741
▁independence	-12.8741
▁horror	-12.8741
▁saving	-12.8742
▁Goodbye	-12.8742
▁lonely	-12.8742
▁disc	-12.8746
▁journalist	-12.8748
ori	-12.8749
lies	-12.875
ously	-12.8755
▁badly	-12.8759
view	-12.8762
▁Mind	-12.8762
▁temp	-12.8766
▁Sand	-12.8768
LI	-12.8774
▁Missouri	-12.878
▁Wilson	-12.878
▁Hot	-12.8782
▁Oliver	-12.8783
▁burning	-12.8785
▁champion	-12.8788
▁chemical	-12.8794
▁bike	-12.8795
▁dumb	-12.8797
tel	-12.8804
▁Ph	-12.8809
rant	-12.8811
▁weigh	-12.8816
▁remove	-12.8816
▁reveal	-12.8816
▁centuries	-12.8819
▁exciting	-12.8819
▁operating	-12.8819
▁adopted	-12.8821
▁yard	-12.8823
cast	-12.8824
▁Cla	-12.8825
▁detail	-12.8827
▁methods	-12.8828
▁18,	-12.8836
ening	-12.8844
▁capture	-12.8855
▁statistics	-12.8858
▁massive	-12.8859
▁frightened	-12.886
▁desk	-12.8861
▁succeeded	-12.8861
▁2003	-12.8861
▁painted	-12.8863
▁Bring	-12.8864
▁Santa	-12.8864
▁ruled	-12.8866
▁tradition	-12.8868
▁restaurant	-12.8869
▁Mari	-12.8872
....	-12.8872
Po	-12.8875
UN	-12.888
▁AD	-12.888
▁folks	-12.8886
uld	-12.8888
gel	-12.8895
▁secure	-12.8895
▁applied	-12.8898
▁expedition	-12.8898
▁identity	-12.8898
▁Stuart	-12.8898
▁Somebody	-12.8898
▁Sl	-12.89
▁trains	-12.8902
▁cultural	-12.8902
RY	-12.8903
▁Hong	-12.8904
▁difficulty	-12.8904
dor	-12.8913
▁2022)	-12.8913
▁Ci	-12.892
▁lit	-12.8921
press	-12.8926
▁tracks	-12.8931
elle	-12.8931
▁Aye	-12.8933
▁phrase	-12.8937
▁2007,	-12.8938
▁parish	-12.8938
anna	-12.895
also	-12.8955
▁Gil	-12.8955
▁Jay	-12.8957
ller	-12.8966
▁Romaniz	-12.8969
aco	-12.8974
▁equipment	-12.8977
▁Robin	-12.8979
▁factory	-12.8979
▁lands	-12.8979
▁sink	-12.8983
▁formation	-12.8983
▁Arm	-12.8986
▁sending	-12.8993
▁squ	-12.8993
lid	-12.8996
▁2009,	-12.9004
▁relations	-12.9006
dies	-12.901
▁gentle	-12.9016
▁industrial	-12.9017
▁Through	-12.9017
▁Charlie	-12.9017
▁revealed	-12.902
phy	-12.902
ila	-12.9021
▁meal	-12.9022
▁Mario	-12.9024
▁relation	-12.9028
MA	-12.903
▁bid	-12.9032
hip	-12.9037
hood	-12.9039
▁Margaret	-12.9057
▁babies	-12.9057
▁surrounded	-12.9058
▁punishment	-12.9058
▁regarded	-12.9059
▁Nar	-12.9075
fall	-12.9079
▁Ash	-12.908
east	-12.9082
UT	-12.9084
▁21,	-12.9091
ALL	-12.9093
▁stretch	-12.9094
▁Columbia	-12.9097
▁Douglas	-12.9097
▁burst	-12.9097
▁authorities	-12.9097
▁Justice	-12.9098
▁demo	-12.9098
▁engineering	-12.91
▁1978	-12.9101
▁device	-12.9108
▁covers	-12.9111
▁chart	-12.9127
▁nights	-12.913
onic	-12.913
matic	-12.9135
▁keys	-12.9136
▁Pop	-12.9136
▁annual	-12.9137
▁Public	-12.9137
▁Disney	-12.9137
▁permission	-12.9137
▁dawn	-12.9137
▁cruel	-12.9138
▁jacket	-12.914
▁possession	-12.914
▁alien	-12.9142
▁Point	-12.9145
▁Basse	-12.9151
▁trained	-12.9157
▁collect	-12.9159
▁Wil	-12.9166
▁mor	-12.9171
▁argue	-12.9175
▁2012.	-12.9176
Illustration	-12.9178
▁Sweden	-12.9178
▁literally	-12.9178
▁maiden	-12.918
▁graph	-12.918
▁Grey	-12.918
▁symptoms	-12.9182
lash	-12.9184
▁visited	-12.9186
▁1983	-12.9186
▁fans	-12.9192
▁bug	-12.9194
uh	-12.9206
▁commander	-12.9208
▁talks	-12.921
▁scratch	-12.9218
▁confused	-12.9218
▁spite	-12.9219
▁gained	-12.9223
▁separated	-12.9224
unk	-12.9226
▁pushed	-12.9227
MS	-12.9228
▁Science	-12.923
▁option	-12.923
▁Cape	-12.9235
▁AS	-12.9242
▁whi	-12.9244
pre	-12.9248
▁victims	-12.9256
▁format	-12.9259
▁swim	-12.9259
▁Aisne	-12.9259
▁elephant	-12.9259
▁banana	-12.9259
▁BBC	-12.9259
▁shopping	-12.9259
▁claimed	-12.9264
▁cricket	-12.9265
▁gene	-12.9269
ase	-12.9272
▁examples	-12.9281
▁27,	-12.9282
▁semi	-12.9282
Gr	-12.9285
▁attend	-12.9288
▁1964	-12.929
denote	-12.929
▁Des	-12.9293
▁interests	-12.9296
▁extreme	-12.9299
▁practical	-12.9299
▁initial	-12.9299
▁Special	-12.93
▁Probably	-12.93
▁illegal	-12.93
▁Dawson	-12.93
▁Clark	-12.93
▁opposed	-12.9301
ups	-12.9302
tho	-12.9307
▁waves	-12.9308
rid	-12.9308
▁2021	-12.9314
▁Eu	-12.9315
ject	-12.932
▁Ted	-12.9323
▁contain	-12.9324
▁Way	-12.933
lot	-12.934
▁aircraft	-12.9342
▁grey	-12.9342
▁rap	-12.9343
▁remaining	-12.9347
▁gang	-12.9357
▁por	-12.9359
ipped	-12.936
▁va	-12.9365
▁skills	-12.9368
five	-12.9371
ump	-12.9373
▁MA	-12.9377
▁1975	-12.9379
▁administration	-12.9383
▁depth	-12.9383
▁executive	-12.9383
▁breast	-12.9383
EC	-12.9383
▁Without	-12.9384
▁theatre	-12.9384
▁mobile	-12.9387
▁Howard	-12.9388
▁jack	-12.9389
▁charged	-12.9391
▁offering	-12.9392
▁1930	-12.9392
▁murdered	-12.9393
try	-12.9397
mbo	-12.9398
ddle	-12.94
looking	-12.9403
▁2002	-12.941
▁smooth	-12.9424
▁spiritual	-12.9424
▁appointment	-12.9425
Ro	-12.943
▁Post	-12.9432
bing	-12.9435
▁Kar	-12.9437
dis	-12.9438
▁goals	-12.944
▁maid	-12.9441
▁Indians	-12.9442
oni	-12.9446
▁CD	-12.9449
▁leads	-12.9451
▁abuse	-12.9451
cke	-12.9456
▁Bishop	-12.9466
▁WHAT	-12.9466
▁Eddie	-12.9466
▁phase	-12.9466
▁approximately	-12.9466
▁Children	-12.9466
▁Band	-12.9467
▁flu	-12.9467
▁clothing	-12.9469
▁affected	-12.947
▁jumped	-12.9473
▁holds	-12.9477
▁occasion	-12.9478
▁experiment	-12.9481
called	-12.9485
▁doo	-12.9486
▁sources	-12.9486
mas	-12.9486
▁wanting	-12.9487
otic	-12.9496
OS	-12.9499
DA	-12.95
rous	-12.9501
▁2008,	-12.9503
ND	-12.9505
▁establish	-12.9506
▁guitar	-12.9506
▁confidence	-12.9508
▁goddess	-12.9508
▁revenge	-12.9508
▁shadow	-12.9508
▁deposit	-12.9511
▁2011.	-12.9514
oro	-12.9518
ching	-12.952
▁vehicle	-12.9521
phe	-12.9524
▁folk	-12.9526
ENT	-12.9532
▁Phil	-12.9533
▁regions	-12.9535
▁BC	-12.9537
aga	-12.9541
▁Tim	-12.9542
▁disappear	-12.9547
▁Pur	-12.9549
▁Mexican	-12.955
▁Nintendo	-12.955
▁global	-12.955
▁possibility	-12.955
▁sacred	-12.955
▁inhabitants	-12.955
▁freak	-12.955
▁knight	-12.955
▁surrounding	-12.955
▁yep	-12.9551
mont	-12.9553
▁escaped	-12.9558
▁Arab	-12.9559
▁studying	-12.9561
ark	-12.9562
▁checked	-12.9565
▁stranger	-12.9566
▁theater	-12.957
bury	-12.9573
▁provides	-12.9573
rre	-12.9584
▁pray	-12.9585
▁improve	-12.9588
▁appropriate	-12.9592
▁emperor	-12.9592
▁pregnant	-12.9592
rp	-12.9594
▁Miller	-12.9596
▁widely	-12.9596
▁knocked	-12.9596
eng	-12.96
▁issued	-12.96
▁acted	-12.9604
▁musician	-12.9607
hole	-12.9609
▁ar	-12.961
▁speaker	-12.9615
▁boats	-12.9615
aps	-12.9617
gro	-12.9619
▁acts	-12.9626
▁engineer	-12.9629
▁Muhammad	-12.9634
▁Netherlands	-12.9634
▁envelope	-12.9634
▁parallel	-12.9634
▁puzzle	-12.9634
▁reckon	-12.9634
▁Bruce	-12.9635
▁payment	-12.9636
▁Gor	-12.9637
mber	-12.9639
▁friendship	-12.9642
vor	-12.9642
▁crossing	-12.9645
▁Allen	-12.9648
hir	-12.965
ency	-12.9652
▁objects	-12.9655
▁cats	-12.9658
▁1940	-12.9664
aka	-12.9667
▁ceremony	-12.9677
▁identify	-12.9677
▁survey	-12.9677
▁legend	-12.9677
▁fetch	-12.9677
▁capable	-12.9677
▁combined	-12.9678
▁Absolutely	-12.9678
Br	-12.9679
read	-12.9679
▁Stone	-12.9679
amo	-12.9682
▁toast	-12.9686
▁Ger	-12.9686
▁ruin	-12.9687
▁actions	-12.9695
▁1973	-12.9695
▁fold	-12.9695
▁doctors	-12.9697
▁scar	-12.97
▁blocks	-12.9703
▁Fair	-12.9704
▁bones	-12.9707
▁2010.	-12.9717
▁views	-12.9718
▁Thursday	-12.972
▁necessarily	-12.972
▁Channel	-12.972
▁rival	-12.972
▁Health	-12.972
bat	-12.972
▁pants	-12.972
▁stamp	-12.9722
▁warning	-12.9724
▁districts	-12.973
▁Off	-12.9734
cious	-12.9737
dio	-12.9738
▁micro	-12.9739
▁prisoners	-12.9743
▁YOUR	-12.9744
▁Vol	-12.9744
▁hoped	-12.9747
▁Though	-12.9753
▁lt	-12.9753
▁4.	-12.9753
▁bits	-12.9756
Wa	-12.9756
▁des	-12.9759
▁typical	-12.9761
▁besides	-12.9762
▁session	-12.9763
▁trunk	-12.9763
imi	-12.9764
▁soup	-12.9765
▁delivered	-12.9766
ppe	-12.9771
ella	-12.9773
owed	-12.9775
▁shortly	-12.9776
mark	-12.9776
▁disco	-12.9777
▁listed	-12.978
▁Grandma	-12.9781
Not	-12.9781
ito	-12.9781
▁shoulders	-12.9783
gal	-12.9783
AS	-12.9784
▁shoe	-12.9785
▁pur	-12.979
▁Press	-12.9791
▁poll	-12.9795
▁evolution	-12.9796
▁comic	-12.9797
▁internal	-12.9802
▁glance	-12.9803
▁introduce	-12.9803
▁Singapore	-12.9806
▁earthquake	-12.9806
▁sought	-12.9806
▁rising	-12.9806
▁copies	-12.9806
▁Morning	-12.9807
▁personality	-12.9807
▁Ready	-12.9807
▁defense	-12.9808
▁reduced	-12.9809
▁personally	-12.9812
▁Gene	-12.9825
▁1974	-12.9826
▁Cur	-12.983
ridge	-12.9832
▁regional	-12.9833
til	-12.9834
▁NO	-12.9838
▁Guard	-12.9847
ink	-12.9848
▁Protestant	-12.9849
Normandie	-12.9849
▁discipline	-12.9849
▁Taiwan	-12.9849
▁spoon	-12.9849
▁carriage	-12.9849
▁noble	-12.9852
▁graduated	-12.9852
▁ruler	-12.9852
▁meters	-12.9852
▁benefits	-12.9855
▁snake	-12.9863
▁critic	-12.987
▁unco	-12.9874
ois	-12.9875
▁individuals	-12.9875
▁MD	-12.9878
too	-12.9883
▁classic	-12.9888
▁prepare	-12.9889
hl	-12.989
isa	-12.9891
▁purple	-12.9892
▁roads	-12.9893
▁Human	-12.9894
▁Mount	-12.9894
▁satisfied	-12.9896
▁mere	-12.9897
▁hunt	-12.9898
▁stable	-12.9898
CE	-12.99
▁drinks	-12.9906
ique	-12.9912
class	-12.9913
▁Cole	-12.9915
gate	-12.9917
▁28,	-12.9917
▁rings	-12.9923
▁machines	-12.9924
PS	-12.9925
▁goat	-12.9933
Ch	-12.9934
▁Family	-12.9936
▁guarantee	-12.9936
▁swallow	-12.9936
▁founder	-12.9937
▁vast	-12.9943
▁persons	-12.9946
▁rice	-12.9946
rou	-12.9955
▁1969	-12.9957
▁videos	-12.9961
▁marks	-12.9964
▁guests	-12.9976
vision	-12.9978
▁behavior	-12.998
▁definition	-12.998
▁neighborhood	-12.998
▁telephone	-12.998
▁discovery	-12.9982
▁merely	-12.9982
▁fairy	-12.9985
sti	-12.9985
wing	-12.9986
▁voices	-12.9997
via	-13.0001
Ar	-13.0001
▁layer	-13.0001
▁Ask	-13.0003
▁achieve	-13.0013
▁presentation	-13.0014
▁shower	-13.0022
▁sequence	-13.0024
▁insult	-13.0024
▁Gordon	-13.0024
▁naked	-13.0024
ibility	-13.0024
▁controlled	-13.0025
▁granted	-13.0028
▁Arts	-13.003
▁versions	-13.0033
▁Chu	-13.0036
▁figured	-13.0038
vil	-13.0041
far	-13.0043
▁Mill	-13.0046
▁items	-13.0047
▁arts	-13.0056
utter	-13.006
▁settle	-13.0062
kins	-13.0064
▁architecture	-13.0068
▁Better	-13.0069
umi	-13.007
▁arranged	-13.007
rush	-13.0072
▁fond	-13.0073
▁organized	-13.0074
▁bump	-13.0077
▁skill	-13.0086
▁Tro	-13.0093
odo	-13.0094
▁Song	-13.0094
coming	-13.0095
▁knees	-13.0097
▁devices	-13.01
VI	-13.0101
▁CA	-13.0102
rad	-13.0104
▁journal	-13.0105
lau	-13.0108
▁Sho	-13.011
▁proposal	-13.0113
▁valuable	-13.0113
▁grain	-13.0113
▁shelter	-13.0113
▁sauce	-13.0113
▁Darling	-13.0113
▁branches	-13.0114
▁cutting	-13.0114
▁extended	-13.0115
▁climb	-13.012
▁scenes	-13.0122
▁Ham	-13.0127
▁knee	-13.0128
New	-13.0135
play	-13.0139
▁Ferr	-13.0141
▁mud	-13.0143
▁1968	-13.0147
▁(_	-13.0149
▁1945	-13.015
▁replace	-13.0153
▁divide	-13.0154
▁instant	-13.0156
sure	-13.0156
▁1972	-13.0157
▁Brazil	-13.0157
SPEAK	-13.0157
▁Conference	-13.0157
▁Toronto	-13.0157
▁bedroom	-13.0158
▁counsel	-13.0158
▁begun	-13.0161
▁lamp	-13.0162
▁kissed	-13.0165
▁smiled	-13.0165
▁panel	-13.0167
eri	-13.0167
▁Class	-13.0169
▁Israel	-13.017
▁listened	-13.0175
▁emotions	-13.0177
▁moments	-13.0182
▁Comp	-13.0183
▁jam	-13.0195
▁rank	-13.0198
▁graduate	-13.0199
▁respond	-13.0199
▁despite	-13.0202
▁superior	-13.0202
▁context	-13.0202
▁anxious	-13.0202
▁Kevin	-13.0202
▁Honey	-13.0202
▁Short	-13.0202
▁Palace	-13.0202
▁household	-13.0203
wick	-13.0203
▁und	-13.0204
▁Poor	-13.0207
▁quietly	-13.0208
pot	-13.0209
▁hills	-13.0214
fic	-13.022
▁def	-13.0224
los	-13.023
▁sew	-13.0231
ease	-13.0231
▁Use	-13.0233
▁Centre	-13.0247
▁Google	-13.0247
▁nathaniel	-13.0247
▁pollution	-13.0247
▁nuclear	-13.0247
▁surgery	-13.0247
▁childhood	-13.0247
▁inspired	-13.0248
▁abandoned	-13.0248
▁Sing	-13.0249
▁Bel	-13.0252
▁letting	-13.0254
▁arrow	-13.0258
▁lately	-13.0262
▁loop	-13.0269
▁Honor	-13.0276
▁nuts	-13.0277
SON	-13.0278
▁punch	-13.0282
▁Lock	-13.0283
▁alarm	-13.029
abi	-13.0292
▁Federal	-13.0292
▁Matthew	-13.0292
▁joseph	-13.0292
▁relief	-13.0292
▁dramatic	-13.0293
▁Julia	-13.0293
▁alongside	-13.0293
▁hearts	-13.0295
▁HAVE	-13.0299
▁Kra	-13.0304
▁composer	-13.0309
▁leap	-13.0309
▁Mid	-13.0315
When	-13.0315
oa	-13.0318
▁Whi	-13.0321
▁bio	-13.0326
ELL	-13.0328
aro	-13.033
eal	-13.0331
▁rev	-13.0332
▁puts	-13.0332
aste	-13.0335
ites	-13.0336
▁Assembly	-13.0338
▁Hospital	-13.0338
▁strategy	-13.0338
▁Picard	-13.0338
▁Airport	-13.0338
▁jury	-13.0338
▁belt	-13.0339
▁temper	-13.034
▁sailed	-13.0343
▁Syria	-13.0344
TA	-13.0346
▁answers	-13.0348
▁require	-13.0351
▁relative	-13.0353
▁returning	-13.0354
issue	-13.0361
▁minds	-13.0363
▁Mil	-13.0367
▁Shiv	-13.0367
▁Brad	-13.0378
▁NOT	-13.0381
Laughter	-13.0384
▁hockey	-13.0384
▁maximum	-13.0384
▁smiling	-13.0384
▁Campbell	-13.0384
▁withdraw	-13.0384
▁fourteen	-13.0384
▁monkey	-13.0384
▁stepped	-13.0384
▁illness	-13.0384
▁gathered	-13.0386
Ja	-13.0387
ida	-13.0389
▁Rick	-13.039
▁Hart	-13.0393
ography	-13.0393
ech	-13.0394
▁doll	-13.0396
▁mat	-13.0396
ello	-13.04
▁pirate	-13.0403
May	-13.0406
▁Mmm	-13.0407
▁photos	-13.041
urs	-13.0416
▁prop	-13.0423
SH	-13.0429
▁grateful	-13.0429
▁statue	-13.0429
▁throne	-13.0429
▁Philadelphia	-13.0431
▁App	-13.0431
▁Bible	-13.0431
▁Personal	-13.0431
▁Check	-13.0443
▁candidate	-13.0445
▁cabin	-13.0448
▁yards	-13.0463
▁Nu	-13.0465
▁elections	-13.0466
▁reputation	-13.0476
▁chapter	-13.0476
▁Finally	-13.0477
▁Maine	-13.0477
▁Golden	-13.048
mail	-13.0485
▁Brand	-13.0493
▁images	-13.0496
▁villages	-13.0496
MP	-13.05
has	-13.0508
rom	-13.0509
oz	-13.051
oca	-13.0511
▁Nine	-13.0513
ister	-13.0517
▁proceed	-13.0519
▁absolute	-13.052
▁Ross	-13.0521
▁Indonesia	-13.0522
▁apologize	-13.0522
▁assault	-13.0522
▁thread	-13.0522
▁zone	-13.0522
▁promoted	-13.0525
▁scored	-13.0527
▁pitch	-13.0533
▁MY	-13.0535
▁Hindu	-13.0535
▁1947	-13.0547
▁crawl	-13.0549
▁drives	-13.0555
tell	-13.0556
aring	-13.0556
ators	-13.0557
▁mono	-13.0557
▁Real	-13.056
▁seed	-13.0561
▁Earl	-13.0567
▁Idaho	-13.0568
▁oxygen	-13.0568
▁powder	-13.0568
▁protein	-13.0568
▁underground	-13.0569
▁Miami	-13.0569
▁identified	-13.0569
▁admitted	-13.0569
▁frequently	-13.0569
▁neat	-13.0572
▁attacks	-13.0572
ison	-13.0573
▁Op	-13.0586
▁column	-13.0586
▁Morgan	-13.0586
cap	-13.0587
band	-13.0588
▁Test	-13.0592
pass	-13.0592
laughter	-13.0592
▁UP	-13.0595
once	-13.0596
aging	-13.0597
▁List	-13.0603
rank	-13.0606
▁Papa	-13.0611
▁Freud	-13.0615
▁capacity	-13.0615
▁heavily	-13.0615
▁invasion	-13.0615
▁recruit	-13.0615
▁electricity	-13.0615
▁chairman	-13.0616
sburg	-13.0617
▁operated	-13.0617
▁agents	-13.062
▁cloth	-13.0621
▁washed	-13.0621
mph	-13.0625
▁regard	-13.0627
maker	-13.0631
▁Mas	-13.0632
▁affair	-13.0633
▁wing	-13.0637
▁Ford	-13.0639
▁creep	-13.0641
▁1963	-13.0645
▁Cro	-13.0646
▁22,	-13.0655
▁rescue	-13.0659
▁refuse	-13.0659
▁fee	-13.0662
▁delicious	-13.0662
▁DNA	-13.0662
ivity	-13.0663
▁existing	-13.0667
▁publication	-13.067
▁Ship	-13.0671
▁stairs	-13.0675
▁largely	-13.0678
▁MO	-13.0679
▁positions	-13.068
rah	-13.0682
apped	-13.0689
▁clubs	-13.0698
▁1920	-13.0701
▁roar	-13.0701
▁violent	-13.0708
▁hurricane	-13.0709
▁physics	-13.0709
▁ashamed	-13.0709
▁1944	-13.0709
▁Winter	-13.0709
▁elder	-13.071
▁genetic	-13.071
▁meetings	-13.0711
▁repeated	-13.0711
▁convinced	-13.0711
▁Victor	-13.0712
▁Trans	-13.0712
IVE	-13.0713
key	-13.072
▁End	-13.073
bla	-13.0733
NE	-13.0733
hara	-13.0734
▁myth	-13.0735
Ah	-13.0738
▁ALL	-13.0739
▁pond	-13.074
▁Boo	-13.074
bly	-13.074
▁critics	-13.0741
▁Del	-13.0742
▁experiences	-13.0743
eased	-13.0747
hol	-13.0752
ule	-13.0755
▁wealth	-13.0755
▁precious	-13.0757
vol	-13.0757
▁Rilla	-13.0757
▁bitter	-13.0758
▁Glen	-13.076
▁breathing	-13.0764
▁gar	-13.0771
▁19,	-13.0774
▁Cass	-13.0775
▁dollar	-13.0775
▁Ball	-13.0776
▁Hook	-13.0777
gging	-13.078
word	-13.0781
▁washing	-13.0787
▁votes	-13.0787
▁Inc	-13.0794
▁lap	-13.08
▁Revolution	-13.0804
▁efficient	-13.0804
▁mysterious	-13.0804
▁volunteer	-13.0804
▁vacation	-13.0804
▁representative	-13.0804
▁pride	-13.0805
▁Beth	-13.0807
▁Cri	-13.0808
west	-13.0809
rod	-13.081
▁Ac	-13.0815
yu	-13.0815
▁experienced	-13.0818
▁picking	-13.0822
▁1977	-13.0828
▁Stra	-13.0834
shaped	-13.0837
bul	-13.0839
▁ki	-13.0847
bil	-13.085
▁bone	-13.0851
▁wicked	-13.0852
Footnote	-13.0852
▁Things	-13.0852
▁Buck	-13.0853
eas	-13.0858
▁expecting	-13.0863
▁WAS	-13.0864
lap	-13.0865
▁talent	-13.0867
zar	-13.0873
▁headed	-13.0873
▁subjects	-13.0874
▁servant	-13.0875
take	-13.0878
▁Cu	-13.0878
aba	-13.0878
▁dam	-13.088
▁episodes	-13.0881
face	-13.0888
▁Dor	-13.0894
▁partly	-13.0896
▁cattle	-13.09
▁extent	-13.09
▁altogether	-13.09
▁conclusion	-13.09
▁Panama	-13.09
▁distribution	-13.09
tee	-13.0901
▁sack	-13.0901
▁scare	-13.0903
elli	-13.0903
▁nowhere	-13.0903
▁divine	-13.0903
▁grandma	-13.091
▁sooner	-13.0917
▁Jos	-13.092
▁lesson	-13.0921
load	-13.0926
▁Tha	-13.0928
▁29,	-13.093
▁reflect	-13.0931
▁Anthony	-13.0948
▁NARRATOR	-13.0948
▁Slyne	-13.0948
▁stroke	-13.0948
▁wreck	-13.0948
▁obey	-13.0948
iga	-13.0949
▁scrap	-13.0949
▁presidential	-13.0949
▁Emma	-13.0949
▁gray	-13.0949
▁contained	-13.0952
▁melt	-13.0953
yer	-13.0954
lis	-13.0957
▁allowing	-13.096
▁principle	-13.0968
▁hated	-13.0973
NER	-13.0974
ots	-13.0975
▁adding	-13.0976
▁seal	-13.0978
dom	-13.0978
▁Cop	-13.0981
▁documents	-13.0987
▁messages	-13.099
after	-13.0991
▁System	-13.0997
▁Wednesday	-13.0997
▁mystery	-13.0997
▁probability	-13.0997
▁railroad	-13.0997
▁predict	-13.0997
▁repair	-13.0997
▁baseball	-13.0997
▁Harrison	-13.0997
▁Forget	-13.0998
▁mask	-13.0998
▁Lisa	-13.0998
▁threatened	-13.0998
▁dating	-13.0998
▁essentially	-13.0998
▁Heaven	-13.0998
▁selection	-13.0999
▁Dy	-13.1001
▁naturally	-13.1004
say	-13.1006
ids	-13.1008
ume	-13.1009
▁testing	-13.101
▁woo	-13.1015
stein	-13.1017
▁continent	-13.1018
put	-13.102
▁explore	-13.1022
▁Dale	-13.1024
about	-13.1024
urg	-13.1033
▁inform	-13.1034
Mar	-13.104
▁Ol	-13.1043
▁delay	-13.1044
▁resist	-13.1046
▁Ancient	-13.1046
▁Between	-13.1046
▁fantastic	-13.1046
▁wagon	-13.1046
▁tunnel	-13.1046
▁collected	-13.1049
▁defend	-13.1053
zing	-13.1055
iving	-13.1059
AY	-13.1062
▁projects	-13.107
▁FC	-13.1074
Just	-13.1074
▁landed	-13.1074
▁Laura	-13.1075
▁seats	-13.1075
kar	-13.1077
mates	-13.1079
▁Rh	-13.1079
▁photograph	-13.1082
door	-13.1083
▁Luc	-13.1084
▁bare	-13.1085
▁purposes	-13.1085
ished	-13.1085
▁Chuck	-13.1091
▁determine	-13.1092
▁extend	-13.1092
▁Tuesday	-13.1095
▁enormous	-13.1095
▁thirteen	-13.1095
▁cigarette	-13.1095
▁properties	-13.1095
▁worn	-13.1095
uli	-13.1104
▁albums	-13.1108
▁notable	-13.1116
position	-13.1117
CO	-13.1118
▁angel	-13.1119
▁daughters	-13.1126
▁mr	-13.1127
▁Frances	-13.1134
▁adults	-13.1137
▁Fri	-13.1139
▁stones	-13.1139
ides	-13.1139
▁select	-13.1139
▁fake	-13.114
▁indicate	-13.1141
state	-13.1141
▁peak	-13.1142
▁murderer	-13.1142
▁dispute	-13.1144
▁Internet	-13.1144
▁faced	-13.1146
▁foundation	-13.1146
▁approved	-13.1146
▁latest	-13.1147
▁Las	-13.1148
itz	-13.1152
col	-13.1154
▁pulling	-13.1156
▁Blo	-13.1157
▁waters	-13.1157
▁dies	-13.1163
Thank	-13.1171
cell	-13.1177
▁spec	-13.118
GE	-13.1181
master	-13.1182
▁inches	-13.1184
▁Andy	-13.1185
▁acc	-13.1185
pit	-13.1188
▁architect	-13.1193
▁Bavaria	-13.1194
▁Croatia	-13.1194
▁Ministry	-13.1194
▁disaster	-13.1194
▁remote	-13.1194
▁pardon	-13.1194
▁causing	-13.1194
▁Silver	-13.1194
▁2007.	-13.1195
▁amongst	-13.1195
▁habit	-13.1201
▁insist	-13.1201
▁1941	-13.1202
▁differences	-13.1206
▁soap	-13.1207
▁Leg	-13.122
▁useless	-13.1223
onia	-13.1227
▁op	-13.1235
▁amendment	-13.1243
▁Hawaii	-13.1243
▁provision	-13.1243
▁attached	-13.1245
▁initially	-13.1245
▁mini	-13.1249
eur	-13.1251
▁strongly	-13.1254
▁sites	-13.1257
▁suggestion	-13.1259
Mi	-13.1261
bach	-13.1262
▁Must	-13.1263
rup	-13.1266
ET	-13.1271
One	-13.1275
tia	-13.1277
▁inch	-13.128
▁1967	-13.1285
heim	-13.1287
▁Save	-13.1291
▁increasing	-13.1292
▁sixteen	-13.1293
▁drill	-13.1293
▁Clear	-13.1293
▁defence	-13.1293
▁Jerry	-13.1293
▁Among	-13.1294
fri	-13.1295
▁sets	-13.1296
▁starred	-13.1296
▁Vic	-13.1298
▁passes	-13.1298
▁palm	-13.1299
▁defined	-13.13
▁scan	-13.1301
▁Sk	-13.1302
▁Reg	-13.1308
▁breathe	-13.1311
▁lab	-13.1318
▁ours	-13.1322
▁landing	-13.1323
▁painter	-13.1328
▁Marie	-13.1331
eli	-13.1337
▁desperate	-13.1342
LRB	-13.1344
▁unhappy	-13.1344
▁sensation	-13.1344
▁intellectual	-13.1344
▁seventeen	-13.1344
▁disorder	-13.1344
▁unconscious	-13.1344
▁landscape	-13.1344
▁downstairs	-13.1344
▁formal	-13.1344
▁brick	-13.1344
▁claims	-13.1347
CA	-13.1349
▁tropical	-13.135
OT	-13.1353
▁Sports	-13.1358
▁Bri	-13.1359
vid	-13.1367
bird	-13.1378
star	-13.1379
▁lover	-13.138
▁circuit	-13.1394
▁dedicated	-13.1394
▁thief	-13.1394
▁cotton	-13.1394
▁Iraq	-13.1395
▁1965	-13.1397
▁linear	-13.1398
each	-13.1398
▁ages	-13.14
▁Sally	-13.1401
▁beaten	-13.1403
ERS	-13.1405
ado	-13.1406
▁Mart	-13.1407
▁Yi	-13.1407
▁user	-13.1409
▁cleaning	-13.1409
lands	-13.1411
▁Angel	-13.1412
▁Mountain	-13.1416
SA	-13.1416
▁2009.	-13.1422
▁sweat	-13.1422
▁Eva	-13.1422
▁Tru	-13.1429
▁ke	-13.143
graph	-13.1434
rb	-13.1435
▁hop	-13.1436
▁Despite	-13.1445
▁visual	-13.1445
▁yield	-13.1445
▁THIS	-13.1445
▁slipped	-13.1445
▁Tomorrow	-13.1445
▁sheet	-13.1445
▁newly	-13.1446
▁Sweet	-13.1449
test	-13.1449
▁fence	-13.1451
▁headquarters	-13.1451
▁wherever	-13.1452
org	-13.1454
term	-13.1456
▁Gro	-13.1462
aire	-13.1464
▁Olympic	-13.1467
▁electronic	-13.1469
blo	-13.1469
▁Find	-13.1473
▁Anti	-13.1475
▁2019	-13.148
▁auto	-13.1482
iest	-13.1487
shed	-13.1491
▁charges	-13.1493
▁recall	-13.1493
▁instinct	-13.1496
▁lieutenant	-13.1496
▁substance	-13.1496
▁renamed	-13.1496
▁entry	-13.1496
▁asshole	-13.1496
itation	-13.1496
▁ethnic	-13.1496
▁restrict	-13.1496
▁GET	-13.1496
▁Kelly	-13.1497
▁acquired	-13.1497
Can	-13.15
▁solo	-13.15
▁printed	-13.1501
RU	-13.1501
▁developing	-13.1502
▁rang	-13.1502
▁Luke	-13.1506
top	-13.1509
there	-13.1512
▁slave	-13.1518
mos	-13.152
UE	-13.1523
▁SA	-13.1525
▁confess	-13.1526
▁pirates	-13.1528
▁hits	-13.1531
▁banks	-13.1531
▁candle	-13.1532
▁spirits	-13.1532
eb	-13.1538
▁Wind	-13.1539
▁contest	-13.154
▁chick	-13.1542
UL	-13.1542
▁succeed	-13.1544
▁Bru	-13.1545
▁models	-13.1546
▁rapid	-13.1547
▁distant	-13.1547
▁whistle	-13.1547
▁organisation	-13.1547
▁genus	-13.1547
▁crystal	-13.1547
▁enable	-13.1548
▁youngest	-13.155
▁regarding	-13.155
▁constantly	-13.1551
▁ruined	-13.1551
▁wondered	-13.156
Su	-13.1561
▁wishes	-13.1561
lio	-13.1567
▁blast	-13.1568
▁peasant	-13.1569
▁Muslim	-13.1569
mma	-13.1572
wai	-13.1578
▁singles	-13.1581
OO	-13.1584
cos	-13.1591
▁faithful	-13.1593
▁asks	-13.1594
▁register	-13.1596
▁technical	-13.1597
▁jealous	-13.1597
▁stores	-13.1597
▁stops	-13.1598
▁Francis	-13.1598
▁Armenia	-13.1599
▁injured	-13.1599
▁variable	-13.1599
▁Polish	-13.1599
▁blew	-13.1599
▁agency	-13.1599
▁Drink	-13.1599
▁Christianity	-13.16
▁rapidly	-13.16
▁relatively	-13.1601
▁keen	-13.1601
▁taxes	-13.1601
▁behave	-13.1603
▁Cuba	-13.1605
▁heading	-13.1607
▁organ	-13.1612
awa	-13.1614
▁standards	-13.1615
▁Hay	-13.1616
PE	-13.1616
▁Yoon	-13.162
▁GO	-13.1621
▁adventure	-13.1621
▁resource	-13.1621
high	-13.1624
▁DON	-13.1625
EP	-13.1628
▁principles	-13.163
▁Camp	-13.164
▁swing	-13.1648
▁Tennessee	-13.165
▁concrete	-13.165
▁slope	-13.165
▁grandfather	-13.165
▁duties	-13.1651
▁invented	-13.1651
▁seized	-13.1652
▁Following	-13.1653
▁Apple	-13.1653
▁fever	-13.1653
▁Barb	-13.1653
▁Egyptian	-13.1653
▁expressed	-13.1656
▁newspapers	-13.1656
▁gosh	-13.1663
▁arrive	-13.1668
▁dates	-13.1668
Are	-13.167
▁sang	-13.167
▁Jews	-13.1671
▁fo	-13.1679
▁pile	-13.1683
▁ni	-13.1683
▁math	-13.1691
▁beam	-13.1692
will	-13.1694
iki	-13.1698
▁greatly	-13.17
▁intelligence	-13.1703
▁translation	-13.1703
▁genius	-13.1703
▁gross	-13.1703
▁airplane	-13.1703
▁Patrick	-13.1703
▁Tower	-13.1703
▁Ski	-13.1704
▁Rollo	-13.1704
▁occupied	-13.1707
▁blanket	-13.1707
▁infinite	-13.1708
▁package	-13.1712
▁instrument	-13.1712
morph	-13.1712
▁Common	-13.1713
▁reply	-13.1714
▁Male	-13.1717
▁organizations	-13.1722
ologist	-13.1722
▁Sounds	-13.1724
▁Mine	-13.1727
▁vessels	-13.1728
ails	-13.173
print	-13.1731
ended	-13.1732
adi	-13.1732
▁chase	-13.1732
▁hurts	-13.1736
NT	-13.1739
gram	-13.1743
atch	-13.1747
▁Kha	-13.1751
▁eighteen	-13.1754
▁Brook	-13.1754
▁revolution	-13.1755
▁Sydney	-13.1755
▁Tokyo	-13.1755
▁policies	-13.1755
▁Hollywood	-13.1755
▁jerk	-13.1755
▁Johan	-13.1755
▁stack	-13.1755
▁Franz	-13.1756
▁lighthouse	-13.1756
▁reverse	-13.1756
▁movements	-13.1757
▁Devil	-13.176
▁lifted	-13.176
▁poly	-13.176
away	-13.1762
ardi	-13.1763
▁spy	-13.1769
▁conf	-13.1769
▁ensure	-13.1773
▁throwing	-13.1773
▁DE	-13.1777
lets	-13.1778
▁mighty	-13.1793
Th	-13.1797
▁Ned	-13.1797
▁TH	-13.1798
▁Grant	-13.1801
▁articles	-13.1802
▁aboard	-13.1807
▁arrival	-13.1808
▁fundamental	-13.1808
▁judgment	-13.1808
▁privilege	-13.1808
▁wrestling	-13.1808
▁opportunities	-13.1808
▁intense	-13.1808
▁Field	-13.1808
▁Pardon	-13.1808
▁SH	-13.1808
thy	-13.1808
▁Para	-13.181
▁sufficient	-13.1811
▁nap	-13.1811
▁Lar	-13.182
▁consumer	-13.1823
▁provinces	-13.1824
▁craft	-13.1827
▁vice	-13.1828
▁expert	-13.1831
atu	-13.1833
HE	-13.184
ders	-13.1841
▁2014.	-13.1844
▁USA	-13.1849
▁exam	-13.1849
▁classical	-13.1852
▁vain	-13.1856
▁Dog	-13.1857
▁permanent	-13.1859
▁Avenue	-13.186
▁preparation	-13.186
▁primarily	-13.186
▁revenue	-13.186
▁Television	-13.186
▁begged	-13.1861
▁retreat	-13.1861
▁anchor	-13.1861
▁secretary	-13.1861
▁confirmed	-13.1862
▁Ms	-13.1866
oco	-13.1868
where	-13.1869
sville	-13.1872
▁swa	-13.1872
▁nearer	-13.1875
▁engines	-13.1877
▁depend	-13.1878
▁cells	-13.1887
▁Wild	-13.1888
▁crimes	-13.189
▁servants	-13.1893
▁bark	-13.1898
Mr	-13.1899
▁lasted	-13.1901
power	-13.1903
▁concerns	-13.1906
UC	-13.1906
▁Hit	-13.1909
▁react	-13.1909
▁celebrate	-13.1911
▁Austen	-13.1914
▁Charlotte	-13.1914
▁Hitler	-13.1914
▁virus	-13.1914
▁mouse	-13.1914
▁writes	-13.1914
▁laura	-13.1914
▁Judy	-13.1914
▁Baker	-13.1914
▁accused	-13.1915
▁Series	-13.1915
▁fluid	-13.1916
▁celebrated	-13.1917
▁survived	-13.1919
▁forests	-13.1921
laughs	-13.1923
▁Mala	-13.1924
hum	-13.1935
▁Dear	-13.1938
▁prayer	-13.194
▁atom	-13.194
▁bubbles	-13.1942
▁instruments	-13.1943
dition	-13.1945
ancy	-13.1945
▁plea	-13.195
▁rivers	-13.195
▁Sig	-13.1951
▁robot	-13.1951
ages	-13.1956
▁IV	-13.1957
▁dull	-13.1958
▁reserve	-13.1964
ody	-13.1965
▁immediate	-13.1965
▁disagree	-13.1967
▁incredible	-13.1967
▁literary	-13.1967
▁worldwide	-13.1967
▁Unless	-13.1968
▁woke	-13.1968
▁Maryland	-13.1968
▁wooden	-13.1968
▁merged	-13.1968
▁obtained	-13.197
▁reasonable	-13.197
▁Career	-13.197
▁Him	-13.1972
▁rolled	-13.1974
▁beings	-13.1975
▁reaching	-13.1979
▁aye	-13.198
▁Est	-13.198
cation	-13.1984
▁bold	-13.1985
quest	-13.1986
sca	-13.1989
▁Pola	-13.1992
mount	-13.1992
▁Cam	-13.2003
▁Eve	-13.2005
▁tickets	-13.2008
emi	-13.2013
▁wars	-13.2014
▁platforms	-13.2015
▁commit	-13.2017
▁fiction	-13.202
▁slight	-13.202
▁proportion	-13.2021
▁Confederate	-13.2021
▁Congratulations	-13.2021
▁KNOW	-13.2021
▁WITH	-13.2021
▁recognition	-13.2021
▁splendid	-13.2021
▁Tolombeh	-13.2021
▁Reagan	-13.2021
▁sector	-13.2021
ending	-13.2021
▁Molly	-13.2021
▁Left	-13.2022
▁chatter	-13.2022
Hey	-13.2023
▁whispered	-13.2023
▁campus	-13.2023
▁constructed	-13.2023
▁tooth	-13.2025
▁fled	-13.2029
▁Fl	-13.2031
from	-13.2032
▁computers	-13.2033
▁JU	-13.2036
▁sur	-13.2038
▁Commission	-13.2039
▁1954	-13.2043
▁panic	-13.2043
▁holes	-13.2045
▁passengers	-13.2049
Sp	-13.2052
▁Social	-13.2056
iel	-13.2061
▁creatures	-13.2063
▁Hard	-13.2064
▁breed	-13.2072
▁psycho	-13.2075
▁Research	-13.2075
▁Taipei	-13.2075
▁nomination	-13.2076
▁producing	-13.2078
▁competed	-13.208
▁Karen	-13.208
▁seventh	-13.208
▁Kings	-13.2081
▁Ur	-13.2082
▁deeply	-13.2083
▁hosted	-13.2084
itor	-13.2086
aving	-13.2086
▁stu	-13.21
▁affairs	-13.2109
▁companion	-13.2109
▁SE	-13.2112
▁Area	-13.2113
▁electro	-13.2114
▁Nazi	-13.2115
▁wounds	-13.2121
▁courts	-13.2128
▁algorithm	-13.2129
▁memories	-13.2129
▁earliest	-13.2129
▁essay	-13.2129
▁lamb	-13.213
▁wrap	-13.213
▁poetry	-13.213
▁consent	-13.213
▁stake	-13.213
sley	-13.2131
▁Judge	-13.2131
▁Round	-13.2131
▁roughly	-13.2132
▁whoops	-13.2135
umber	-13.2135
▁regiment	-13.2136
▁Gary	-13.2137
wit	-13.2142
▁offers	-13.2142
last	-13.2151
cla	-13.2154
cies	-13.2154
▁2006.	-13.2155
▁Aw	-13.2156
▁Mountains	-13.2161
▁cancel	-13.2164
inc	-13.2165
▁Walk	-13.2165
▁Julie	-13.2175
▁Bangladesh	-13.2176
ships	-13.2177
▁wheels	-13.2178
lying	-13.2182
▁bust	-13.2183
▁Taylor	-13.2184
▁bishop	-13.2184
▁assignment	-13.2184
▁expense	-13.2184
▁Theatre	-13.2184
▁Enough	-13.2184
▁introduction	-13.2184
▁Always	-13.2184
▁gradually	-13.2184
▁Bobby	-13.2184
▁considerable	-13.2185
▁achieved	-13.2188
▁honestly	-13.2189
▁rating	-13.2189
▁demanded	-13.219
▁Sel	-13.219
▁sailing	-13.219
▁longest	-13.2192
▁Whit	-13.2194
▁opens	-13.22
▁Nations	-13.22
▁dreadful	-13.2207
anta	-13.221
▁decent	-13.2211
▁hug	-13.2216
▁madam	-13.2218
▁metro	-13.2221
▁Cons	-13.2221
direct	-13.2221
your	-13.2224
▁Bah	-13.2229
▁paintings	-13.2231
met	-13.2233
▁awards	-13.2234
▁Tour	-13.2234
lat	-13.2239
▁Jonathan	-13.2239
▁Suffolk	-13.2239
▁academic	-13.2239
▁awesome	-13.2239
▁goddamn	-13.2239
▁triangle	-13.2239
▁violin	-13.2239
Sighs	-13.2239
▁Hotel	-13.224
Gu	-13.2241
▁Step	-13.2241
▁zoo	-13.2242
▁1966	-13.2243
▁gear	-13.2247
even	-13.225
▁pushing	-13.2251
▁Wayne	-13.2254
▁bearing	-13.2261
▁Baron	-13.2263
▁unf	-13.2264
▁Same	-13.2266
mai	-13.2267
▁Us	-13.2267
brow	-13.227
bound	-13.2275
three	-13.2275
bell	-13.2278
▁bars	-13.2282
▁1:	-13.2286
arch	-13.2288
▁diseases	-13.2289
got	-13.229
▁Hungarian	-13.2294
▁category	-13.2294
▁imagination	-13.2294
▁medium	-13.2294
▁fierce	-13.2294
▁grief	-13.2294
▁plates	-13.2294
▁loving	-13.2294
▁detective	-13.2294
▁thunder	-13.2294
▁crisis	-13.2294
▁churches	-13.2299
▁Christians	-13.23
▁merry	-13.2303
▁Woman	-13.2306
tions	-13.2306
▁bags	-13.2308
BA	-13.2308
▁Gardens	-13.2312
▁Girls	-13.2313
▁inner	-13.2314
▁bubble	-13.232
▁passenger	-13.232
CT	-13.2321
gio	-13.2323
▁Greg	-13.2323
▁CAN	-13.2327
▁Rec	-13.2328
loc	-13.2332
▁patch	-13.2333
▁rot	-13.2335
▁march	-13.2342
▁der	-13.2344
▁PA	-13.2348
▁pump	-13.2349
▁Gyp	-13.235
▁execution	-13.235
▁shining	-13.235
▁digital	-13.235
▁rude	-13.235
▁fox	-13.235
▁Knight	-13.235
▁Eight	-13.2351
▁whoever	-13.2356
▁Happy	-13.2356
KE	-13.2357
▁counting	-13.2362
▁handed	-13.2368
▁bent	-13.2369
made	-13.2377
ush	-13.2378
shot	-13.2379
▁Being	-13.2379
▁silk	-13.2382
...!	-13.2383
▁1942	-13.2383
▁5.	-13.2385
▁Bha	-13.2389
▁gal	-13.2394
OU	-13.2396
path	-13.2398
lp	-13.2398
ggle	-13.2398
▁diver	-13.2402
▁extensive	-13.2406
▁extraordinary	-13.2406
▁militia	-13.2406
▁rhythm	-13.2406
▁underneath	-13.2406
▁widow	-13.2406
▁civilization	-13.2406
▁consciousness	-13.2406
▁peaceful	-13.2408
▁BY	-13.2408
▁Boyer	-13.241
▁containing	-13.241
two	-13.2415
▁Carlos	-13.2416
▁Adams	-13.2421
▁tests	-13.2424
other	-13.2426
▁bay	-13.243
heat	-13.2432
mia	-13.2432
▁VI	-13.2435
▁1956	-13.2439
piece	-13.244
eva	-13.2446
▁gather	-13.2456
▁exhibit	-13.2457
▁invest	-13.2457
▁thrill	-13.2458
▁Premier	-13.2462
▁animated	-13.2462
▁assigned	-13.2462
▁depression	-13.2462
▁ritual	-13.2462
▁microphone	-13.2462
▁polite	-13.2462
▁spill	-13.2462
▁contrast	-13.2462
▁Peace	-13.2462
▁boring	-13.2462
▁farther	-13.2463
▁labour	-13.2463
▁Grace	-13.2464
▁rarely	-13.2464
▁deny	-13.2466
▁Forest	-13.2467
▁Lynd	-13.2472
▁beans	-13.2474
▁searching	-13.2475
▁historic	-13.248
dr	-13.2486
▁lessons	-13.2497
▁Khu	-13.2499
INE	-13.2499
▁represents	-13.2504
EST	-13.2507
▁LA	-13.2514
▁recover	-13.2514
▁define	-13.2515
▁essential	-13.2517
▁pour	-13.2518
▁roots	-13.2518
▁perspective	-13.2518
▁prominent	-13.2518
▁Labour	-13.2518
▁finance	-13.2518
▁distributed	-13.2518
▁Money	-13.2518
▁exposed	-13.252
▁goodbye	-13.2521
▁tailor	-13.2523
▁holy	-13.2526
▁Carol	-13.2535
ika	-13.2536
ovi	-13.2541
▁partners	-13.2546
▁neighbor	-13.2546
▁requires	-13.2555
Ka	-13.2555
pla	-13.256
esh	-13.2562
▁factors	-13.2563
ssing	-13.2566
▁Base	-13.2567
▁wee	-13.2567
▁distinct	-13.2568
▁1948	-13.2571
▁Fame	-13.2573
▁Pay	-13.2573
▁Portuguese	-13.2575
▁facilities	-13.2575
▁sweetheart	-13.2575
▁temporary	-13.2575
▁Security	-13.2575
▁caravan	-13.2575
▁Creek	-13.2575
▁remarkable	-13.2575
▁criticism	-13.2575
▁Poland	-13.2576
▁copper	-13.2578
▁Jeff	-13.2584
▁improvement	-13.2585
▁promotion	-13.2587
▁Pass	-13.259
▁civilian	-13.2591
▁customers	-13.2595
▁sounded	-13.2599
▁item	-13.2601
▁scholar	-13.2602
▁serves	-13.2602
▁cord	-13.2602
▁deaths	-13.2607
▁Ak	-13.2608
▁prisoner	-13.2608
▁ste	-13.2612
▁lied	-13.2613
▁2004,	-13.2613
ili	-13.2613
▁ego	-13.2614
▁31,	-13.2615
▁delight	-13.2617
self	-13.2618
▁relationships	-13.2619
OC	-13.2624
▁shout	-13.2627
▁scream	-13.2629
▁encourage	-13.2629
▁drag	-13.2629
▁Fat	-13.263
▁Vietnam	-13.2632
▁Connecticut	-13.2632
▁Hamilton	-13.2632
▁Jordan	-13.2632
▁conservative	-13.2632
▁opposition	-13.2632
▁surname	-13.2632
▁Moore	-13.2633
scribe	-13.2633
idae	-13.2635
▁blessing	-13.2635
▁plum	-13.2636
▁exhibition	-13.2637
▁bla	-13.2641
▁intend	-13.2643
▁neuro	-13.2647
urse	-13.2651
ROM	-13.2657
▁structures	-13.2663
ARD	-13.2664
sighs	-13.2664
▁fla	-13.2668
HI	-13.2669
any	-13.267
morrow	-13.267
▁2-	-13.2672
▁officials	-13.2678
▁1952	-13.2685
▁draft	-13.2688
▁mistakes	-13.2689
▁Nelson	-13.269
▁excitement	-13.269
▁mechanism	-13.269
▁universal	-13.269
▁universities	-13.269
▁visible	-13.269
▁storage	-13.269
▁Turkish	-13.269
▁Geography	-13.269
▁Media	-13.2691
▁recovered	-13.2693
▁policeman	-13.2693
▁exists	-13.2695
▁belonging	-13.2695
▁existed	-13.2696
▁users	-13.2699
▁update	-13.27
▁nut	-13.2702
▁protected	-13.2702
aj	-13.2702
▁guards	-13.2704
▁visitors	-13.2705
▁consideration	-13.2705
):	-13.2705
dal	-13.2715
▁Muslims	-13.2722
▁Match	-13.2731
▁amounts	-13.2733
▁winds	-13.2733
▁Chang	-13.2738
▁verse	-13.2743
fore	-13.2743
▁Work	-13.2745
▁Corporation	-13.2747
▁Entertainment	-13.2747
▁monitor	-13.2747
▁monument	-13.2747
▁bunny	-13.2747
▁Persia	-13.2748
▁rural	-13.2748
▁specifically	-13.2748
▁closing	-13.2748
▁Larry	-13.2748
▁Bear	-13.2756
▁assist	-13.2756
rina	-13.2757
pet	-13.276
tty	-13.2763
DE	-13.2769
▁dim	-13.2771
ggy	-13.2774
▁Gri	-13.2777
▁Kal	-13.2782
father	-13.2783
▁shed	-13.2785
inger	-13.279
▁cares	-13.2793
▁ID	-13.2793
▁Manipur	-13.2804
▁dirt	-13.2804
▁Imperial	-13.2806
▁Napoleon	-13.2806
▁accurate	-13.2806
▁conscience	-13.2806
▁Arabia	-13.2806
▁vital	-13.2806
▁ease	-13.2807
▁divorced	-13.2808
▁mister	-13.2809
▁depending	-13.2809
▁affection	-13.2815
▁1938	-13.2819
ional	-13.282
▁Dude	-13.2822
uite	-13.2822
▁Mayor	-13.2822
▁Mah	-13.2824
dress	-13.2839
▁Ag	-13.2845
▁1961	-13.2846
acc	-13.2849
▁1946	-13.2851
Pro	-13.2854
itis	-13.2856
Je	-13.2859
uma	-13.286
ault	-13.2863
▁Meanwhile	-13.2864
▁Network	-13.2864
▁Temple	-13.2864
▁equivalent	-13.2864
▁exclaimed	-13.2864
▁nonsense	-13.2864
▁providing	-13.2864
▁romance	-13.2864
▁tremendous	-13.2864
▁flesh	-13.2864
▁internet	-13.2864
▁balloon	-13.2864
▁Chairman	-13.2864
▁elsewhere	-13.2864
▁curve	-13.2865
▁Lucy	-13.2866
▁scary	-13.2867
▁Barry	-13.2867
Cl	-13.2868
▁sensitive	-13.2869
▁representing	-13.2869
▁conducted	-13.2869
▁rub	-13.2869
▁damaged	-13.2871
▁1958	-13.2875
▁pace	-13.2881
▁Neil	-13.2881
akh	-13.2882
ride	-13.2891
Chuckles	-13.2893
▁exception	-13.2906
▁peep	-13.2908
guard	-13.2911
claim	-13.2915
▁Region	-13.2917
▁prices	-13.2917
▁purchase	-13.292
▁invite	-13.292
▁Inca	-13.2921
▁1962	-13.2921
▁blank	-13.2922
▁gesture	-13.2923
▁injuries	-13.2923
▁sneak	-13.2923
▁Pretty	-13.2923
▁drain	-13.2923
▁bacteria	-13.2923
▁objective	-13.2923
▁difficulties	-13.2924
▁Sid	-13.2925
▁barely	-13.2925
▁Kent	-13.2925
▁observation	-13.2925
atic	-13.2925
gul	-13.2928
▁govern	-13.2928
udi	-13.293
▁safely	-13.2932
▁frogs	-13.2948
▁6.	-13.2948
▁cleared	-13.295
▁writers	-13.2951
▁kinda	-13.296
SR	-13.2963
rot	-13.2964
Lo	-13.2968
▁Liz	-13.2977
▁Assyria	-13.2978
▁wit	-13.2978
▁arc	-13.298
▁Ana	-13.2982
▁Amanda	-13.2982
▁Baltimore	-13.2982
▁Caesar	-13.2982
▁absence	-13.2982
▁backwards	-13.2982
▁Unlike	-13.2982
▁retirement	-13.2982
▁Having	-13.2983
▁entertainment	-13.2983
▁Mau	-13.2984
▁behalf	-13.2984
▁linked	-13.2987
uke	-13.2988
▁attempted	-13.2989
▁Hell	-13.299
▁Blair	-13.299
aged	-13.2995
▁Hal	-13.2996
▁particles	-13.2997
▁offices	-13.3
ility	-13.3001
▁functions	-13.3002
▁Dove	-13.3005
cade	-13.3013
▁Bowl	-13.3014
▁aired	-13.3016
▁2016.	-13.3018
cio	-13.3023
▁shops	-13.3027
▁1943	-13.3031
▁limits	-13.3032
▁fatal	-13.3032
▁bless	-13.3037
▁Arch	-13.3039
music	-13.304
▁funds	-13.3041
▁destruction	-13.3042
▁gravity	-13.3042
▁primitive	-13.3042
▁northeast	-13.3042
▁transferred	-13.3042
▁BUT	-13.3042
▁kittie	-13.3042
▁Therefore	-13.3043
▁typically	-13.3044
▁pillow	-13.3044
▁Monte	-13.3044
▁dunno	-13.3045
▁wax	-13.3046
▁Allah	-13.3046
IE	-13.3049
▁feeding	-13.305
▁Representatives	-13.3051
▁Pad	-13.3063
FO	-13.3065
osh	-13.3066
gla	-13.3072
▁vessel	-13.3072
▁ham	-13.3078
▁terror	-13.3083
rib	-13.3088
▁FI	-13.3089
thi	-13.3093
Phone	-13.3094
▁Ty	-13.3094
▁Ap	-13.3098
▁bond	-13.31
▁convert	-13.31
▁Amendment	-13.3101
▁Orleans	-13.3101
▁administrative	-13.3101
▁opponent	-13.3101
▁confront	-13.3101
▁Christopher	-13.3102
▁adjust	-13.3102
▁jazz	-13.3102
▁hammer	-13.3102
▁racing	-13.3102
▁costume	-13.3102
▁supper	-13.3102
▁warrant	-13.3102
▁stir	-13.3102
▁favourite	-13.3103
▁bass	-13.3103
▁interpretation	-13.3104
▁2015.	-13.3105
stand	-13.3108
▁Gate	-13.3109
▁Mama	-13.311
boat	-13.3111
▁Wolf	-13.3112
▁pad	-13.3112
▁hid	-13.3117
▁staring	-13.3118
▁hum	-13.312
▁sole	-13.3121
▁nations	-13.3127
rist	-13.3131
▁aspect	-13.3132
four	-13.314
▁parliament	-13.3143
have	-13.3144
▁horn	-13.3146
▁beds	-13.3148
▁ONE	-13.3149
ID	-13.3154
eak	-13.3157
▁participate	-13.3159
▁Om	-13.3159
▁float	-13.3159
▁Lewis	-13.3162
▁burden	-13.3162
▁explosion	-13.3162
▁shield	-13.3162
▁Daisy	-13.3162
▁Isabel	-13.3162
▁Scots	-13.3162
▁Ladies	-13.3162
▁spray	-13.3162
▁gri	-13.3162
mine	-13.3164
ANT	-13.3165
▁designer	-13.3166
UM	-13.3167
▁belonged	-13.3168
▁entering	-13.3169
▁equally	-13.3171
▁wipe	-13.3172
▁influenced	-13.3173
▁lads	-13.3175
▁ringing	-13.3177
RT	-13.3177
isation	-13.3178
▁Rat	-13.318
▁seated	-13.3181
bone	-13.3184
wee	-13.3187
FF	-13.3189
▁Found	-13.3194
▁Rio	-13.3198
▁hopes	-13.3198
▁Pal	-13.3207
▁pat	-13.3208
▁pole	-13.3215
▁schedule	-13.3219
▁borrow	-13.3219
xe	-13.322
weight	-13.3222
▁Admiral	-13.3222
▁continuous	-13.3222
▁external	-13.3222
▁miracle	-13.3222
▁sandwich	-13.3222
▁dinosaur	-13.3222
▁gently	-13.3222
▁Indeed	-13.3222
▁documentary	-13.3223
▁glow	-13.3223
▁Norway	-13.3223
▁Cy	-13.3223
▁occasionally	-13.3223
▁Dragon	-13.3227
▁successfully	-13.3229
▁bears	-13.3229
▁focused	-13.323
▁shares	-13.3231
▁voted	-13.3233
erg	-13.3234
▁blowing	-13.3238
uki	-13.3242
▁components	-13.3245
▁dip	-13.3256
▁slaves	-13.3257
▁Vas	-13.3258
▁facts	-13.3261
▁fighter	-13.3265
▁bush	-13.3265
range	-13.3268
▁Fla	-13.3269
date	-13.3271
▁dancer	-13.3275
▁fame	-13.3277
body	-13.3279
▁Med	-13.3281
▁Deputy	-13.3283
▁Platform	-13.3283
▁furniture	-13.3283
▁garbage	-13.3283
▁suspicion	-13.3283
▁vaccine	-13.3283
▁Davis	-13.3284
▁Native	-13.3285
▁creative	-13.3286
▁actors	-13.3286
▁attracted	-13.3286
ape	-13.3287
▁stretched	-13.3288
▁WWE	-13.3288
▁performing	-13.3288
▁Pie	-13.3295
▁whereas	-13.3296
▁accounts	-13.3297
esse	-13.33
rak	-13.3301
BS	-13.3303
▁feathers	-13.3305
▁si	-13.3309
▁kit	-13.331
they	-13.331
▁1949	-13.3311
▁diamond	-13.3315
▁arrangement	-13.3316
▁promote	-13.3321
wer	-13.3321
▁seeds	-13.3323
aved	-13.3326
▁grace	-13.3338
▁crook	-13.3342
▁Development	-13.3345
▁Modern	-13.3345
▁leadership	-13.3345
▁stopping	-13.3346
▁appearances	-13.3347
▁everyday	-13.3347
▁floating	-13.3348
uda	-13.335
▁vol	-13.335
▁AN	-13.335
▁abe	-13.335
▁hip	-13.3351
Li	-13.3354
UND	-13.3356
▁BO	-13.3356
▁convention	-13.3359
evi	-13.3363
AC	-13.3363
▁1939	-13.3369
oka	-13.337
ality	-13.3377
Par	-13.338
▁Nay	-13.3383
craft	-13.3383
amed	-13.3385
issa	-13.3388
▁Jae	-13.3388
loss	-13.3394
▁comments	-13.3395
▁surrender	-13.3403
▁eager	-13.3405
▁COVID	-13.3406
▁Communist	-13.3406
▁FBI	-13.3406
▁Meitei	-13.3406
▁attorney	-13.3406
▁mercy	-13.3406
▁sweep	-13.3406
▁abroad	-13.3406
▁barrel	-13.3406
▁Project	-13.3406
▁permit	-13.3407
▁foolish	-13.3407
▁Ugh	-13.3407
▁Marshall	-13.3407
▁Fight	-13.3407
▁Var	-13.3407
▁dishes	-13.3408
olo	-13.3408
▁Speaker	-13.3416
▁clown	-13.3416
▁Gray	-13.3418
▁Ry	-13.342
▁bend	-13.3421
▁flip	-13.3425
pal	-13.3427
▁chips	-13.3429
AA	-13.3431
▁heir	-13.3433
▁SC	-13.3434
▁Ob	-13.3436
▁farmers	-13.3437
▁et	-13.3437
▁Guy	-13.3447
▁musicians	-13.345
▁bills	-13.3451
vas	-13.3453
▁controls	-13.3453
▁Af	-13.3454
▁beliefs	-13.3459
case	-13.3461
▁files	-13.3464
▁Read	-13.3465
mother	-13.3467
mini	-13.3468
▁Building	-13.3468
▁Edinburgh	-13.3468
▁Whether	-13.3468
▁destination	-13.3468
▁extension	-13.3468
▁sequel	-13.3468
▁Shoot	-13.3469
▁Almost	-13.3469
▁Foundation	-13.3469
▁Dance	-13.347
▁scarcely	-13.347
▁rebel	-13.3471
▁effectively	-13.3472
▁meantime	-13.3474
▁worthy	-13.3476
▁Half	-13.3476
pol	-13.3477
life	-13.3478
sters	-13.3481
▁1959	-13.3481
▁TED	-13.3482
dam	-13.3482
▁Gui	-13.3487
▁input	-13.349
▁2008.	-13.3493
▁supporting	-13.3493
CC	-13.3493
DS	-13.3496
▁titles	-13.3497
ware	-13.3505
▁Aha	-13.3515
▁Cooper	-13.3519
char	-13.352
▁attract	-13.3521
wise	-13.3521
illo	-13.3527
▁Inspector	-13.3531
▁advocate	-13.3531
▁calendar	-13.3531
▁entitled	-13.3531
▁pencil	-13.3531
▁steady	-13.3531
▁Broadway	-13.3531
LlE	-13.3531
▁bleeding	-13.3532
▁mock	-13.3533
▁employed	-13.3533
▁expanded	-13.3533
▁Going	-13.3537
▁Philippines	-13.3538
▁refers	-13.3538
tree	-13.354
▁ARE	-13.3541
▁transition	-13.3544
▁joining	-13.3544
▁finishing	-13.3544
ories	-13.3547
using	-13.3547
Fi	-13.3548
▁seeking	-13.3548
▁quarters	-13.3548
Com	-13.3549
▁gap	-13.3557
vic	-13.3559
pli	-13.3562
▁Except	-13.3564
▁Jar	-13.3567
▁2:	-13.3568
mel	-13.3571
rink	-13.3572
50,000	-13.3581
friend	-13.3582
▁epi	-13.3583
aff	-13.3585
▁gut	-13.3587
▁optim	-13.3594
▁despair	-13.3594
▁Anderson	-13.3594
▁Ralph	-13.3594
▁Several	-13.3594
▁Vegas	-13.3594
▁poverty	-13.3594
▁Business	-13.3594
▁quote	-13.3594
▁stiff	-13.3594
▁vary	-13.3595
▁followers	-13.3597
▁accent	-13.3597
▁lifetime	-13.3599
▁Dev	-13.3601
ike	-13.3605
rite	-13.3605
▁Gr	-13.3605
▁boot	-13.3608
▁raid	-13.3611
▁philosopher	-13.3612
▁feared	-13.3612
him	-13.3613
▁decades	-13.3617
▁beep	-13.362
▁colon	-13.3621
▁Guys	-13.3624
pel	-13.3627
▁commission	-13.3629
▁cookie	-13.3629
▁farmer	-13.3635
▁Eli	-13.3636
▁exit	-13.3637
Ge	-13.3639
▁priests	-13.3653
▁convince	-13.3654
▁obtain	-13.3654
▁interrupt	-13.3654
▁franchise	-13.3657
▁Windows	-13.3657
▁Third	-13.3657
▁Rachel	-13.3657
▁NFL	-13.3657
▁battery	-13.3658
▁Ker	-13.3659
▁starr	-13.3659
▁instantly	-13.366
▁delighted	-13.366
▁briefly	-13.3661
iya	-13.3662
▁assumed	-13.3663
▁Agent	-13.3663
udd	-13.3663
▁interior	-13.3671
▁skip	-13.3672
wind	-13.3673
lav	-13.3677
▁Mars	-13.368
▁charm	-13.3681
▁Ark	-13.3683
enne	-13.369
▁shark	-13.3692
▁fellows	-13.3692
▁MP	-13.3694
▁Shh	-13.3695
▁unre	-13.3697
▁rein	-13.3702
▁apples	-13.3702
▁applications	-13.3706
▁strain	-13.3707
▁Name	-13.371
▁2000.	-13.3714
PA	-13.3714
MAN	-13.3715
eta	-13.3716
▁pursue	-13.3718
▁Monsieur	-13.3721
▁activist	-13.3721
▁clouds	-13.3721
▁genuine	-13.3721
▁miserable	-13.3721
▁stadium	-13.3721
LAUS	-13.3721
▁facing	-13.3721
umbling	-13.3722
▁educated	-13.3722
▁disappointed	-13.3722
▁Newton	-13.3723
▁estimated	-13.3724
▁eighth	-13.3725
tsu	-13.3725
uv	-13.3725
▁Rabbit	-13.3726
▁Coming	-13.3729
▁colleagues	-13.374
RN	-13.3741
▁techniques	-13.3746
▁purse	-13.3751
▁aspects	-13.3752
apping	-13.3763
▁Rai	-13.3767
raw	-13.3769
▁Shaw	-13.3776
EE	-13.3777
▁Ari	-13.3779
▁Sis	-13.3781
▁quarrel	-13.3785
▁Hurricane	-13.3785
▁venture	-13.3785
Laughs	-13.3785
▁insane	-13.3785
▁attractive	-13.3785
▁impressed	-13.3786
ska	-13.3787
▁helpful	-13.3787
▁leak	-13.3788
▁Kh	-13.3789
upon	-13.3789
▁softly	-13.3791
bag	-13.3791
▁boxes	-13.3791
rator	-13.3798
▁ding	-13.38
▁rip	-13.3808
▁Cold	-13.3816
Sc	-13.3825
▁cheek	-13.3825
▁Page	-13.383
▁mega	-13.3831
▁patterns	-13.3837
▁kings	-13.3839
▁rib	-13.384
▁Madam	-13.3848
▁Hawk	-13.3849
▁peculiar	-13.3849
▁dynasty	-13.3849
▁nephew	-13.3849
▁Wonder	-13.385
▁midnight	-13.385
▁Tiger	-13.385
▁metres	-13.385
▁Poly	-13.3857
iling	-13.3859
▁arose	-13.3863
▁Final	-13.3868
▁Fall	-13.3869
▁secrets	-13.3874
▁checking	-13.3874
dding	-13.3877
▁Much	-13.3885
▁infection	-13.3888
▁Deh	-13.3893
mission	-13.3895
though	-13.3895
▁chew	-13.3897
▁bore	-13.3898
break	-13.3907
▁gates	-13.391
▁rage	-13.3911
▁divorce	-13.3911
▁MI	-13.3912
▁Community	-13.3914
▁Houston	-13.3914
▁Lawrence	-13.3914
▁agricultural	-13.3914
▁hymn	-13.3914
▁welfare	-13.3914
▁generous	-13.3914
▁drank	-13.3915
▁shouted	-13.3918
Ju	-13.3918
▁Clare	-13.3921
▁kicked	-13.3922
yle	-13.3926
▁touching	-13.3935
▁routes	-13.3935
aku	-13.3938
▁Sky	-13.3947
▁combat	-13.395
▁qui	-13.395
▁Sad	-13.3951
▁sometime	-13.3962
Or	-13.3964
▁Flo	-13.3967
▁dock	-13.3967
▁Rod	-13.3968
▁Acc	-13.3969
▁Tele	-13.397
▁boots	-13.3971
▁celebration	-13.398
▁hollow	-13.398
▁radiation	-13.398
▁receiving	-13.398
▁urban	-13.398
▁versus	-13.398
▁grasp	-13.398
▁Murray	-13.398
At	-13.398
▁Robinson	-13.398
▁possessed	-13.3983
▁screaming	-13.3983
▁UN	-13.3983
▁discussed	-13.3986
eries	-13.3992
▁1937	-13.3992
▁Thought	-13.3995
▁peer	-13.4004
hard	-13.4004
bles	-13.4004
▁bands	-13.4004
scope	-13.4006
▁laughter	-13.4013
▁judges	-13.402
century	-13.4023
bor	-13.4023
dorf	-13.4023
▁Doc	-13.4024
▁options	-13.4027
▁hunter	-13.4029
▁Said	-13.4033
▁Tech	-13.4034
Na	-13.404
▁drawer	-13.4042
▁leaf	-13.4042
▁refuge	-13.4046
▁Orchestra	-13.4046
▁Seriously	-13.4046
▁impressive	-13.4046
▁bloke	-13.4046
▁chemistry	-13.4046
▁Ridge	-13.4046
▁shaking	-13.4046
▁Corps	-13.4046
▁travelled	-13.4046
▁duke	-13.4046
▁Allison	-13.4046
▁travelling	-13.4047
▁hut	-13.4047
▁ultimately	-13.4047
▁frequent	-13.4047
▁Yale	-13.4048
▁practically	-13.4048
▁Drive	-13.4049
▁halt	-13.4051
▁monk	-13.4051
▁Kang	-13.4052
▁conception	-13.4053
▁beard	-13.4057
illy	-13.4059
▁resulted	-13.4062
▁trusted	-13.4063
SI	-13.4064
▁Beck	-13.4064
▁nerves	-13.407
▁Roll	-13.407
meter	-13.4071
Jo	-13.4087
▁needle	-13.4089
▁True	-13.4091
vat	-13.4095
▁fulfill	-13.4102
▁emotion	-13.4106
bir	-13.4107
▁arrange	-13.4109
▁sponsor	-13.4109
▁Chah	-13.4109
▁Colorado	-13.4112
▁Kermanshah	-13.4112
▁Mayweather	-13.4112
▁accompanied	-13.4112
▁alphabet	-13.4112
▁junior	-13.4112
▁memorial	-13.4112
▁matrix	-13.4112
▁Franklin	-13.4112
▁programming	-13.4112
▁suggests	-13.4112
▁solemn	-13.4112
▁Plus	-13.4113
▁humor	-13.4113
▁stall	-13.4113
▁suitable	-13.4113
▁Juan	-13.4113
▁rushed	-13.4117
▁whip	-13.4117
▁improved	-13.4118
▁distinction	-13.4118
▁Bhaer	-13.4119
▁Dream	-13.4119
▁twist	-13.4119
▁covering	-13.4128
ander	-13.4129
uni	-13.413
▁loo	-13.413
▁2000,	-13.413
▁Key	-13.4131
▁TR	-13.4132
▁Hunter	-13.4132
hing	-13.4138
stead	-13.4139
▁institutions	-13.4141
hh	-13.4141
▁sharks	-13.4142
▁cookies	-13.4143
▁grim	-13.4144
▁raw	-13.4145
▁organic	-13.4147
▁governments	-13.4148
▁Box	-13.4155
▁shots	-13.4156
▁vehicles	-13.4158
AP	-13.4161
▁hatch	-13.4162
▁Helen	-13.4163
▁bench	-13.4171
▁Eat	-13.4171
▁Minnesota	-13.4178
▁Ontario	-13.4178
▁Pacquiao	-13.4178
▁Section	-13.4178
▁messenger	-13.4178
▁multiply	-13.4178
▁nodded	-13.4178
▁rifle	-13.4178
▁routine	-13.4178
▁supplies	-13.4178
▁wives	-13.4178
▁Alicia	-13.4179
▁resistance	-13.4179
▁hopefully	-13.4179
▁consistent	-13.4179
▁hitting	-13.4181
▁participated	-13.4182
▁secondary	-13.4182
▁Sandy	-13.4182
▁educational	-13.4184
BE	-13.4191
▁titled	-13.4196
kov	-13.4199
▁sore	-13.4203
vice	-13.421
▁designs	-13.421
ggie	-13.422
▁Hand	-13.4222
With	-13.4224
▁closet	-13.4225
▁drum	-13.4225
▁Mat	-13.4232
uce	-13.4243
▁Dallas	-13.4246
▁Detective	-13.4246
▁Neither	-13.4246
▁Welsh	-13.4246
▁escort	-13.4246
▁fabric	-13.4246
▁helicopter	-13.4246
▁minimum	-13.4246
▁resolution	-13.4246
▁scattered	-13.4246
▁Selena	-13.4246
▁Otherwise	-13.4246
▁naval	-13.4246
▁abstract	-13.4246
▁weakness	-13.4246
▁THEY	-13.4247
▁coward	-13.4247
▁Ricky	-13.4248
▁2019,	-13.4248
▁insert	-13.4249
ensor	-13.4249
▁doggie	-13.425
▁Costa	-13.425
▁representation	-13.4253
▁conscious	-13.4255
etic	-13.4255
▁Feel	-13.426
▁crops	-13.4261
▁presents	-13.4264
▁dick	-13.4267
Billboard	-13.4267
▁stern	-13.4269
▁7.	-13.4275
▁citizen	-13.4284
▁wins	-13.4286
▁Close	-13.4287
woman	-13.4291
▁institution	-13.4293
stra	-13.4295
▁SN	-13.4298
chu	-13.43
aya	-13.4302
Michel	-13.4305
▁grounds	-13.4307
iba	-13.4309
▁Low	-13.4309
▁spoil	-13.431
▁realise	-13.4312
▁eldest	-13.4313
▁fraud	-13.4313
▁quantity	-13.4313
▁smoking	-13.4313
▁vertex	-13.4313
▁Chamber	-13.4313
Here	-13.4313
▁preach	-13.4314
▁Jason	-13.4314
▁alert	-13.4315
▁marsh	-13.4316
▁indicated	-13.4317
▁Shu	-13.4324
ME	-13.4324
▁Walt	-13.4324
Dr	-13.4325
hee	-13.4325
ici	-13.4326
▁Full	-13.4326
ickle	-13.4328
▁ashore	-13.4329
▁beef	-13.4331
berry	-13.4331
▁mild	-13.4332
);	-13.4334
smith	-13.4342
▁differ	-13.4343
▁Wake	-13.4344
▁performances	-13.4344
▁procedure	-13.4352
▁dealer	-13.4353
BO	-13.4354
▁Heart	-13.4356
bridge	-13.4358
TO	-13.4358
poli	-13.4361
▁2005.	-13.4362
▁Cool	-13.4364
YT	-13.4364
Mu	-13.4366
▁2017.	-13.4367
hm	-13.4368
▁Gus	-13.4368
▁Pil	-13.4373
▁Fars	-13.4375
pie	-13.4375
▁entertain	-13.4377
▁Especially	-13.4381
▁butterfly	-13.4381
▁glory	-13.4381
▁occupation	-13.4381
▁surprising	-13.4381
▁variation	-13.4381
▁tragedy	-13.4381
▁Transport	-13.4381
▁interval	-13.4381
▁quack	-13.4381
▁Nancy	-13.4382
▁carpet	-13.4382
▁HIS	-13.4382
▁trading	-13.4382
▁translated	-13.4382
▁unfortunately	-13.4383
▁Madame	-13.4383
▁Cook	-13.4384
▁Snow	-13.4386
▁deeper	-13.439
▁pigs	-13.4391
ival	-13.4394
▁attempts	-13.4395
lier	-13.4396
▁clue	-13.4398
▁tested	-13.4399
walk	-13.4404
wy	-13.4409
Get	-13.4411
▁FA	-13.4416
▁scholars	-13.4416
▁Raja	-13.4418
▁innit	-13.4421
▁relatives	-13.4425
lder	-13.4433
Some	-13.4443
▁chairs	-13.4445
▁breaks	-13.4446
▁praise	-13.4447
▁server	-13.4449
▁inhabit	-13.445
▁approval	-13.445
▁sketch	-13.445
▁yourselves	-13.445
▁YouTube	-13.445
▁Serbia	-13.445
▁BETH	-13.445
▁housing	-13.445
▁Orange	-13.445
▁sharing	-13.445
▁fairies	-13.4451
▁Connor	-13.4451
▁downtown	-13.4453
▁McG	-13.4455
▁Brothers	-13.4456
▁Shar	-13.446
hai	-13.4461
▁addressed	-13.4461
▁businesses	-13.4462
▁owners	-13.4464
azi	-13.4474
▁rum	-13.4478
▁edges	-13.4479
hra	-13.4479
NO	-13.4484
tail	-13.4486
▁ratio	-13.4486
▁operate	-13.4487
▁Rail	-13.4492
▁Start	-13.4493
▁BR	-13.4494
OP	-13.4494
▁wh	-13.4495
usa	-13.4495
chy	-13.4504
rig	-13.4509
▁possess	-13.4511
Car	-13.4512
lN	-13.4516
▁Harris	-13.4519
▁Alfred	-13.4519
▁Brussels	-13.4519
▁Louisiana	-13.4519
▁Donald	-13.4519
▁ethan	-13.4519
▁midst	-13.4519
▁engagement	-13.452
ART	-13.4525
▁wolf	-13.4526
▁orbit	-13.4526
▁approaching	-13.4527
▁Highland	-13.4528
▁Kate	-13.4528
▁SI	-13.4529
▁jewel	-13.4532
▁residents	-13.4532
▁parking	-13.4534
idal	-13.4537
▁races	-13.4539
▁Kr	-13.4539
▁tackle	-13.4544
▁goin	-13.455
▁Woo	-13.4552
▁founding	-13.4554
dol	-13.4563
▁worker	-13.4563
bee	-13.4565
fight	-13.4566
▁Karl	-13.4566
▁kindly	-13.4569
very	-13.4569
▁lighting	-13.4571
▁describes	-13.4572
▁Lea	-13.4573
▁BA	-13.4574
AND	-13.4575
▁mechanical	-13.4585
▁estimate	-13.4585
▁pause	-13.4585
▁Spa	-13.4586
▁Apparently	-13.4588
▁Easy	-13.4588
▁Sarhadi	-13.4588
▁acceleration	-13.4588
▁faculty	-13.4588
▁hurried	-13.4588
▁liberty	-13.4588
Species	-13.4588
▁Amazon	-13.4588
▁dragged	-13.4588
▁Gulf	-13.4588
▁dropping	-13.4588
▁flies	-13.4589
▁subsequently	-13.4589
▁Food	-13.4591
▁Nobel	-13.4591
▁conductor	-13.4592
▁Kel	-13.4592
God	-13.4592
▁percentage	-13.4593
▁rust	-13.4593
▁Isle	-13.4594
▁maintained	-13.4594
▁colours	-13.4595
▁2001.	-13.4596
▁flows	-13.4596
▁rolling	-13.4597
▁Regional	-13.4597
▁Rosa	-13.4598
▁united	-13.4598
▁1957	-13.4601
▁Age	-13.4602
ork	-13.4603
▁Lau	-13.4606
▁troubles	-13.4608
▁meets	-13.461
▁firms	-13.4613
▁Brit	-13.4614
▁q	-13.4615
oil	-13.4619
▁situations	-13.4622
▁hire	-13.4626
bai	-13.4628
▁imm	-13.4629
▁candy	-13.463
▁topic	-13.4635
▁Sound	-13.4635
yama	-13.4637
▁sho	-13.4638
ception	-13.4641
▁Rich	-13.4642
▁Wy	-13.4643
Of	-13.4648
▁sits	-13.465
▁Looking	-13.465
▁disturb	-13.4655
▁adopt	-13.4656
▁unlike	-13.4658
▁Jefferson	-13.4658
▁Prefecture	-13.4658
▁Wisconsin	-13.4658
▁pupil	-13.4658
▁transaction	-13.4658
▁Sultan	-13.4658
▁rubber	-13.4658
▁Clause	-13.4658
▁Diego	-13.4658
▁Francesco	-13.4658
▁Claire	-13.4659
▁Motor	-13.4659
▁Operation	-13.4659
▁Room	-13.4659
▁Dead	-13.466
▁informed	-13.4662
▁Whoo	-13.4664
▁blade	-13.4666
▁chances	-13.4668
MB	-13.4669
▁Kirk	-13.4678
▁Abd	-13.468
▁involves	-13.4681
▁taxi	-13.4681
▁laying	-13.4684
IV	-13.4687
▁Rad	-13.4688
▁pairs	-13.4693
▁lane	-13.4693
▁neighbors	-13.4694
▁tables	-13.4696
▁occasions	-13.4707
post	-13.4719
FL	-13.4719
▁propose	-13.4725
▁Lev	-13.4727
▁constitution	-13.4728
▁interfere	-13.4728
▁Foreign	-13.4728
▁Frederick	-13.4728
▁expansion	-13.4728
▁sprang	-13.4728
▁mistress	-13.4728
▁Small	-13.4728
▁Fruit	-13.4728
▁raising	-13.4729
▁mortal	-13.4729
▁comedian	-13.4729
▁Leonard	-13.4729
▁Upon	-13.4729
▁Tonight	-13.4729
▁Terry	-13.4729
▁await	-13.473
▁stove	-13.473
▁executed	-13.473
▁recovery	-13.473
▁Ring	-13.4731
ssel	-13.4733
▁processes	-13.4735
▁gaze	-13.4738
▁considering	-13.474
▁recorder	-13.4744
inch	-13.4745
▁presently	-13.4746
▁shade	-13.4756
LING	-13.4757
▁1936	-13.4768
▁religions	-13.4772
▁Lang	-13.4775
▁candidates	-13.4776
▁stages	-13.4776
clo	-13.478
▁Barr	-13.4782
▁elect	-13.4786
▁consult	-13.4795
▁encounter	-13.4796
▁occurs	-13.4798
▁awkward	-13.4799
▁comrade	-13.4799
▁import	-13.4799
▁virtue	-13.4799
▁Agency	-13.4799
▁Emmy	-13.4799
▁clause	-13.48
▁Bab	-13.4802
▁nearest	-13.4802
▁2004.	-13.4803
▁Lane	-13.4803
active	-13.4806
title	-13.4807
NY	-13.4809
▁filling	-13.4809
▁lyrics	-13.4811
▁jumping	-13.4811
▁mammals	-13.4812
▁solar	-13.4813
▁Euro	-13.482
▁returns	-13.4825
▁DC	-13.4828
NC	-13.4833
▁Cox	-13.4841
▁Spring	-13.4842
logy	-13.4844
▁employer	-13.4845
▁theories	-13.4849
▁differently	-13.4849
▁Thou	-13.4865
aa	-13.4867
▁Luther	-13.4868
free	-13.487
GRUNTING	-13.4871
▁Manchester	-13.4871
▁Oklahoma	-13.4871
▁Solomon	-13.4871
▁anxiety	-13.4871
▁distress	-13.4871
▁liberal	-13.4871
▁nasty	-13.4871
▁warrior	-13.4871
▁jungle	-13.4871
▁Bernard	-13.4871
▁bounce	-13.4871
▁lend	-13.4871
▁assistance	-13.4871
▁kidney	-13.4871
▁gender	-13.4871
▁Story	-13.4871
▁echo	-13.4872
▁Truth	-13.4872
▁distinguished	-13.4872
▁speaks	-13.4873
▁cabinet	-13.4873
chuckles	-13.4876
▁wallet	-13.4881
▁SHE	-13.4882
▁notion	-13.4886
▁AM	-13.4889
TY	-13.4891
▁Jesse	-13.4896
▁mod	-13.4898
▁opinions	-13.4899
MO	-13.4899
▁burnt	-13.49
▁Clo	-13.4905
▁Ang	-13.4906
▁Jai	-13.4907
▁Lai	-13.4912
▁CON	-13.4915
▁bucks	-13.4918
ground	-13.4919
▁outer	-13.4919
▁Command	-13.4921
▁Jew	-13.4929
▁hay	-13.4938
▁advise	-13.494
▁compare	-13.4941
▁Arizona	-13.4943
▁Malaysia	-13.4943
▁Mohammad	-13.4943
▁Suddenly	-13.4943
▁Unfortunately	-13.4943
▁facility	-13.4943
▁intelligent	-13.4943
▁fraction	-13.4943
▁Nathan	-13.4943
▁Katherine	-13.4943
▁mourn	-13.4943
▁Iron	-13.4943
Your	-13.4944
▁Fly	-13.4944
ower	-13.4945
▁blessed	-13.4946
▁output	-13.4947
▁Br	-13.4947
▁loaded	-13.4948
▁golf	-13.4948
▁towel	-13.4948
▁Warren	-13.495
▁measured	-13.4951
▁crowded	-13.4951
▁developer	-13.4958
▁locations	-13.496
▁Bennet	-13.4969
▁novels	-13.4971
▁Near	-13.4973
eus	-13.4978
▁bored	-13.4984
▁directions	-13.4984
▁Palm	-13.4985
ffer	-13.4986
▁stays	-13.4987
▁Mora	-13.4988
arma	-13.4991
vie	-13.4996
▁Ale	-13.5001
▁generations	-13.5002
mea	-13.5011
▁Made	-13.5013
conti	-13.5014
▁Einstein	-13.5015
▁Vienna	-13.5015
▁bundle	-13.5015
▁efficiency	-13.5015
▁savage	-13.5015
▁signature	-13.5015
▁trapped	-13.5015
▁employment	-13.5015
▁Brooklyn	-13.5015
▁Ground	-13.5016
▁Yorkshire	-13.5016
▁Mommy	-13.5016
▁Report	-13.5016
▁Space	-13.5016
▁Perry	-13.5017
▁rejected	-13.5017
▁coins	-13.5018
▁Jackie	-13.5018
▁assure	-13.502
rama	-13.5021
▁Prior	-13.5023
▁trailer	-13.5024
▁email	-13.5025
▁Bird	-13.5029
▁Calm	-13.5036
▁freely	-13.5036
▁dreaming	-13.5036
grad	-13.5037
▁buck	-13.5038
▁periods	-13.5039
▁grip	-13.5039
itude	-13.5042
▁rocket	-13.5044
▁trucks	-13.5047
▁gum	-13.5052
kha	-13.5053
PR	-13.5056
ivo	-13.5056
when	-13.5066
▁construct	-13.5067
osis	-13.5069
▁Kir	-13.507
▁Kid	-13.507
▁foods	-13.5071
▁mineral	-13.5072
aker	-13.5076
uta	-13.5078
dig	-13.5079
▁alter	-13.5079
▁1953	-13.5086
▁Marshal	-13.5088
▁loyal	-13.5088
▁Stadium	-13.5088
▁portrait	-13.5088
▁wisdom	-13.5088
▁trigger	-13.5088
▁Mickey	-13.5088
▁motive	-13.5088
▁squad	-13.5088
▁charity	-13.5088
▁tragic	-13.5089
▁oath	-13.5089
▁disgusting	-13.509
▁electrical	-13.5091
▁1951	-13.5091
▁praised	-13.5091
▁fuckin	-13.5092
NG	-13.5096
▁hint	-13.5097
▁Maim	-13.5099
▁Rica	-13.51
▁worm	-13.5102
▁statements	-13.5102
▁rug	-13.5102
come	-13.5106
▁Case	-13.511
▁Hope	-13.5118
▁Rogers	-13.5121
ela	-13.5124
▁technique	-13.5132
▁scientist	-13.5133
▁Rev	-13.5137
▁grows	-13.514
Look	-13.514
roy	-13.514
style	-13.514
speaking	-13.514
▁3-	-13.5143
▁Bou	-13.5143
▁rats	-13.5145
omme	-13.5151
eld	-13.5153
▁fist	-13.5154
▁expectation	-13.5158
▁emerge	-13.5159
▁descend	-13.5159
▁relate	-13.516
▁Virgin	-13.5161
▁suburb	-13.5161
▁Abraham	-13.5162
▁Belgium	-13.5162
▁Cleveland	-13.5162
▁Hicks	-13.5162
▁Krishna	-13.5162
▁Moscow	-13.5162
▁Stewart	-13.5162
▁artificial	-13.5162
▁harsh	-13.5162
▁prospect	-13.5162
▁voyage	-13.5162
▁medication	-13.5162
▁barrier	-13.5162
▁console	-13.5162
▁Holland	-13.5162
▁HERE	-13.5162
▁Islamic	-13.5162
▁pub	-13.5165
▁delivery	-13.5165
▁vest	-13.5165
▁humanity	-13.5166
▁painful	-13.5166
Thou	-13.5166
▁borders	-13.5166
▁concerning	-13.5168
▁pretending	-13.5168
▁shocked	-13.5169
▁waist	-13.517
▁Colo	-13.5176
▁Mino	-13.5177
DICA	-13.5177
▁Thi	-13.5178
▁hunger	-13.5178
having	-13.5179
▁sleepy	-13.518
▁pockets	-13.5184
hall	-13.5186
▁sync	-13.5198
▁Sol	-13.5201
terior	-13.5208
deh	-13.5211
▁Sala	-13.5213
vari	-13.5214
aux	-13.5215
feld	-13.5216
headed	-13.5222
▁sorrow	-13.5222
▁SW	-13.5222
▁Follow	-13.5233
LAUGHS	-13.5236
▁Roosevelt	-13.5236
▁communist	-13.5236
▁elevator	-13.5236
▁fortunate	-13.5236
▁manifest	-13.5236
▁segment	-13.5236
▁suspicious	-13.5236
▁valid	-13.5236
▁collar	-13.5236
▁cartoon	-13.5236
▁ceiling	-13.5236
▁classroom	-13.5236
▁chess	-13.5237
▁selfish	-13.5237
▁Highness	-13.5237
▁Beautiful	-13.5238
▁carries	-13.5239
▁Price	-13.5239
▁cluster	-13.5239
▁shouting	-13.524
▁GOT	-13.524
here	-13.524
▁fits	-13.5242
▁stealing	-13.5244
▁Face	-13.5245
▁Russ	-13.5245
▁2021,	-13.5257
hoe	-13.5259
▁Hur	-13.5262
▁tribes	-13.5264
▁compounds	-13.5264
▁Bol	-13.527
▁Bey	-13.5278
hari	-13.528
▁choices	-13.5282
▁noon	-13.5284
mouth	-13.5288
EY	-13.5293
isco	-13.5296
stop	-13.5305
▁punish	-13.5305
▁approve	-13.5307
▁associate	-13.5307
▁jaw	-13.531
▁bullshit	-13.531
▁qualified	-13.531
▁investigate	-13.531
▁confusion	-13.531
▁grandmother	-13.531
▁Catherine	-13.5311
▁Popeye	-13.5311
▁resigned	-13.5312
▁exhausted	-13.5312
think	-13.5314
▁membership	-13.5315
TION	-13.5318
▁funding	-13.5319
▁attraction	-13.532
▁Kiss	-13.5321
El	-13.5321
▁ancestors	-13.5324
▁enjoying	-13.5324
▁belly	-13.5329
▁dated	-13.5331
eek	-13.5331
▁consequences	-13.5333
▁Jess	-13.5336
action	-13.5338
▁fella	-13.534
▁Championships	-13.5343
▁cheerful	-13.5353
liga	-13.5356
▁Pala	-13.5359
ected	-13.5364
making	-13.5364
▁vow	-13.5367
Bu	-13.5372
▁clients	-13.5374
▁Services	-13.5376
▁Demi	-13.538
▁Belgian	-13.5386
▁DVD	-13.5386
▁Hockey	-13.5386
▁NHL	-13.5386
▁ambulance	-13.5386
▁concentration	-13.5386
▁disgrace	-13.5386
▁sleeve	-13.5386
▁terminal	-13.5386
▁Gilbert	-13.5386
▁Hero	-13.5386
▁rattle	-13.5386
▁passport	-13.5386
▁slavery	-13.5386
▁restored	-13.5388
▁feast	-13.5388
▁partnership	-13.5389
rock	-13.5392
▁IF	-13.5393
▁weary	-13.5393
▁lily	-13.5394
▁Ul	-13.5394
▁spark	-13.5395
▁trash	-13.5395
asi	-13.5396
▁Pick	-13.5398
▁commanded	-13.54
▁mob	-13.54
▁Mis	-13.5401
▁DI	-13.5402
GA	-13.5405
uru	-13.5408
▁2020)	-13.5409
▁Beat	-13.5413
▁babe	-13.5417
▁Neu	-13.542
ider	-13.5423
▁helpless	-13.5427
▁historian	-13.5432
▁compound	-13.5432
▁Thor	-13.5432
metric	-13.5442
ylo	-13.5447
▁lung	-13.5449
▁cuts	-13.545
▁Bang	-13.5452
gia	-13.5457
icle	-13.5458
▁viola	-13.546
MUSIC	-13.5461
▁Argentina	-13.5461
▁Atlanta	-13.5461
▁Convention	-13.5461
▁Dakota	-13.5461
▁Detroit	-13.5461
▁Mediterranean	-13.5461
▁Spirit	-13.5461
▁anniversary	-13.5461
▁athlete	-13.5461
▁behaviour	-13.5461
▁gloom	-13.5461
▁strategic	-13.5461
▁Ronald	-13.5461
▁turtle	-13.5461
▁reduction	-13.5462
▁evolved	-13.5462
▁Shah	-13.5463
▁mounted	-13.5463
▁verb	-13.5463
▁papa	-13.5464
▁Walker	-13.5465
▁Dennis	-13.5466
▁argued	-13.5467
▁Marine	-13.5468
▁2019.	-13.5472
▁Horse	-13.5473
organ	-13.5473
▁succession	-13.5474
▁Jose	-13.5475
▁Die	-13.5477
miss	-13.5482
▁reli	-13.5483
▁networks	-13.5493
▁Wu	-13.5493
▁10,000	-13.5494
▁Pole	-13.5495
▁Taka	-13.5512
MU	-13.5518
only	-13.552
▁Roberts	-13.5524
▁strings	-13.553
lice	-13.5531
▁yay	-13.5533
▁confident	-13.5538
▁Benjamin	-13.5538
▁Federation	-13.5538
▁Nixon	-13.5538
▁acknowledge	-13.5538
▁delicate	-13.5538
▁inspiration	-13.5538
▁pizza	-13.5538
▁sympathy	-13.5538
▁whilst	-13.5538
▁dialect	-13.5538
▁Square	-13.5538
▁immense	-13.5538
▁plug	-13.5538
▁Darwin	-13.5538
▁spider	-13.5538
▁Stanley	-13.5538
▁vague	-13.5538
▁Jenny	-13.5538
▁contrary	-13.5538
▁choir	-13.5538
▁Lucas	-13.5538
▁reception	-13.5538
▁Country	-13.5538
▁nursery	-13.5539
▁penny	-13.5539
▁knot	-13.5539
▁punk	-13.5542
▁Medical	-13.5543
▁transformation	-13.5543
▁Bir	-13.5547
▁artistic	-13.5553
IND	-13.5553
▁Springs	-13.5569
ebra	-13.5577
Did	-13.5578
▁dose	-13.5579
such	-13.5583
▁Send	-13.5585
lop	-13.559
▁dared	-13.5592
tered	-13.5593
glass	-13.5593
▁2003.	-13.5595
city	-13.5601
▁recommend	-13.5603
▁souls	-13.5605
▁Sav	-13.5608
▁confirm	-13.561
▁mag	-13.5611
▁Set	-13.5611
▁triumph	-13.5614
▁Tayebi	-13.5615
▁bargain	-13.5615
▁embrace	-13.5615
▁terribly	-13.5615
▁sediment	-13.5615
▁composition	-13.5615
▁Eagle	-13.5615
▁republic	-13.5615
▁WANT	-13.5615
▁sank	-13.5615
▁Vivie	-13.5615
▁Jake	-13.5617
▁Boys	-13.5619
▁climbed	-13.562
▁reaches	-13.562
▁packed	-13.5622
▁Ain	-13.5626
▁hyper	-13.5628
Star	-13.5629
▁formerly	-13.564
Ne	-13.5643
▁profession	-13.5651
▁Roy	-13.566
▁Vale	-13.5669
easing	-13.5675
▁Meet	-13.5677
▁Trade	-13.5679
▁lf	-13.5682
uiet	-13.5685
▁Kay	-13.5689
▁Swedish	-13.5692
▁amateur	-13.5692
▁contemporary	-13.5692
▁dynamic	-13.5692
▁impulse	-13.5692
▁satellite	-13.5692
▁thrust	-13.5692
▁uncomfortable	-13.5692
▁nightmare	-13.5692
▁outfit	-13.5692
▁Denmark	-13.5692
▁Phillip	-13.5692
▁diaper	-13.5692
▁naima	-13.5692
▁Davy	-13.5692
▁embarrassing	-13.5693
▁establishment	-13.5696
▁Pas	-13.5698
▁DR	-13.5698
▁Kor	-13.5701
force	-13.5701
▁Kind	-13.5701
▁Fucking	-13.5704
▁pressed	-13.5704
▁1928	-13.5704
hour	-13.5707
dad	-13.5718
▁Giant	-13.572
▁authors	-13.5721
▁Hills	-13.5722
▁2003,	-13.5722
▁dealt	-13.5726
▁slap	-13.5728
▁haste	-13.5731
▁2016)	-13.5731
LS	-13.5733
▁cult	-13.5737
▁tribe	-13.5742
▁2002.	-13.5744
▁ser	-13.5745
▁hack	-13.5754
▁links	-13.576
person	-13.5762
▁correspond	-13.5767
▁nickname	-13.5767
▁betray	-13.5768
▁Grammy	-13.577
▁Lloyd	-13.577
▁Macedonia	-13.577
▁Swiss	-13.577
▁happily	-13.577
▁identical	-13.577
▁Front	-13.577
▁descent	-13.577
▁wrapped	-13.577
▁Anybody	-13.577
▁renew	-13.5771
▁foul	-13.5771
▁corporation	-13.5771
▁armies	-13.5771
▁derived	-13.5771
▁Christine	-13.5772
▁colony	-13.5772
▁conviction	-13.5773
▁popularity	-13.5773
▁surgeon	-13.5773
▁assert	-13.5773
▁cheaper	-13.5774
▁daylight	-13.5774
▁oven	-13.5774
▁charming	-13.5774
▁converted	-13.5774
▁ranked	-13.5776
▁Republicans	-13.5776
▁dependent	-13.5778
▁recommendation	-13.5779
▁approached	-13.5779
▁walks	-13.5781
rial	-13.5786
▁Studios	-13.5786
▁Kil	-13.5791
▁employees	-13.5792
▁measurement	-13.5798
racking	-13.5798
▁Due	-13.5804
";	-13.5807
▁sections	-13.5807
▁Peru	-13.5813
▁prayers	-13.5814
▁Dodge	-13.5814
▁adventures	-13.5815
▁vocal	-13.582
▁Commissioner	-13.5822
maid	-13.5823
▁Devon	-13.5831
▁freeze	-13.5831
▁brains	-13.5832
▁communicate	-13.5833
▁Audi	-13.5836
▁Sco	-13.5841
bol	-13.5843
▁holidays	-13.5843
▁cared	-13.5846
▁retain	-13.5846
ounce	-13.5847
▁Affairs	-13.5849
▁CEO	-13.5849
▁Memorial	-13.5849
▁Usually	-13.5849
▁mathematics	-13.5849
▁separation	-13.5849
▁swept	-13.5849
Laughing	-13.5849
▁discharge	-13.5849
▁skirt	-13.5849
▁dignity	-13.5849
▁steep	-13.5849
▁Bengal	-13.5849
▁export	-13.5849
▁voting	-13.585
▁punished	-13.5852
▁measures	-13.5852
▁Model	-13.5852
▁Route	-13.5854
▁learnt	-13.5854
▁1919	-13.5856
▁sil	-13.5859
loo	-13.5859
▁gifts	-13.5861
▁cooked	-13.5861
▁Juliet	-13.5863
▁divisions	-13.5863
▁upside	-13.5863
▁Doug	-13.5865
▁fruits	-13.5868
▁resulting	-13.587
▁Sri	-13.5872
ledge	-13.5873
wide	-13.5874
▁sailors	-13.5875
▁bees	-13.5875
bank	-13.5877
MEN	-13.5878
DOOR	-13.588
▁cameras	-13.5882
cop	-13.5883
▁BL	-13.5885
▁bum	-13.5885
▁Youth	-13.5888
▁Lind	-13.5892
huck	-13.5897
▁fossil	-13.5899
▁component	-13.5899
▁consume	-13.5904
▁traditions	-13.5908
ij	-13.5915
▁spaces	-13.5916
▁Cou	-13.5916
▁extract	-13.5919
▁admire	-13.5925
erry	-13.5926
▁Census	-13.5928
▁Portugal	-13.5928
▁beloved	-13.5928
▁deputy	-13.5928
▁martial	-13.5928
▁pistol	-13.5928
▁william	-13.5928
▁Antonio	-13.5928
▁kitten	-13.5928
▁rainbow	-13.5928
▁Ferrier	-13.5929
▁joking	-13.5929
PD	-13.5929
▁OUT	-13.5929
unction	-13.5929
▁tourist	-13.5929
tone	-13.5929
▁marine	-13.593
▁phones	-13.5932
▁warned	-13.5937
asa	-13.5937
▁desired	-13.5939
▁Yama	-13.5939
▁gig	-13.594
AU	-13.594
jam	-13.5942
▁protecting	-13.5946
▁insects	-13.5946
coat	-13.5946
URE	-13.5951
▁vet	-13.5953
hong	-13.5955
lag	-13.596
racked	-13.5962
▁Falls	-13.5964
▁cheeks	-13.5964
▁erect	-13.5969
▁decade	-13.598
▁nerve	-13.598
▁whisper	-13.5982
▁Belle	-13.5984
▁strangers	-13.5985
John	-13.5986
▁canoe	-13.5986
▁Hear	-13.5988
▁Mus	-13.599
▁1934	-13.5993
▁Lear	-13.5995
▁10.	-13.5996
▁flame	-13.5998
look	-13.5998
▁jet	-13.6
▁Cause	-13.6005
▁torture	-13.6006
igi	-13.6007
▁buttons	-13.6007
version	-13.6008
▁Hugh	-13.6008
▁Conservative	-13.6008
▁Craig	-13.6008
▁Thirty	-13.6008
▁Together	-13.6008
▁sunshine	-13.6008
▁vampire	-13.6008
▁brutal	-13.6008
▁protocol	-13.6008
▁Course	-13.6009
▁backpack	-13.6009
▁highlight	-13.601
court	-13.601
▁reader	-13.6011
▁Allied	-13.6011
▁scheduled	-13.6012
▁encouraged	-13.6013
▁defendant	-13.6014
▁Allies	-13.6017
▁Week	-13.6018
lish	-13.6028
▁Lower	-13.6032
▁2002,	-13.6033
▁Sum	-13.6035
IP	-13.6039
▁troubled	-13.604
▁outta	-13.604
uti	-13.6048
HO	-13.6049
Chi	-13.6054
▁rider	-13.6055
▁feather	-13.606
love	-13.6061
▁creates	-13.6062
polis	-13.6063
▁hare	-13.6068
liness	-13.6072
▁Ny	-13.6077
▁ignore	-13.6086
▁Rub	-13.6087
▁strict	-13.6087
▁lick	-13.6088
▁Jerusalem	-13.6089
▁Melbourne	-13.6089
▁Mississippi	-13.6089
▁explode	-13.6089
▁salary	-13.6089
▁Mongol	-13.6089
▁calculation	-13.6089
▁Barbara	-13.6089
▁radical	-13.6089
▁earnest	-13.6089
▁trauma	-13.6089
▁nigga	-13.6089
▁denied	-13.6089
▁flee	-13.6089
▁fiber	-13.6089
▁spinning	-13.609
▁layout	-13.609
▁deaf	-13.609
▁Upper	-13.609
PRIO	-13.6091
▁concluded	-13.6091
aci	-13.6092
mil	-13.6092
▁Certainly	-13.6093
▁purchased	-13.6093
▁Lisbon	-13.6099
▁Surely	-13.61
▁Rem	-13.61
▁shy	-13.6102
▁vegetables	-13.6107
DY	-13.6109
▁catching	-13.6113
OK	-13.6117
▁deadly	-13.6124
gene	-13.6126
▁marginal	-13.6129
vious	-13.6131
utt	-13.6132
▁prim	-13.6134
▁Dark	-13.6141
▁muscle	-13.6141
▁Chase	-13.6146
script	-13.6147
world	-13.6147
borough	-13.6148
▁loads	-13.6153
▁complain	-13.6155
▁fade	-13.6159
inter	-13.6161
▁snap	-13.6164
▁HA	-13.6167
ego	-13.6167
▁Child	-13.617
▁Administration	-13.617
▁Library	-13.617
▁Norwegian	-13.617
▁Oriental	-13.617
▁attribute	-13.617
▁diameter	-13.617
▁magnificent	-13.617
▁motorcycle	-13.617
▁neutral	-13.617
▁Technology	-13.617
▁advertising	-13.617
▁ninth	-13.617
▁Oscar	-13.617
▁serial	-13.617
▁WHO	-13.6171
▁rig	-13.6171
▁tennis	-13.6171
▁Graham	-13.6171
▁altar	-13.6171
▁prick	-13.6171
▁coverage	-13.6171
▁THERE	-13.6172
▁PC	-13.6174
▁quid	-13.6174
▁Gaga	-13.6175
▁smallest	-13.6176
BC	-13.6178
elo	-13.6181
▁nobles	-13.6182
Take	-13.6183
link	-13.6185
▁reporter	-13.6185
agh	-13.6187
did	-13.6188
▁pills	-13.6192
astic	-13.6196
▁1932	-13.6197
▁graphic	-13.6202
▁procedures	-13.6205
▁alike	-13.6206
▁nicely	-13.6209
▁curl	-13.6211
▁pinch	-13.6212
▁Hands	-13.6212
▁logic	-13.6214
▁bury	-13.6216
▁haunt	-13.6216
▁sigh	-13.6224
handed	-13.6239
used	-13.6239
▁detect	-13.6242
▁ward	-13.6245
▁Add	-13.6247
▁Rei	-13.6249
▁orphan	-13.6252
▁Capital	-13.6252
▁Video	-13.6252
▁frequency	-13.6252
▁invitation	-13.6252
▁naughty	-13.6252
▁striking	-13.6252
▁Austin	-13.6252
▁corpse	-13.6252
▁gossip	-13.6252
▁landlord	-13.6252
▁pathetic	-13.6252
▁criticized	-13.6252
▁Faith	-13.6252
▁tomato	-13.6253
▁Borough	-13.6253
▁alex	-13.6253
▁Mira	-13.6254
▁homework	-13.6254
▁firing	-13.6254
▁Cheers	-13.6255
▁earning	-13.6255
▁recognised	-13.6255
▁gathering	-13.6257
▁treaty	-13.6257
▁demands	-13.6258
▁handling	-13.6259
▁businessman	-13.6259
▁Monk	-13.626
Che	-13.626
▁suspected	-13.626
▁Slav	-13.626
▁Chile	-13.6261
▁stab	-13.6263
▁gran	-13.627
▁Drop	-13.628
EM	-13.6283
plain	-13.6291
▁doin	-13.6291
▁bud	-13.6293
▁Reed	-13.6297
▁contribution	-13.6306
▁ranks	-13.6307
▁heap	-13.6311
Okay	-13.6312
sexual	-13.6312
▁Dur	-13.6316
level	-13.6316
▁poster	-13.6319
▁Strange	-13.6321
ige	-13.6329
▁declare	-13.6332
▁unfortunate	-13.6333
▁Relax	-13.6335
▁absurd	-13.6335
▁believing	-13.6335
▁demonstration	-13.6335
▁doctrine	-13.6335
▁initiative	-13.6335
▁mysteries	-13.6335
▁unexpected	-13.6335
▁circus	-13.6335
▁stink	-13.6335
▁mummy	-13.6335
▁lemon	-13.6335
▁riot	-13.6335
▁impose	-13.6335
▁urgent	-13.6336
▁shone	-13.6336
▁Merry	-13.6337
▁Medal	-13.6337
▁Ice	-13.6337
▁pose	-13.6339
▁Pain	-13.6339
▁sung	-13.6341
▁dee	-13.6342
kaboo	-13.6348
mis	-13.6349
▁makeup	-13.6353
grade	-13.6355
▁affiliate	-13.6362
▁increases	-13.6364
itter	-13.6365
FC	-13.6366
Fra	-13.6374
▁flights	-13.6374
SU	-13.6377
angle	-13.6378
See	-13.6378
▁Nazis	-13.638
▁rape	-13.6383
▁nail	-13.6384
▁Mass	-13.6385
gli	-13.6388
▁hath	-13.639
▁Stu	-13.639
▁ordering	-13.6391
▁experiments	-13.6393
▁intent	-13.6394
plex	-13.6395
first	-13.6395
round	-13.6397
PC	-13.6398
▁collapse	-13.6412
▁Joo	-13.6412
yi	-13.6412
▁pointing	-13.6413
▁preserve	-13.6415
▁attach	-13.6417
▁southeast	-13.6417
▁Secret	-13.6418
▁Manhattan	-13.6418
▁Samuel	-13.6418
▁agriculture	-13.6418
▁defensive	-13.6418
▁destiny	-13.6418
▁maintenance	-13.6418
▁polyhedron	-13.6418
▁satisfy	-13.6418
▁convey	-13.6418
▁Cambridge	-13.6418
▁scandal	-13.6418
▁Mitchell	-13.6418
▁mixture	-13.6418
▁array	-13.6418
▁patron	-13.6418
▁furious	-13.6418
▁ferry	-13.6418
▁Design	-13.6419
▁swell	-13.642
▁Puert	-13.642
▁jim	-13.642
▁threatening	-13.642
▁Hardy	-13.6421
▁preserved	-13.6421
brook	-13.6422
LC	-13.6422
▁thumb	-13.6424
▁parable	-13.6426
▁rumor	-13.6431
▁Break	-13.6432
▁Disc	-13.6433
▁traveling	-13.6435
▁Democrats	-13.6435
▁Blake	-13.6436
▁Aah	-13.6439
▁fucked	-13.6441
▁stared	-13.6443
▁cleaned	-13.6443
zel	-13.6446
▁companions	-13.6449
▁produces	-13.645
▁tales	-13.6451
▁Farm	-13.6455
▁mast	-13.6455
▁Plant	-13.6458
▁steer	-13.6463
ographic	-13.6463
TOR	-13.6465
▁Burg	-13.6466
▁Player	-13.6466
bid	-13.6469
▁oops	-13.647
▁drops	-13.6471
▁Champion	-13.6473
wall	-13.6474
reason	-13.648
leg	-13.6481
MC	-13.6488
▁lectures	-13.6489
▁Nik	-13.649
lastic	-13.6493
▁Steel	-13.6494
▁arguments	-13.6494
▁oak	-13.6495
▁Bet	-13.6495
oured	-13.6496
tify	-13.6496
▁edit	-13.65
ompa	-13.6501
▁monarch	-13.6501
▁potato	-13.6501
▁Clinton	-13.6502
▁Ethiopia	-13.6502
▁Harvey	-13.6502
▁alliance	-13.6502
▁filter	-13.6502
▁Klein	-13.6502
▁Bradford	-13.6502
▁beggar	-13.6502
▁Natural	-13.6502
▁Joyce	-13.6502
▁Caroline	-13.6503
▁assets	-13.6503
▁slice	-13.6503
▁convicted	-13.6503
▁Joan	-13.6504
▁basement	-13.6505
hang	-13.6506
▁Jeffrey	-13.6506
▁Sharon	-13.6508
PO	-13.6508
▁Sex	-13.6509
▁regularly	-13.6511
▁Nam	-13.6511
▁2021)	-13.6514
▁achievement	-13.6518
▁males	-13.6521
▁Deal	-13.6527
▁spit	-13.6529
bro	-13.6533
quet	-13.6533
▁Train	-13.6536
eight	-13.6538
▁1935	-13.6538
▁Jam	-13.654
▁compil	-13.6542
▁margin	-13.6545
▁columns	-13.6555
▁females	-13.6556
▁Bus	-13.656
LD	-13.6564
▁practices	-13.6565
▁Sie	-13.6565
▁chemicals	-13.6566
Total	-13.6566
▁Grandpa	-13.6577
▁transform	-13.6578
lang	-13.6581
▁Trent	-13.6587
▁Junior	-13.6587
▁Sebastian	-13.6587
▁Yankee	-13.6587
▁convenient	-13.6587
▁exploit	-13.6587
▁gorgeous	-13.6587
▁legislation	-13.6587
▁eternal	-13.6587
▁valve	-13.6587
▁shiver	-13.6587
involving	-13.6587
▁Marcus	-13.6587
LSB	-13.6587
▁classified	-13.6588
▁Labor	-13.6588
▁colonel	-13.6588
▁Nature	-13.6588
▁thoroughly	-13.6588
▁localities	-13.6588
▁arise	-13.6589
▁sto	-13.6591
▁realised	-13.6592
▁owl	-13.6592
▁Flor	-13.6594
▁bells	-13.6596
▁Tel	-13.6596
▁lean	-13.6597
▁challenged	-13.6597
▁signals	-13.66
▁scores	-13.6601
▁terrorist	-13.6602
▁Pull	-13.6605
▁Owen	-13.6607
IDE	-13.6607
▁Mak	-13.6609
▁nomi	-13.6611
six	-13.6617
▁adam	-13.662
zh	-13.6621
▁Rule	-13.6622
▁Lamb	-13.6627
▁stat	-13.6629
lade	-13.6634
uf	-13.6638
bow	-13.6639
lov	-13.6643
▁prey	-13.6645
through	-13.665
▁Gol	-13.6664
▁stra	-13.6666
▁expand	-13.6666
▁reactions	-13.6672
▁bullets	-13.6672
▁robber	-13.6672
▁ABOUT	-13.6672
▁Collins	-13.6672
▁Delaware	-13.6672
▁Glass	-13.6672
▁Liverpool	-13.6672
▁Spencer	-13.6672
▁physician	-13.6672
▁skull	-13.6672
▁squeeze	-13.6672
▁COME	-13.6673
▁Adrian	-13.6673
▁Milton	-13.6673
▁Teddy	-13.6673
▁Delta	-13.6673
▁chapel	-13.6673
▁bolt	-13.6674
▁Coach	-13.6674
▁Around	-13.6675
dodecahedron	-13.6675
▁shine	-13.6676
▁paused	-13.6676
hey	-13.6676
▁purely	-13.6677
▁Journal	-13.6677
▁Friends	-13.6678
▁clerk	-13.6679
▁Bea	-13.668
▁Sca	-13.6681
▁coup	-13.6685
▁teenager	-13.6686
▁yell	-13.6687
▁lime	-13.6688
▁Lion	-13.6689
▁10-	-13.669
▁Branch	-13.6692
▁posted	-13.6697
ecu	-13.6699
▁wages	-13.67
▁sch	-13.6703
▁Member	-13.6703
whi	-13.671
lapping	-13.6712
lab	-13.6716
lane	-13.6717
ady	-13.6719
dha	-13.672
▁vent	-13.6722
IA	-13.6724
▁Members	-13.6728
▁Record	-13.6734
▁rates	-13.6742
Have	-13.6744
ilia	-13.6745
▁liver	-13.6746
▁Lav	-13.6751
bug	-13.6755
▁dive	-13.6755
▁recognise	-13.6756
▁drown	-13.6756
▁Alaska	-13.6759
▁locomotive	-13.6759
▁prohibit	-13.6759
applause	-13.6759
▁Cemetery	-13.6759
▁Harvard	-13.6759
▁Microsoft	-13.6759
▁Sheriff	-13.6759
▁certificate	-13.6759
▁depressed	-13.6759
▁handkerchief	-13.6759
▁terrified	-13.6759
▁virgin	-13.6759
▁elbow	-13.6759
▁Madrid	-13.6759
▁residence	-13.6759
▁respectively	-13.676
▁Leader	-13.676
▁ABC	-13.6761
▁remarked	-13.6761
▁modest	-13.6762
▁twisted	-13.6763
▁genre	-13.6764
▁interaction	-13.6766
▁paw	-13.6767
▁switched	-13.6767
▁offence	-13.6768
▁bothered	-13.6768
▁tenth	-13.677
▁axis	-13.6771
gation	-13.6771
▁scarce	-13.6777
▁Lily	-13.6778
▁Noah	-13.6779
▁1929	-13.6782
▁danced	-13.6782
sai	-13.6786
▁Dec	-13.6801
Art	-13.6805
▁contents	-13.6806
▁cliff	-13.6807
By	-13.6811
▁regards	-13.6813
▁Cer	-13.6814
bru	-13.6817
Bi	-13.6821
▁spots	-13.6823
CAR	-13.6824
▁AC	-13.6828
▁Ohh	-13.6834
▁Poll	-13.6834
▁Tall	-13.6835
story	-13.6835
▁explains	-13.6837
▁politicians	-13.6839
ania	-13.684
▁Morris	-13.6841
▁depict	-13.6843
▁observe	-13.6846
▁mathematical	-13.6846
▁Animal	-13.6846
▁Caribbean	-13.6846
▁Dynasty	-13.6846
▁Student	-13.6846
▁Venezuela	-13.6846
▁controversy	-13.6846
▁exceed	-13.6846
▁licence	-13.6846
▁pulse	-13.6846
▁resort	-13.6846
▁patriot	-13.6846
▁burial	-13.6846
▁corporate	-13.6846
▁socks	-13.6846
▁vanished	-13.6846
▁Croce	-13.6846
▁NBA	-13.6846
▁Guess	-13.6846
▁CBS	-13.6846
▁Marcel	-13.6847
▁fictional	-13.6847
Te	-13.6849
incorporated	-13.6851
▁insisted	-13.6851
▁buses	-13.6851
▁Bud	-13.6851
▁cargo	-13.6852
▁Angela	-13.6853
▁stem	-13.6853
▁Boyd	-13.6858
▁hostage	-13.6858
▁tricks	-13.6859
▁hanged	-13.6862
▁visiting	-13.6864
▁requirements	-13.6865
▁OH	-13.6865
▁warming	-13.6866
▁delightful	-13.6866
imper	-13.6867
▁Lie	-13.6869
▁Pit	-13.6873
anga	-13.6874
wed	-13.6874
aleh	-13.6875
▁hind	-13.6881
rez	-13.6897
type	-13.6904
OLD	-13.6907
▁customer	-13.6908
valu	-13.6908
▁sticks	-13.6911
related	-13.6911
unda	-13.6911
▁decor	-13.6924
▁defect	-13.6926
cream	-13.693
▁Afghanistan	-13.6933
▁Athletic	-13.6933
▁Executive	-13.6933
▁Flowers	-13.6933
▁Pittsburgh	-13.6933
▁aggressive	-13.6933
▁artillery	-13.6933
▁comparison	-13.6933
▁diagram	-13.6933
▁disguise	-13.6933
▁emphasis	-13.6933
▁globe	-13.6933
▁hilda	-13.6933
▁invisible	-13.6933
▁mosque	-13.6933
▁profile	-13.6933
▁wolves	-13.6933
▁decrease	-13.6933
▁agencies	-13.6933
▁drummer	-13.6934
▁agenda	-13.6934
▁scout	-13.6934
sthetic	-13.6934
▁sins	-13.6935
▁adapted	-13.6936
▁accomplished	-13.6936
▁assured	-13.6937
▁solvent	-13.6937
etta	-13.6938
▁climbing	-13.6939
▁kindness	-13.6942
iting	-13.6943
▁alcoholic	-13.6944
▁kissing	-13.6949
▁Nurse	-13.6949
▁counted	-13.6952
▁Hog	-13.6956
▁1890	-13.6956
▁bottles	-13.6956
▁decides	-13.6965
▁muscles	-13.6965
▁lungs	-13.6967
▁confession	-13.697
eni	-13.6971
▁fewer	-13.6974
▁filmed	-13.6975
▁bonds	-13.6976
▁trend	-13.6981
thic	-13.6982
▁triple	-13.6985
▁Luis	-13.6987
imo	-13.6989
▁Fund	-13.6991
▁Scar	-13.6994
ety	-13.6997
Every	-13.6999
arra	-13.7003
SD	-13.7014
▁Yar	-13.7018
▁conquer	-13.7019
▁visits	-13.702
▁Alzheimer	-13.7022
▁Obviously	-13.7022
▁Wrestling	-13.7022
▁categories	-13.7022
▁democracy	-13.7022
▁harvest	-13.7022
▁nitrogen	-13.7022
▁survivor	-13.7022
▁Murphy	-13.7022
▁departure	-13.7022
▁Edith	-13.7022
▁biological	-13.7022
▁stitch	-13.7022
▁mankind	-13.7023
▁chasing	-13.7023
▁airline	-13.7024
▁announcement	-13.7024
▁lowest	-13.7024
▁Production	-13.7024
▁Colin	-13.7025
liest	-13.7025
▁satisfaction	-13.7025
zzi	-13.7025
▁Joy	-13.7026
▁interrupted	-13.7026
▁Gee	-13.7027
▁reflection	-13.703
owing	-13.703
▁Santo	-13.703
▁Oak	-13.7031
▁contestant	-13.7034
▁rational	-13.7036
fold	-13.7038
▁Need	-13.7044
▁OR	-13.7047
uba	-13.7051
▁sting	-13.706
▁Code	-13.7069
▁Catholics	-13.7072
ologists	-13.7074
Au	-13.7078
▁strap	-13.7078
▁Chart	-13.7081
may	-13.7082
▁Garden	-13.7082
dling	-13.7085
ii	-13.7086
hwa	-13.7089
▁Clara	-13.71
Trinity	-13.7104
▁retire	-13.7108
▁organize	-13.7108
▁bicycle	-13.7111
▁narrative	-13.7111
▁offensive	-13.7111
▁substitute	-13.7111
▁villain	-13.7111
▁GOOD	-13.7111
▁Itanium	-13.7111
▁Magazine	-13.7111
▁leather	-13.7111
▁Oregon	-13.7111
▁Storm	-13.7111
▁brigade	-13.7111
▁Article	-13.7111
▁bronze	-13.7111
▁mythology	-13.7111
▁operator	-13.7111
▁saddle	-13.7111
▁Local	-13.7111
▁banned	-13.7112
▁dried	-13.7112
▁priority	-13.7112
▁Saudi	-13.7113
▁invaded	-13.7113
▁Deep	-13.7113
▁mainland	-13.7114
▁outcome	-13.7114
▁Market	-13.7118
▁lightning	-13.7121
ATE	-13.7124
▁careless	-13.7125
▁Mess	-13.7126
▁Til	-13.7132
▁Perfect	-13.7132
▁poke	-13.7147
▁publisher	-13.715
▁Ages	-13.7154
▁Bart	-13.7156
▁piss	-13.7159
gha	-13.7159
Ke	-13.7161
▁smells	-13.7163
▁Emil	-13.7168
▁involve	-13.7169
▁snakes	-13.7172
▁pine	-13.7177
pod	-13.7179
▁amid	-13.718
▁flatter	-13.7182
TRA	-13.7185
▁Lag	-13.7191
vu	-13.7196
▁index	-13.7198
atherine	-13.7201
▁Enjoy	-13.7201
▁consumption	-13.7201
▁dwarf	-13.7201
▁examination	-13.7201
▁harbour	-13.7201
▁petition	-13.7201
▁vulnerable	-13.7201
▁ruling	-13.7201
▁Believe	-13.7201
▁pursuit	-13.7201
▁revolt	-13.7201
▁preferred	-13.7202
▁referring	-13.7202
▁Ernest	-13.7202
▁Twin	-13.7202
▁counties	-13.7202
▁crept	-13.7204
▁condenser	-13.7205
▁Glad	-13.7209
SL	-13.721
▁appearing	-13.7215
▁Pictures	-13.7216
▁gloves	-13.7216
▁auditor	-13.7224
pop	-13.7225
▁Ward	-13.7225
_)	-13.7225
▁shorter	-13.7226
▁Allan	-13.7226
grow	-13.723
▁Inside	-13.723
color	-13.7231
▁worrying	-13.7238
lett	-13.7239
▁answering	-13.7241
ACK	-13.7247
Ta	-13.7249
▁resting	-13.7259
osi	-13.7263
▁sailor	-13.7265
▁Bach	-13.7266
screen	-13.7269
appa	-13.7272
▁Sah	-13.7276
ivi	-13.7279
cloth	-13.7282
▁swift	-13.729
taking	-13.7291
▁Bit	-13.7292
▁Amsterdam	-13.7292
▁Either	-13.7292
▁Malcolm	-13.7292
▁RIGHT	-13.7292
▁Sofla	-13.7292
▁Utah	-13.7292
▁Vancouver	-13.7292
▁accompany	-13.7292
▁ambition	-13.7292
▁assumption	-13.7292
▁coalition	-13.7292
▁explosive	-13.7292
▁intimate	-13.7292
▁kettle	-13.7292
▁relevant	-13.7292
▁rubbish	-13.7292
▁survival	-13.7292
▁Jessica	-13.7292
▁organised	-13.7292
▁sustainable	-13.7292
▁Olya	-13.7292
▁digging	-13.7292
▁Harold	-13.7292
▁Brandon	-13.7293
▁Riley	-13.7293
▁diary	-13.7293
▁Anyone	-13.7293
hydra	-13.7294
▁wandering	-13.7294
▁Harper	-13.7294
▁controlling	-13.7295
▁bucket	-13.7296
▁invention	-13.7296
▁spine	-13.7297
▁marching	-13.7297
▁physically	-13.7298
▁wrestler	-13.7299
▁swap	-13.7299
▁requested	-13.7303
product	-13.7303
▁jokes	-13.731
▁frighten	-13.7311
▁curtains	-13.7311
illi	-13.7311
▁Plain	-13.7312
▁contribute	-13.7318
▁junk	-13.7318
wig	-13.732
▁characteristics	-13.7321
▁groan	-13.7327
uria	-13.7328
▁Hyde	-13.7329
ambi	-13.7332
▁bob	-13.7332
kle	-13.7334
▁filming	-13.7336
▁compact	-13.7337
disc	-13.7339
yeh	-13.7342
arrot	-13.7344
▁lovers	-13.7353
▁Classic	-13.736
▁Note	-13.7362
asted	-13.7369
etto	-13.737
▁1999,	-13.7372
▁quo	-13.7379
▁Justin	-13.7379
▁collaborat	-13.7381
▁infant	-13.7384
▁Birmingham	-13.7384
▁Czech	-13.7384
▁Diamond	-13.7384
▁Management	-13.7384
▁Suppose	-13.7384
▁acquaintance	-13.7384
▁alleged	-13.7384
▁cemetery	-13.7384
▁circum	-13.7384
▁elaborate	-13.7384
▁indigenous	-13.7384
▁sculpture	-13.7384
▁struggling	-13.7384
▁substantial	-13.7384
▁sworn	-13.7384
▁vertices	-13.7384
▁Lionel	-13.7384
▁polish	-13.7384
▁Admiralty	-13.7384
▁passionate	-13.7384
leigh	-13.7385
ood	-13.7385
▁designated	-13.7385
▁jar	-13.7385
▁forgetting	-13.7386
▁Abby	-13.7386
▁mice	-13.7386
▁download	-13.7386
▁donkey	-13.7388
▁loudly	-13.739
▁responded	-13.739
▁collecting	-13.7391
▁sticky	-13.7392
cott	-13.7394
▁Action	-13.7395
▁mac	-13.7396
▁Fir	-13.7396
pac	-13.74
▁Merc	-13.7408
▁outline	-13.741
▁blend	-13.7417
iko	-13.7427
▁wage	-13.744
▁characteristic	-13.7448
▁Kai	-13.7448
▁restaurants	-13.7453
Saint	-13.7454
cross	-13.7456
▁deer	-13.7469
▁foe	-13.7472
▁announce	-13.7472
LM	-13.7473
▁extinct	-13.7473
▁reject	-13.7474
▁compute	-13.7476
▁southwest	-13.7476
▁Different	-13.7476
▁Michelle	-13.7476
▁Private	-13.7476
▁athletic	-13.7476
▁democratic	-13.7476
▁mushroom	-13.7476
▁patience	-13.7476
▁penalty	-13.7476
▁sovereign	-13.7476
▁SOME	-13.7477
▁queer	-13.7477
▁parameter	-13.7477
▁Baseball	-13.7477
▁Madison	-13.7477
▁vertical	-13.7477
▁recycling	-13.7477
▁lazy	-13.7477
▁Ottoman	-13.7477
▁polar	-13.7477
▁diagnosed	-13.7478
▁Brazilian	-13.7478
▁exile	-13.7478
▁managing	-13.7479
▁Reserve	-13.748
▁Yang	-13.7481
truncate	-13.7482
▁registered	-13.7482
▁adaptation	-13.7483
game	-13.7485
▁sexy	-13.7486
▁Wor	-13.7487
beat	-13.7493
media	-13.7493
▁pier	-13.7494
▁handled	-13.7496
▁dressing	-13.7496
agi	-13.7497
▁PRO	-13.75
lene	-13.75
▁sober	-13.7501
▁attacking	-13.7506
tech	-13.7512
▁Carr	-13.7513
▁operates	-13.7516
▁utter	-13.752
▁gee	-13.7522
▁Actor	-13.7522
lessness	-13.7531
▁Kho	-13.7536
glo	-13.7537
▁objection	-13.7537
▁Came	-13.7546
card	-13.7549
stock	-13.756
▁lighter	-13.7562
▁producers	-13.7563
▁Abdul	-13.7563
gard	-13.7564
▁greet	-13.7567
▁lid	-13.7567
SIGHS	-13.757
▁Eventually	-13.757
▁Hampshire	-13.757
▁Jamaica	-13.757
▁compromise	-13.757
▁inflation	-13.757
▁influential	-13.757
▁puppy	-13.757
▁scrub	-13.757
▁terrific	-13.757
▁puppet	-13.757
▁Sleep	-13.757
▁bloom	-13.757
▁Mumbai	-13.757
▁tendency	-13.757
▁Felix	-13.757
▁moderate	-13.757
▁rugby	-13.757
▁summit	-13.757
▁bulk	-13.757
▁frankly	-13.7571
▁Burke	-13.7571
rough	-13.7571
▁Wright	-13.7571
▁Diana	-13.7571
core	-13.7571
▁overcome	-13.7572
▁pissed	-13.7573
▁dining	-13.7573
▁attain	-13.7573
▁recommended	-13.7574
▁losses	-13.7574
gang	-13.7576
▁sealed	-13.7578
▁faction	-13.7578
▁coral	-13.758
▁discussing	-13.758
▁secretly	-13.7582
▁moan	-13.7583
▁maps	-13.7584
▁manners	-13.7586
▁planted	-13.7591
opping	-13.7596
▁dreamed	-13.7597
▁HER	-13.7604
▁oc	-13.7607
▁Word	-13.761
▁3:	-13.7622
▁peasants	-13.7623
▁liter	-13.763
▁photographer	-13.763
▁engineers	-13.7637
girl	-13.7641
white	-13.7642
▁Change	-13.7644
NK	-13.7646
▁Ole	-13.7647
enter	-13.7648
▁Wing	-13.7653
MI	-13.7655
pra	-13.7657
▁Nah	-13.7657
▁Maha	-13.7657
stick	-13.7659
▁Sme	-13.7661
▁excess	-13.7664
▁Gentlemen	-13.7664
▁Hungary	-13.7664
▁Isaac	-13.7664
▁Peninsula	-13.7664
▁Support	-13.7664
▁featuring	-13.7664
▁fragment	-13.7664
▁guidance	-13.7664
▁illusion	-13.7664
▁overseas	-13.7664
▁pioneer	-13.7664
▁surviving	-13.7664
▁Railroad	-13.7664
▁Rhode	-13.7664
▁JUST	-13.7664
▁automatically	-13.7664
▁wrist	-13.7664
▁batteries	-13.7664
▁Arnold	-13.7664
▁Finland	-13.7664
▁loyalty	-13.7665
▁timber	-13.7665
▁Radha	-13.7665
▁flock	-13.7665
▁NOW	-13.7665
▁evidently	-13.7665
▁Bloody	-13.7666
▁realm	-13.7666
▁betrayed	-13.7668
▁marble	-13.7669
▁Easter	-13.7669
▁dresses	-13.767
Will	-13.7673
▁begging	-13.7674
▁cigar	-13.7676
▁Beau	-13.7678
ibi	-13.7684
▁molecules	-13.7685
▁searched	-13.7686
▁instrumental	-13.769
▁Fran	-13.7693
▁tweet	-13.7695
▁Ec	-13.7696
▁shallow	-13.7697
▁Might	-13.77
opho	-13.771
▁Linda	-13.7711
▁exceptions	-13.7712
▁Bagh	-13.7713
▁wig	-13.7717
Ex	-13.7718
Ga	-13.7718
▁boast	-13.7721
▁inward	-13.7727
▁ruins	-13.7729
present	-13.7736
▁Sharp	-13.7749
▁Program	-13.7752
hearted	-13.7753
▁combine	-13.7757
▁restore	-13.7758
Cambrian	-13.776
▁Basketball	-13.776
▁Bureau	-13.776
▁biscuit	-13.776
▁medieval	-13.776
▁negotiation	-13.776
▁preparing	-13.776
▁ornament	-13.776
▁squeak	-13.776
▁oppress	-13.776
▁laboratory	-13.776
▁boundaries	-13.776
▁hydro	-13.776
▁Authority	-13.776
▁flung	-13.776
▁Ellis	-13.776
▁headache	-13.776
▁HOW	-13.7761
eyes	-13.7761
▁brass	-13.7761
▁devoted	-13.7761
▁Write	-13.7761
▁idle	-13.7762
▁cruise	-13.7762
▁borrowed	-13.7764
▁Along	-13.7766
▁secured	-13.7767
III	-13.777
APP	-13.7771
▁heels	-13.7781
onne	-13.7782
▁manufacturer	-13.7782
▁Kara	-13.7782
▁icon	-13.7783
▁Berg	-13.7786
▁cooling	-13.7787
▁lodge	-13.7798
anti	-13.7799
OVER	-13.78
▁Martha	-13.78
▁diamonds	-13.7805
▁Kids	-13.7812
▁py	-13.7815
▁composers	-13.7821
▁Cham	-13.7822
▁Wha	-13.7823
oodle	-13.7823
▁winners	-13.7834
scape	-13.7838
▁audio	-13.7845
IST	-13.7847
rium	-13.7848
▁drift	-13.7853
▁symbols	-13.7853
▁precise	-13.7854
▁shadows	-13.7855
▁Fremantle	-13.7856
▁LAUGHTER	-13.7856
▁PlayStation	-13.7856
▁browser	-13.7856
▁exposure	-13.7856
▁intestine	-13.7856
▁privacy	-13.7856
▁qualities	-13.7856
▁Draft	-13.7856
▁cottage	-13.7856
▁physicist	-13.7856
▁scenario	-13.7856
▁pancake	-13.7856
▁Sparta	-13.7856
▁suppress	-13.7856
▁thomas	-13.7856
▁Venice	-13.7856
▁generator	-13.7856
▁gleam	-13.7856
▁profound	-13.7856
▁traitor	-13.7856
▁forehead	-13.7856
▁squire	-13.7856
▁Metropolitan	-13.7856
▁steak	-13.7856
▁Wheat	-13.7856
▁Trump	-13.7856
▁WELL	-13.7856
▁cheating	-13.7857
ctic	-13.7857
lace	-13.7858
▁UH	-13.7861
▁endure	-13.7861
▁finest	-13.7862
▁electrons	-13.7863
▁bowed	-13.7865
▁Kam	-13.7866
▁cinema	-13.7868
PP	-13.787
▁prose	-13.7871
▁spreading	-13.7871
raj	-13.7872
▁Away	-13.7874
▁enters	-13.7874
▁mist	-13.788
▁planes	-13.789
ask	-13.7891
final	-13.7894
dimensional	-13.7899
▁ballet	-13.7903
aper	-13.7905
duction	-13.7905
▁badge	-13.7912
Temp	-13.7914
▁processor	-13.7919
Pol	-13.7919
▁consequence	-13.7924
▁Mut	-13.7924
▁Sciences	-13.7925
▁axe	-13.7927
lift	-13.7932
shore	-13.7933
▁ghosts	-13.794
▁NE	-13.7942
▁Tal	-13.7943
▁Saw	-13.7947
▁Blood	-13.7951
Hu	-13.7952
▁Bulgaria	-13.7953
▁Electric	-13.7953
▁Forgive	-13.7953
▁Global	-13.7953
▁Plymouth	-13.7953
▁Rebecca	-13.7953
▁abundant	-13.7953
▁chimney	-13.7953
▁commerce	-13.7953
▁testimony	-13.7953
▁Gerald	-13.7953
clusion	-13.7953
▁Chandler	-13.7953
▁paragraph	-13.7953
▁Honour	-13.7953
▁casual	-13.7953
▁permitted	-13.7953
▁wilt	-13.7953
▁progressive	-13.7953
▁minority	-13.7954
▁embarrassed	-13.7954
▁domain	-13.7954
▁sitcom	-13.7954
▁robbery	-13.7954
▁LEO	-13.7955
▁relieved	-13.7955
▁guitarist	-13.7956
▁wealthy	-13.7956
good	-13.7956
▁subway	-13.7958
▁marched	-13.7958
▁illustration	-13.7958
▁commitment	-13.7959
▁patent	-13.7959
▁traditionally	-13.796
▁Diet	-13.7962
▁Esp	-13.7963
ido	-13.7964
▁kicking	-13.7964
order	-13.7966
stained	-13.7974
▁regulations	-13.7976
eyed	-13.7977
▁publicly	-13.7977
▁marketing	-13.798
▁drums	-13.7983
▁Cond	-13.7983
eti	-13.7986
▁footballer	-13.7987
▁contributions	-13.7987
▁tourists	-13.7989
▁CL	-13.8002
shalt	-13.8007
▁Abb	-13.8007
Bar	-13.8011
▁Tia	-13.8013
▁grabb	-13.8017
▁wasting	-13.8022
▁sheets	-13.8022
itia	-13.8027
▁hood	-13.803
▁complaint	-13.8033
amba	-13.8036
▁Ivan	-13.8042
AME	-13.8043
▁stella	-13.8044
arrow	-13.8046
▁accomplish	-13.8048
▁decline	-13.8048
▁exclusive	-13.8049
inaudible	-13.8051
▁Gabriel	-13.8051
▁Jeremy	-13.8051
▁geometry	-13.8051
▁manufacturing	-13.8051
▁peanut	-13.8051
▁scoring	-13.8051
▁swore	-13.8051
▁vitamin	-13.8051
▁density	-13.8051
▁tobacco	-13.8051
▁psychological	-13.8051
▁snatch	-13.8051
▁plague	-13.8051
▁pepper	-13.8051
▁Yugoslavia	-13.8051
prehensi	-13.8051
▁Voice	-13.8051
▁straw	-13.8051
▁blink	-13.8051
▁Review	-13.8051
LES	-13.8051
▁reef	-13.8053
▁slot	-13.8053
▁moist	-13.8053
▁calculated	-13.8053
▁Auto	-13.8054
▁Highway	-13.8054
▁drowned	-13.8054
▁chased	-13.8058
▁glanced	-13.8058
Dear	-13.8058
idi	-13.8059
▁Burma	-13.8061
▁flank	-13.8063
hine	-13.8067
▁imagined	-13.8069
▁signing	-13.8076
▁processing	-13.8081
▁successor	-13.8084
▁Mul	-13.8085
▁Side	-13.8089
uga	-13.8098
▁Turk	-13.8101
▁4-	-13.8114
course	-13.8117
lva	-13.8118
▁procession	-13.812
▁colleague	-13.8121
▁strengthen	-13.8125
bbie	-13.8126
Col	-13.8127
profit	-13.8127
Pi	-13.8128
▁Catch	-13.8133
Tell	-13.8133
dev	-13.8143
VO	-13.8144
dog	-13.8145
▁concentrate	-13.8147
▁ultimate	-13.8148
▁assassin	-13.8148
▁definite	-13.8148
Applause	-13.815
▁Alabama	-13.815
▁Cricket	-13.815
▁Gibbs	-13.815
▁Giralda	-13.815
▁Globe	-13.815
▁adjacent	-13.815
▁cathedral	-13.815
▁continuing	-13.815
▁fascinating	-13.815
▁absent	-13.815
▁criteria	-13.815
▁ribbon	-13.815
▁Promise	-13.815
▁resent	-13.815
▁occasional	-13.815
▁accessible	-13.815
▁spear	-13.815
▁Rhine	-13.8151
▁ditch	-13.8151
▁ascend	-13.8151
▁Vance	-13.8152
▁examined	-13.8153
▁sighed	-13.8153
▁severely	-13.8154
▁frost	-13.8156
▁Troll	-13.8156
▁pronounced	-13.8158
▁Joey	-13.816
titu	-13.8164
▁basin	-13.8164
▁grapes	-13.8165
▁bombing	-13.8167
▁treating	-13.8168
▁creator	-13.8176
▁sentiment	-13.8182
▁sup	-13.8183
▁Milan	-13.8183
▁Raw	-13.8184
▁Bow	-13.8185
▁Staff	-13.8197
▁arrangements	-13.8197
▁Works	-13.8203
▁rely	-13.8203
suit	-13.8209
▁habits	-13.8209
amine	-13.8209
ALE	-13.8215
▁Anton	-13.8224
▁instruction	-13.8226
school	-13.8227
space	-13.8228
▁Pot	-13.8229
▁EP	-13.8231
▁forming	-13.824
▁namely	-13.8242
cosidodecahedron	-13.8247
▁Sophie	-13.825
▁Hudson	-13.825
▁Medicine	-13.825
▁advisor	-13.825
▁arguing	-13.825
▁inaugura	-13.825
▁obliged	-13.825
▁rebellion	-13.825
▁soccer	-13.825
▁worries	-13.825
▁neighbourhood	-13.825
▁yummy	-13.825
▁Hannah	-13.825
▁framework	-13.825
▁fiddle	-13.825
▁Bali	-13.825
▁honourable	-13.8251
▁undertake	-13.8251
▁hither	-13.8252
▁dismissed	-13.8252
▁Mister	-13.8252
▁increasingly	-13.8253
▁offense	-13.8253
▁heroes	-13.8254
▁poured	-13.8255
▁Mater	-13.8255
▁Clay	-13.8256
▁delayed	-13.8256
▁defended	-13.8256
▁rescued	-13.8256
▁liar	-13.8257
inary	-13.8259
▁crashed	-13.8261
▁traveled	-13.8269
▁brake	-13.828
RD	-13.8281
▁employ	-13.8283
▁Imp	-13.8283
▁rave	-13.8285
ML	-13.8293
▁Seeing	-13.8294
▁Blu	-13.8301
▁SP	-13.8301
▁Choi	-13.8301
Door	-13.8303
ION	-13.8305
▁Seth	-13.8307
▁arrives	-13.8311
▁Care	-13.8312
▁max	-13.8318
▁meals	-13.8325
digit	-13.8327
writing	-13.8328
▁Mega	-13.8329
▁Mason	-13.833
station	-13.8333
▁Georg	-13.8334
election	-13.8335
rice	-13.8338
ete	-13.8345
▁fianc	-13.8347
Vladimir	-13.8351
▁Aboriginal	-13.8351
▁Bristol	-13.8351
▁Crawford	-13.8351
▁Derek	-13.8351
▁Language	-13.8351
▁Pearl	-13.8351
▁apprentice	-13.8351
▁christmas	-13.8351
▁currency	-13.8351
▁glorious	-13.8351
▁homosexual	-13.8351
▁institute	-13.8351
▁queue	-13.8351
▁mutual	-13.8351
▁pyramid	-13.8351
▁sphere	-13.8351
▁tattoo	-13.8351
▁Perkins	-13.8351
▁Thailand	-13.8351
▁Abbey	-13.8351
▁Keith	-13.8351
▁snack	-13.8351
▁Logan	-13.8351
▁Alexandria	-13.8351
▁stalk	-13.8351
▁Village	-13.8352
▁Whoever	-13.8353
▁Helena	-13.8353
▁reflected	-13.8357
▁sharply	-13.8358
▁folded	-13.8358
▁Sang	-13.8358
▁Herman	-13.8359
▁firmly	-13.8359
▁Examples	-13.8359
▁alternate	-13.8361
▁reactor	-13.8362
▁spur	-13.8363
▁toxic	-13.8366
▁dual	-13.8367
ICK	-13.8369
▁fuss	-13.837
cH	-13.8371
▁Sai	-13.8371
▁Tur	-13.8373
▁crayons	-13.8375
▁Nope	-13.8375
▁puff	-13.8375
▁colored	-13.8376
▁mall	-13.8387
▁flames	-13.8388
uestion	-13.8389
▁guessed	-13.8405
hab	-13.8407
cup	-13.8409
▁dread	-13.8411
▁lest	-13.8416
▁logical	-13.8419
▁troop	-13.8425
▁Sport	-13.8427
kind	-13.8427
Give	-13.8435
▁interpret	-13.8445
VEN	-13.8448
▁apparent	-13.8451
▁distribu	-13.8452
."--_	-13.8453
▁Gallery	-13.8453
▁Hebrew	-13.8453
▁Leslie	-13.8453
▁Nigeria	-13.8453
▁Spaniard	-13.8453
▁Yvonne	-13.8453
▁database	-13.8453
▁disciple	-13.8453
▁fantasy	-13.8453
▁legitimate	-13.8453
▁prejudice	-13.8453
▁significance	-13.8453
▁racial	-13.8453
▁tornado	-13.8453
▁eagle	-13.8453
▁zinc	-13.8453
▁interference	-13.8453
▁trousers	-13.8453
▁Maggie	-13.8453
▁magnetic	-13.8453
▁bribe	-13.8453
▁misery	-13.8453
▁parrot	-13.8453
▁bacon	-13.8453
▁Buzz	-13.8453
▁Rangers	-13.8453
▁subtle	-13.8453
▁Broad	-13.8454
▁stout	-13.8454
▁roller	-13.8455
▁Mara	-13.8455
▁scholarship	-13.8455
▁inspector	-13.8456
▁peril	-13.8456
▁witnesses	-13.8456
▁equi	-13.8456
bah	-13.8459
▁ranking	-13.8461
NES	-13.8463
▁butcher	-13.8464
▁CHA	-13.8465
kara	-13.8465
▁sticking	-13.8471
stle	-13.8472
▁explaining	-13.8473
▁Nina	-13.8477
▁sim	-13.848
▁reporting	-13.8481
▁atomic	-13.8489
▁sunk	-13.8491
anger	-13.8493
▁nails	-13.8495
▁openly	-13.8495
para	-13.8499
▁horns	-13.8503
▁kilo	-13.8506
▁Dong	-13.8508
▁Nana	-13.851
▁Hm	-13.8517
▁Shri	-13.8519
▁charts	-13.8527
minute	-13.8534
▁Hasan	-13.8534
▁Hunt	-13.8535
isha	-13.8539
factor	-13.8539
▁twins	-13.854
child	-13.8542
gne	-13.8542
▁adapt	-13.8546
olli	-13.8548
ittle	-13.855
ucker	-13.8554
▁subsequent	-13.8554
▁corrupt	-13.8555
LAUGHING	-13.8556
▁Chelsea	-13.8556
▁Imagine	-13.8556
▁Orthodox	-13.8556
▁assembly	-13.8556
▁graduation	-13.8556
▁immortal	-13.8556
▁liquor	-13.8556
▁societies	-13.8556
▁petrol	-13.8556
▁Obama	-13.8556
▁thither	-13.8556
▁ancestr	-13.8556
▁Express	-13.8556
▁onwards	-13.8556
found	-13.8556
▁starving	-13.8556
▁Kyle	-13.8556
▁ashes	-13.8556
▁Aaron	-13.8557
▁slaughter	-13.8557
▁Mitch	-13.8557
▁grandson	-13.8557
▁Danish	-13.8557
.[1	-13.8558
▁resolved	-13.8559
enberg	-13.8559
▁leaning	-13.856
▁Edgar	-13.856
▁shortest	-13.8561
▁coffin	-13.8561
▁defending	-13.8562
▁plainly	-13.8564
▁screwed	-13.8565
▁pretended	-13.8565
bear	-13.8565
▁sentenced	-13.8568
▁songwriter	-13.8571
▁Shir	-13.8572
▁Nag	-13.8573
▁blocked	-13.8573
ontinental	-13.8577
osse	-13.8578
fulness	-13.8579
▁Multi	-13.858
▁Cary	-13.8581
▁Ming	-13.8584
▁borough	-13.8585
▁Opera	-13.8589
wang	-13.8591
still	-13.8591
ailed	-13.8592
▁roast	-13.8599
▁topics	-13.86
▁Ful	-13.8605
▁explorer	-13.8606
motion	-13.8608
▁workshop	-13.8625
Wi	-13.8625
dolph	-13.8626
▁champions	-13.8634
▁Nation	-13.8635
people	-13.8637
bie	-13.8638
seven	-13.8638
Hello	-13.8638
▁Speak	-13.8642
uche	-13.8642
green	-13.8644
aboo	-13.8645
▁Bess	-13.8646
obble	-13.8653
▁engage	-13.8655
▁examine	-13.8658
▁lobby	-13.866
▁persist	-13.866
▁refresh	-13.866
CHUCKLES	-13.866
responsibilities	-13.866
▁Answer	-13.866
▁Buddhist	-13.866
▁DOWN	-13.866
▁Nebraska	-13.866
▁imperial	-13.866
▁unsuccessful	-13.866
▁regain	-13.866
▁hydrogen	-13.866
▁stabbed	-13.866
▁copyright	-13.866
▁perception	-13.866
▁veil	-13.866
Cotton	-13.8661
▁brew	-13.8661
▁crushed	-13.8661
▁slim	-13.8662
▁humour	-13.8662
▁precisely	-13.8662
▁interface	-13.8662
▁AFC	-13.8662
▁mystic	-13.8662
▁Somers	-13.8665
▁Whose	-13.8668
▁Tai	-13.867
▁FM	-13.867
▁solved	-13.867
▁damned	-13.8676
▁organisms	-13.8679
IES	-13.868
▁Marco	-13.8683
▁Careful	-13.8689
MM	-13.8693
▁Raj	-13.87
▁Bryan	-13.8708
▁loser	-13.8709
▁uni	-13.8715
▁moo	-13.8717
hawk	-13.8719
▁container	-13.8719
dust	-13.8726
ONE	-13.8729
▁Salt	-13.8731
later	-13.874
Please	-13.8743
shirt	-13.8743
▁Bil	-13.8744
▁shh	-13.8749
▁Spo	-13.8754
▁Rud	-13.8763
AH	-13.8765
▁Emerson	-13.8765
▁Information	-13.8765
▁gratitude	-13.8765
▁measuring	-13.8765
▁obstacle	-13.8765
▁plunder	-13.8765
▁presumably	-13.8765
▁reducing	-13.8765
▁whatsoever	-13.8765
▁Cambodia	-13.8765
▁Salzburg	-13.8765
▁gauge	-13.8765
▁Miranda	-13.8765
▁interchange	-13.8765
▁forbidden	-13.8765
▁Lennon	-13.8765
▁Russell	-13.8765
▁patrol	-13.8766
▁MR	-13.8766
▁compassion	-13.8766
▁vomit	-13.8766
▁waking	-13.8766
▁Portland	-13.8766
▁thirsty	-13.8766
▁Living	-13.8767
▁mature	-13.8767
▁controller	-13.8767
▁lust	-13.8767
▁footage	-13.8768
▁manufactured	-13.8768
▁norm	-13.8769
▁collaboration	-13.8769
▁emerged	-13.877
▁vein	-13.877
▁overnight	-13.8771
▁breeding	-13.8771
▁timing	-13.8772
step	-13.8772
▁manual	-13.8772
▁carrier	-13.8773
▁dart	-13.8773
front	-13.8775
▁viewers	-13.8775
▁filed	-13.8776
mart	-13.8777
▁Kenta	-13.8781
hear	-13.8782
▁remarks	-13.8793
▁indoor	-13.8801
Char	-13.8808
▁hypo	-13.8809
▁ensu	-13.8816
unting	-13.882
▁experts	-13.8824
DO	-13.8824
▁organs	-13.8825
uarter	-13.8827
▁photographs	-13.8829
▁Kaz	-13.8837
▁AP	-13.8841
▁employee	-13.8843
▁Wick	-13.8843
wash	-13.885
▁fog	-13.8852
wal	-13.8857
▁Ll	-13.8859
▁mount	-13.8866
▁conclude	-13.8869
eira	-13.8871
▁Communication	-13.8872
▁entrepreneur	-13.8872
▁jurisdiction	-13.8872
▁Attorney	-13.8872
▁Excellent	-13.8872
▁Municipal	-13.8872
▁Sierra	-13.8872
▁Testament	-13.8872
▁awoke	-13.8872
▁bachelor	-13.8872
▁curiosity	-13.8872
▁equipped	-13.8872
▁monastery	-13.8872
▁nowadays	-13.8872
▁supreme	-13.8872
▁veteran	-13.8872
▁animation	-13.8872
▁injection	-13.8872
▁HIM	-13.8872
▁kidnapped	-13.8872
▁coincidence	-13.8872
▁generate	-13.8872
▁ginger	-13.8872
▁elementary	-13.8872
▁gym	-13.8872
▁foster	-13.8872
▁Horace	-13.8872
▁Walsh	-13.8873
▁hatred	-13.8873
▁personnel	-13.8873
▁suspended	-13.8873
▁grandpa	-13.8873
▁Foon	-13.8875
▁contributed	-13.8877
▁Getting	-13.8877
▁overhead	-13.8877
▁coastal	-13.8877
▁partial	-13.8878
▁goose	-13.888
▁shelf	-13.8881
▁deserted	-13.8881
alf	-13.8882
▁Nash	-13.8882
▁reminded	-13.8884
▁Daw	-13.8885
▁messed	-13.8887
▁honored	-13.8888
▁Bless	-13.8888
▁Anglo	-13.8889
RED	-13.8896
▁dimensions	-13.8896
▁Lor	-13.8898
▁Donna	-13.8898
▁quiz	-13.8903
▁Ard	-13.8903
▁Charu	-13.8911
▁readers	-13.8915
jur	-13.8917
▁Mack	-13.8917
human	-13.8926
▁freed	-13.8929
atta	-13.8932
▁crust	-13.8932
▁cannon	-13.8935
▁usage	-13.8935
▁angels	-13.8935
rinda	-13.8942
kel	-13.8944
sided	-13.8944
osaur	-13.8945
AST	-13.8946
▁cricketer	-13.8964
▁Petr	-13.8971
▁Pea	-13.8973
would	-13.8973
▁prompt	-13.8978
▁Olympia	-13.8979
▁Richmond	-13.8979
▁solicitor	-13.8979
▁Columbus	-13.8979
▁Covenant	-13.8979
▁Enterprise	-13.8979
▁ceremonies	-13.8979
▁compliment	-13.8979
▁inclined	-13.8979
▁presidency	-13.8979
▁resemble	-13.8979
▁specimen	-13.8979
▁supplement	-13.8979
▁warehouse	-13.8979
▁Control	-13.8979
▁arriving	-13.8979
▁Nicola	-13.8979
▁conversion	-13.8979
▁farewell	-13.8979
▁therapy	-13.8979
▁modified	-13.8979
▁predator	-13.8979
▁pluck	-13.8979
▁splash	-13.8979
▁Tyler	-13.8979
▁cancelled	-13.898
▁NBC	-13.898
▁humble	-13.898
▁biology	-13.898
▁Chair	-13.8981
▁compel	-13.8982
▁yelling	-13.8983
▁likewise	-13.8984
▁outdoor	-13.8985
▁gown	-13.8987
▁ankle	-13.8987
▁Rocky	-13.8987
▁wholly	-13.8987
▁detailed	-13.8987
▁detector	-13.8989
▁undergo	-13.8993
▁Tea	-13.8997
▁Economics	-13.9001
▁bowel	-13.9006
▁ounce	-13.9011
▁weekly	-13.9015
▁-(	-13.9019
▁moth	-13.902
▁historians	-13.9021
▁Ox	-13.9023
▁Sire	-13.9027
▁dash	-13.9028
▁Fig	-13.9033
▁Seo	-13.9038
▁fare	-13.9044
▁dense	-13.9051
▁Gang	-13.9055
▁Roth	-13.9055
▁wail	-13.9058
▁Dora	-13.9061
▁backup	-13.9069
▁regime	-13.9074
uber	-13.9075
▁pill	-13.9076
▁buzz	-13.9087
▁qualify	-13.9088
▁Commonwealth	-13.9088
▁Kurdish	-13.9088
▁adequate	-13.9088
▁authentic	-13.9088
▁cavalry	-13.9088
▁devotion	-13.9088
▁dialogue	-13.9088
▁enterprise	-13.9088
▁heritage	-13.9088
▁immigrant	-13.9088
▁incredibly	-13.9088
▁nevertheless	-13.9088
▁possibilities	-13.9088
▁replacing	-13.9088
▁salad	-13.9088
▁venue	-13.9088
▁flavor	-13.9088
▁Cameron	-13.9088
▁clergy	-13.9088
▁Arctic	-13.9088
▁meteor	-13.9088
▁jelly	-13.9088
▁Jenna	-13.9088
▁transmitter	-13.9088
▁glue	-13.9088
▁Search	-13.9088
▁deeds	-13.9088
▁freezing	-13.9088
▁classification	-13.9088
▁hostile	-13.9089
▁Touch	-13.9089
▁chef	-13.9089
mok	-13.9089
dez	-13.909
▁publishing	-13.9091
▁tutor	-13.9091
▁Scandinavia	-13.9091
▁wider	-13.9094
▁closest	-13.9094
▁Indies	-13.9096
▁correctly	-13.9096
▁flute	-13.9098
grunting	-13.9101
chel	-13.9102
▁hence	-13.9106
▁coordinates	-13.9109
▁Semi	-13.911
▁Bomb	-13.9112
▁Bark	-13.9113
▁Hide	-13.9115
▁Canal	-13.9116
▁habitat	-13.9118
muni	-13.913
King	-13.9131
▁epic	-13.9132
▁8:	-13.9132
arry	-13.9136
lung	-13.9136
▁infections	-13.9137
osa	-13.9139
▁Lab	-13.914
CP	-13.9143
▁4:	-13.9145
uddy	-13.9145
▁yer	-13.9161
▁Gill	-13.9162
▁manufacture	-13.9169
▁Dal	-13.9172
Super	-13.9175
▁Row	-13.9183
▁grind	-13.9184
AGE	-13.9187
rror	-13.9189
Wait	-13.919
▁abandon	-13.9195
▁Elliot	-13.9198
▁Natalie	-13.9198
▁Nevertheless	-13.9198
▁WOMAN	-13.9198
▁Westminster	-13.9198
▁complications	-13.9198
▁helmet	-13.9198
▁pianist	-13.9198
▁pneumonia	-13.9198
▁steadily	-13.9198
▁Bahrain	-13.9198
▁Maurice	-13.9198
▁TWO	-13.9198
▁mischief	-13.9198
▁necklace	-13.9198
▁admission	-13.9198
▁Goddamn	-13.9198
▁induce	-13.9198
▁Ghost	-13.9198
▁incur	-13.9198
▁Esther	-13.9198
▁submit	-13.9198
▁Southeast	-13.9198
▁Archie	-13.9199
▁Arabic	-13.9199
▁Salem	-13.9199
▁installed	-13.92
▁Mall	-13.92
▁utterly	-13.92
▁intersection	-13.92
▁wandered	-13.92
▁Duck	-13.9201
▁Abu	-13.9201
▁Comm	-13.9201
▁yup	-13.9202
▁Miles	-13.9202
▁Paulie	-13.9203
▁Vietnamese	-13.9203
▁Tale	-13.9204
▁lone	-13.9205
▁deserved	-13.9209
talk	-13.9209
▁Hence	-13.921
▁knocking	-13.921
▁Vel	-13.9215
▁farming	-13.9219
▁Canon	-13.9219
▁Cai	-13.922
▁boarding	-13.9227
▁Turks	-13.9231
anza	-13.9231
ador	-13.9239
oids	-13.9248
▁Race	-13.9261
▁dug	-13.9265
UP	-13.928
▁visitor	-13.9283
▁heating	-13.9284
▁Bry	-13.9285
abby	-13.9287
▁Teach	-13.929
second	-13.9292
drop	-13.9304
▁resolve	-13.9306
▁smash	-13.9306
uebec	-13.9309
▁Alliance	-13.9309
▁Baldwin	-13.9309
▁Bundesliga	-13.9309
▁Ferdinand	-13.9309
▁GONNA	-13.9309
▁Hemingway	-13.9309
▁Majnun	-13.9309
▁Military	-13.9309
▁NCAA	-13.9309
▁Sophia	-13.9309
▁Stupid	-13.9309
▁autumn	-13.9309
▁happier	-13.9309
▁picnic	-13.9309
▁rainforest	-13.9309
▁soundtrack	-13.9309
▁surplus	-13.9309
▁territories	-13.9309
▁niece	-13.9309
▁parcel	-13.9309
▁Facebook	-13.9309
▁meadow	-13.9309
▁cowboy	-13.9309
▁forecast	-13.9309
▁Legend	-13.9309
▁Finance	-13.9309
▁blacksmith	-13.9309
▁clutch	-13.9309
▁frown	-13.9309
▁pearl	-13.9309
▁resignation	-13.9309
▁Freddy	-13.9309
▁hardware	-13.9309
▁lump	-13.931
▁mansion	-13.931
▁allowance	-13.931
▁DID	-13.931
▁shipping	-13.931
▁fitting	-13.9311
▁swiftly	-13.9311
▁Stock	-13.9311
▁Tree	-13.9312
▁eliminated	-13.9312
▁proceeded	-13.9316
▁Magic	-13.9316
angled	-13.932
▁Wong	-13.9321
intercept	-13.9322
▁snip	-13.9325
▁behold	-13.9325
▁Math	-13.9331
jack	-13.9331
taine	-13.9331
▁Type	-13.9334
▁Eyes	-13.9335
▁Past	-13.9335
▁dial	-13.9341
▁Parker	-13.9342
check	-13.9348
▁dye	-13.935
▁shooter	-13.9353
▁Poe	-13.9355
▁Range	-13.9362
▁wool	-13.9363
logical	-13.9365
yang	-13.9366
▁Historic	-13.9368
▁Kali	-13.9371
shaw	-13.9385
▁Unit	-13.9386
▁remark	-13.939
SW	-13.9391
PL	-13.9391
asket	-13.9401
gular	-13.9401
▁Late	-13.9407
kill	-13.9415
articula	-13.942
▁Fellow	-13.9421
▁Gospel	-13.9421
▁WORK	-13.9421
▁intervention	-13.9421
▁legislature	-13.9421
▁manuscript	-13.9421
▁Algeria	-13.9421
▁Barcelona	-13.9421
▁Mercury	-13.9421
▁Senior	-13.9421
▁competing	-13.9421
▁continually	-13.9421
▁luxury	-13.9421
▁motivation	-13.9421
▁recipe	-13.9421
▁removal	-13.9421
▁sensible	-13.9421
▁sergeant	-13.9421
utonomous	-13.9421
▁cartridge	-13.9421
▁transmission	-13.9421
▁Dublin	-13.9421
▁conquest	-13.9421
▁compelled	-13.9421
▁Mustang	-13.9422
▁Petty	-13.9422
▁Powell	-13.9422
Saxon	-13.9422
▁sunset	-13.9422
▁Leima	-13.9422
▁retail	-13.9422
▁Taking	-13.9423
▁inherited	-13.9423
▁Iranian	-13.9424
▁approaches	-13.9425
▁retained	-13.9426
Tra	-13.9429
▁Fern	-13.9429
▁Fil	-13.943
▁collapsed	-13.943
▁Romeo	-13.9431
▁printing	-13.9432
▁Hari	-13.9436
▁cited	-13.944
▁coaching	-13.9446
▁saints	-13.945
▁complaints	-13.9455
▁Hop	-13.9456
▁Oi	-13.946
▁Champions	-13.9461
▁fossils	-13.9463
▁McCa	-13.9467
▁stare	-13.9478
▁Dia	-13.9485
▁runner	-13.949
avyweight	-13.9494
rose	-13.9497
▁saint	-13.9506
wife	-13.9513
uka	-13.9515
▁lame	-13.9515
opped	-13.9517
▁whale	-13.9517
▁Rama	-13.9523
▁interact	-13.9526
▁Prof	-13.9531
▁demonstrate	-13.9532
▁calculate	-13.9532
▁exhaust	-13.9532
▁Tournament	-13.9535
▁amusement	-13.9535
▁centimeters	-13.9535
▁competitive	-13.9535
▁competitor	-13.9535
▁encouraging	-13.9535
▁penguin	-13.9535
▁phenomenon	-13.9535
▁torpedo	-13.9535
▁turbine	-13.9535
▁SPEAKER	-13.9535
▁Speed	-13.9535
▁URL	-13.9535
▁freight	-13.9535
▁Pierre	-13.9535
footsteps	-13.9535
▁residential	-13.9535
▁jolly	-13.9535
▁Thunder	-13.9535
▁moonlight	-13.9535
▁Factor	-13.9535
▁chaos	-13.9535
▁shaft	-13.9535
▁LET	-13.9536
▁Moreover	-13.9536
▁Potter	-13.9536
▁scorn	-13.9536
▁Workers	-13.9536
▁voters	-13.9536
text	-13.9536
▁inquired	-13.9536
▁Annie	-13.9537
▁Batman	-13.9537
▁idol	-13.9538
▁Stoke	-13.9538
▁Whenever	-13.9539
▁desperately	-13.9539
▁surrendered	-13.954
▁Normal	-13.9541
▁Hoo	-13.9541
▁wiped	-13.9541
▁handful	-13.9541
▁safer	-13.9544
▁Def	-13.9544
▁SEE	-13.9546
▁suggesting	-13.9547
▁Sue	-13.9547
▁Pink	-13.955
▁threaten	-13.955
▁scent	-13.9551
▁Speaking	-13.9555
▁printer	-13.9555
▁DEA	-13.9555
PORT	-13.9562
▁neighbours	-13.9562
▁specially	-13.9563
▁whales	-13.9564
▁owing	-13.9566
▁viewed	-13.9569
▁sip	-13.9573
operative	-13.9574
▁clinic	-13.9578
hina	-13.9578
▁homeless	-13.9581
▁lightly	-13.9582
franc	-13.9585
▁hyp	-13.9586
▁observer	-13.9601
pond	-13.9612
wald	-13.9614
FT	-13.9618
▁Tama	-13.962
▁particle	-13.9622
doo	-13.9625
including	-13.9627
third	-13.9627
Black	-13.9627
▁Todd	-13.9629
ACH	-13.9638
ugu	-13.9638
▁informal	-13.9641
guh	-13.9642
▁implement	-13.9644
▁depart	-13.9645
▁Flu	-13.9646
▁parade	-13.9649
▁Nova	-13.965
▁Ottawa	-13.965
▁Cathedral	-13.965
▁Celtic	-13.965
▁THINK	-13.965
▁TIME	-13.965
▁Twitter	-13.965
▁altitude	-13.965
▁ambassador	-13.965
▁antibiotics	-13.965
▁crucial	-13.965
▁predecessor	-13.965
▁relativity	-13.965
▁trembling	-13.965
▁unpleasant	-13.965
▁dentist	-13.965
▁fortnight	-13.965
▁Female	-13.965
▁disrupt	-13.965
▁Harbor	-13.965
▁Thames	-13.965
▁Lucky	-13.965
▁Clement	-13.965
▁wheat	-13.965
▁Tamil	-13.965
▁colonial	-13.965
▁lawsuit	-13.965
▁HBO	-13.965
▁automatic	-13.965
▁Scout	-13.9651
▁boundary	-13.9651
▁sunlight	-13.9651
▁flick	-13.9651
▁transportation	-13.9651
▁absorbed	-13.9653
▁ANY	-13.9653
▁premiered	-13.9653
▁transformed	-13.9654
▁elderly	-13.9654
▁render	-13.9655
▁speeches	-13.9655
▁Holly	-13.9656
▁drafted	-13.9656
▁addresses	-13.9656
▁supporters	-13.9657
▁significantly	-13.9658
▁Dex	-13.9659
▁ingredients	-13.9661
▁Return	-13.9662
▁destroying	-13.9662
▁claiming	-13.9663
▁bothering	-13.9663
▁Tag	-13.9666
▁monthly	-13.9667
▁unity	-13.967
▁mechanics	-13.967
▁demons	-13.9672
▁Ahh	-13.9676
▁Historical	-13.9705
▁Torre	-13.9707
train	-13.9714
pool	-13.9715
yst	-13.9723
▁Maid	-13.9732
why	-13.9745
June	-13.9746
July	-13.9746
▁magical	-13.9751
▁Ava	-13.9757
▁Corr	-13.976
▁transmit	-13.9766
▁congregation	-13.9766
▁denomination	-13.9766
▁Axel	-13.9766
▁Computer	-13.9766
▁Scientists	-13.9766
▁deceive	-13.9766
▁hormone	-13.9766
▁leisure	-13.9766
▁limbs	-13.9766
▁query	-13.9766
▁solitary	-13.9766
▁syndrome	-13.9766
▁velocity	-13.9766
▁Adolf	-13.9766
▁Trevor	-13.9766
▁shrink	-13.9766
EVER	-13.9766
▁navy	-13.9766
▁Sallie	-13.9766
▁unfair	-13.9766
▁revolutionary	-13.9767
▁Movie	-13.9767
▁integrated	-13.9767
▁lifestyle	-13.9767
▁Eden	-13.9768
▁exclusively	-13.9768
▁Gul	-13.9769
▁pillar	-13.9771
▁commissioned	-13.9772
▁masses	-13.9772
▁awfully	-13.9774
▁Porter	-13.9774
▁prayed	-13.9774
▁Peak	-13.9775
▁struggled	-13.9776
▁Warner	-13.9777
▁flashed	-13.9778
▁Worth	-13.9779
TED	-13.9782
start	-13.9783
▁sooth	-13.9783
▁Pack	-13.9784
▁bald	-13.9788
atsu	-13.9798
▁doorway	-13.9801
▁bail	-13.9805
▁Elm	-13.9808
▁vocals	-13.981
▁hurting	-13.9811
▁Pitt	-13.9812
▁Fast	-13.9814
agged	-13.9815
Engine	-13.9817
▁heck	-13.9825
zio	-13.9843
▁stain	-13.9859
correct	-13.9861
because	-13.9862
▁Oil	-13.9864
control	-13.9867
▁Bond	-13.9869
▁absorb	-13.9881
▁dwell	-13.9882
▁guilt	-13.9882
▁prevail	-13.9884
GRUNTS	-13.9884
▁Android	-13.9884
▁Buffalo	-13.9884
▁Corsica	-13.9884
▁LIKE	-13.9884
▁Previously	-13.9884
▁Prussia	-13.9884
▁Radhika	-13.9884
▁amazed	-13.9884
▁conspiracy	-13.9884
▁enhance	-13.9884
▁ignorance	-13.9884
▁industries	-13.9884
▁phenomena	-13.9884
▁prefecture	-13.9884
▁recycle	-13.9884
▁rehearsal	-13.9884
▁swung	-13.9884
▁widespread	-13.9884
▁yogurt	-13.9884
▁delegate	-13.9884
▁Plummer	-13.9884
www	-13.9884
▁Gregory	-13.9884
▁Freddie	-13.9884
▁Cruz	-13.9884
▁cupboard	-13.9884
▁healing	-13.9884
▁Delhi	-13.9884
▁Throw	-13.9884
▁Concha	-13.9884
ALLY	-13.9885
▁Reform	-13.9885
▁trumpet	-13.9885
▁Plot	-13.9885
▁laser	-13.9885
▁Movement	-13.9886
▁delete	-13.9886
▁Pavel	-13.9887
▁fastest	-13.9887
▁generated	-13.9887
▁replacement	-13.9888
ACE	-13.9888
▁Tara	-13.9889
▁taller	-13.9889
▁Starting	-13.989
▁dorm	-13.9891
indian	-13.9894
▁Mikey	-13.9894
▁poop	-13.9896
▁cellar	-13.99
▁garments	-13.9902
▁Tate	-13.9904
▁Fish	-13.9905
ATION	-13.9909
▁ramp	-13.9913
▁Ravens	-13.9924
▁Gau	-13.9929
scale	-13.9933
yah	-13.9944
▁5:	-13.9949
▁specialist	-13.9951
ummer	-13.9951
coloured	-13.9952
migr	-13.9959
▁FE	-13.9973
▁Beg	-13.9975
orpor	-13.9982
stream	-13.9982
hei	-13.9985
▁AV	-13.9992
▁Sony	-13.9995
▁execute	-14
▁CLARE	-14.0003
▁Meredith	-14.0003
▁Nicholas	-14.0003
▁Wagner	-14.0003
▁YEAH	-14.0003
▁computing	-14.0003
▁dagger	-14.0003
▁dioxide	-14.0003
▁essence	-14.0003
▁evaluation	-14.0003
▁feminist	-14.0003
▁kilometers	-14.0003
▁oatmeal	-14.0003
▁offspring	-14.0003
▁withdrew	-14.0003
▁Athens	-14.0003
▁Munich	-14.0003
▁flirt	-14.0003
▁pigeon	-14.0003
quantum	-14.0003
▁horizontal	-14.0003
▁Shirley	-14.0003
▁mindfulness	-14.0003
▁waving	-14.0003
▁Style	-14.0003
▁Independent	-14.0004
▁Smart	-14.0004
▁dislike	-14.0004
▁scold	-14.0004
cylinder	-14.0004
▁dominated	-14.0004
▁Chess	-14.0004
▁blah	-14.0005
▁senator	-14.0005
▁Rah	-14.0005
▁dwelling	-14.0006
▁respectable	-14.0006
▁halfway	-14.0006
▁conquered	-14.0007
▁complained	-14.0007
▁researchers	-14.0007
▁stating	-14.0008
▁aimed	-14.0013
▁blamed	-14.0016
▁Ariel	-14.0017
▁focusing	-14.0019
▁packet	-14.0023
insky	-14.0031
▁Iike	-14.004
▁Eng	-14.0047
▁Lay	-14.005
▁Stro	-14.0051
▁tips	-14.0053
flower	-14.0056
arri	-14.0057
▁bade	-14.0062
▁publish	-14.0065
▁perish	-14.0067
▁canton	-14.0068
grapher	-14.0091
▁inventor	-14.0091
bha	-14.0093
▁regulation	-14.0094
Woman	-14.0101
▁Baba	-14.0112
March	-14.0121
▁thorough	-14.0122
▁functional	-14.0123
▁Cardinal	-14.0123
▁GEORGE	-14.0123
▁Latvia	-14.0123
▁Punjab	-14.0123
▁Sussex	-14.0123
▁Universe	-14.0123
▁admiration	-14.0123
▁consecutive	-14.0123
▁enthusiasm	-14.0123
▁grammar	-14.0123
▁irregular	-14.0123
▁pussy	-14.0123
▁situated	-14.0123
▁squirrel	-14.0123
▁supplied	-14.0123
▁umbrella	-14.0123
▁automobile	-14.0123
▁contradict	-14.0123
▁Weather	-14.0123
▁insight	-14.0124
abbage	-14.0124
stitution	-14.0124
▁disappointment	-14.0124
▁constitutional	-14.0124
▁readily	-14.0125
▁outstanding	-14.0125
▁perceived	-14.0126
▁stripes	-14.0126
▁erase	-14.0128
▁descended	-14.0128
▁altered	-14.0128
▁advised	-14.0129
▁Making	-14.0129
▁acute	-14.0129
▁advertisement	-14.013
▁canvas	-14.0131
MON	-14.0131
male	-14.0132
ichi	-14.0132
▁socio	-14.0132
▁packing	-14.0135
▁flowing	-14.0137
▁hopeless	-14.0146
escu	-14.0147
▁hedge	-14.0149
▁wept	-14.0151
▁Mission	-14.0151
rump	-14.0152
page	-14.0162
▁bog	-14.0167
▁6:	-14.0178
▁hail	-14.018
▁Dig	-14.0186
broke	-14.0192
oster	-14.02
etch	-14.021
▁2"	-14.0217
member	-14.0217
thus	-14.022
worm	-14.0222
Raw	-14.0224
▁Nur	-14.0225
▁Kol	-14.0227
jour	-14.0235
▁Java	-14.0238
great	-14.0241
▁Bid	-14.0244
▁reinforce	-14.0245
▁contempt	-14.0245
▁Atlantis	-14.0245
▁Century	-14.0245
▁Infantry	-14.0245
▁Mandalay	-14.0245
▁Naples	-14.0245
▁Organization	-14.0245
▁astronaut	-14.0245
▁breeze	-14.0245
▁fishermen	-14.0245
▁fountain	-14.0245
▁imprisoned	-14.0245
▁infrastructure	-14.0245
▁isolated	-14.0245
▁mathematician	-14.0245
▁prostitute	-14.0245
▁smack	-14.0245
▁streak	-14.0245
▁twentieth	-14.0245
▁Further	-14.0245
▁circulation	-14.0245
▁inquiry	-14.0245
▁Hopkins	-14.0245
▁Manager	-14.0245
▁prophet	-14.0245
▁indication	-14.0245
▁tremble	-14.0245
▁NEED	-14.0245
▁Garcia	-14.0246
▁Seems	-14.0246
▁Travis	-14.0246
▁keyboard	-14.0246
▁Tracy	-14.0246
▁dispose	-14.0246
▁Cairo	-14.0246
▁deliberately	-14.0246
▁Somalia	-14.0246
uaker	-14.0246
▁cheated	-14.0247
▁Originally	-14.0247
▁Jump	-14.0247
▁dusk	-14.0247
▁confined	-14.0247
▁Roland	-14.0248
tropolitan	-14.0249
▁exclude	-14.0249
▁leaned	-14.025
▁disturbed	-14.025
▁euro	-14.0251
▁formally	-14.0252
▁alarmed	-14.0253
▁Assyrians	-14.0254
▁maintaining	-14.0256
▁Boul	-14.0263
▁Bass	-14.0265
gawa	-14.0268
▁parked	-14.0271
▁Bul	-14.0281
dged	-14.0283
▁Lib	-14.0285
endo	-14.0289
▁Hour	-14.0299
fashioned	-14.0309
ante	-14.0312
▁Bala	-14.0318
▁runway	-14.0328
Big	-14.0334
▁neighbour	-14.0336
irk	-14.0339
serving	-14.0343
▁conventional	-14.0343
▁Yong	-14.0346
want	-14.0352
▁heroin	-14.0352
▁cleaner	-14.0353
Our	-14.0357
▁instruct	-14.0357
trust	-14.0359
storm	-14.0363
rug	-14.0365
▁disgust	-14.0366
▁flush	-14.0367
▁subtract	-14.0367
▁Higgins	-14.0369
▁Tamsui	-14.0369
▁Ukraine	-14.0369
▁affirm	-14.0369
▁auction	-14.0369
▁diversity	-14.0369
▁gracious	-14.0369
▁hazard	-14.0369
▁nonconvex	-14.0369
▁probable	-14.0369
▁relating	-14.0369
▁sausage	-14.0369
▁sophisticated	-14.0369
▁shrine	-14.0369
▁regulate	-14.0369
▁swarm	-14.0369
▁Consider	-14.0369
▁Melissa	-14.0369
▁Register	-14.0369
▁descendants	-14.0369
▁rotten	-14.0369
▁Culture	-14.0369
▁swamp	-14.0369
▁uncertainty	-14.0369
▁Oakland	-14.0369
▁sarah	-14.0369
▁Montana	-14.0369
▁ownership	-14.0369
▁Geoff	-14.0369
▁Kenya	-14.0369
▁Outside	-14.0369
▁corruption	-14.037
▁stepping	-14.037
▁diesel	-14.037
▁Foster	-14.037
▁Wilbur	-14.037
▁strictly	-14.0371
▁mining	-14.0372
▁persuaded	-14.0372
▁repeatedly	-14.0373
▁Arena	-14.0374
▁Midland	-14.0375
▁stag	-14.0379
▁acquire	-14.0381
▁Ober	-14.0384
▁dough	-14.0384
MD	-14.0386
▁lass	-14.0388
▁fixing	-14.039
VA	-14.0391
▁Kah	-14.0398
▁respected	-14.0399
▁traded	-14.0401
▁visa	-14.0405
TON	-14.0408
▁Socialist	-14.0413
▁kite	-14.0419
▁Dock	-14.0434
boro	-14.0449
▁holder	-14.0453
▁Israeli	-14.0459
▁crayon	-14.0465
founded	-14.0476
Best	-14.0483
▁Franco	-14.049
▁accord	-14.0491
▁Person	-14.0491
▁expose	-14.0491
▁restless	-14.0491
▁enforce	-14.0494
PEOPLE	-14.0494
indistinct	-14.0494
▁Adventure	-14.0494
▁Cincinnati	-14.0494
▁Construction	-14.0494
▁Crystal	-14.0494
▁Dunkirk	-14.0494
▁Miyamoto	-14.0494
▁Nottingham	-14.0494
▁Phoenix	-14.0494
▁blossom	-14.0494
▁derivative	-14.0494
▁dominant	-14.0494
▁fracture	-14.0494
▁lizard	-14.0494
▁motherfucker	-14.0494
▁rhyme	-14.0494
▁Rapid	-14.0494
▁bankrupt	-14.0494
▁presume	-14.0494
▁Dasht	-14.0494
▁lantern	-14.0494
▁whirl	-14.0494
▁involvement	-14.0494
▁cloak	-14.0494
▁cereal	-14.0494
▁accidentally	-14.0495
▁Often	-14.0495
▁Trude	-14.0495
▁Presently	-14.0495
▁damp	-14.0495
▁Regan	-14.0495
▁unlock	-14.0495
▁virtually	-14.0495
▁morality	-14.0495
▁bushes	-14.0496
▁Artie	-14.0496
▁eagerly	-14.0497
▁analog	-14.0497
▁strongest	-14.0498
▁bitterly	-14.0498
pathy	-14.0498
▁mentally	-14.05
▁linger	-14.05
▁Apart	-14.0501
▁Lex	-14.0503
▁attending	-14.0503
▁Rep	-14.0505
▁Lovely	-14.0506
IF	-14.0506
▁Palmer	-14.0507
▁Turner	-14.0508
▁broadcasting	-14.0509
▁forbid	-14.051
▁Dana	-14.0513
▁ross	-14.0514
▁flap	-14.0515
▁marking	-14.0516
▁marrying	-14.0518
chair	-14.0524
▁poorly	-14.0526
pati	-14.0534
▁Intel	-14.054
▁Pig	-14.0542
▁Buy	-14.0543
▁bunk	-14.0543
▁fry	-14.0544
teau	-14.055
▁Por	-14.0567
▁Thy	-14.0571
▁Josh	-14.0574
▁Continu	-14.0575
MENT	-14.0575
▁performer	-14.0578
▁charter	-14.0578
▁Cub	-14.058
▁distinguish	-14.0583
kie	-14.0584
▁Till	-14.0586
Nothing	-14.0598
proof	-14.0598
faced	-14.0602
beck	-14.0602
▁Viv	-14.0607
DD	-14.061
▁persuade	-14.0617
▁municipal	-14.062
SmackDown	-14.062
▁Airlines	-14.062
▁Bermuda	-14.062
▁Broadcasting	-14.062
▁Definitely	-14.062
▁Gaelic	-14.062
▁Honestly	-14.062
▁Mustafa	-14.062
▁Regiment	-14.062
▁Shutterstock	-14.062
▁WOULD	-14.062
▁constitute	-14.062
▁kilometres	-14.062
▁mattress	-14.062
▁membrane	-14.062
▁siege	-14.062
▁surveillance	-14.062
▁width	-14.062
▁exponent	-14.062
▁obligation	-14.062
▁participant	-14.062
▁ferment	-14.062
▁telescope	-14.062
▁Buddha	-14.062
▁Studies	-14.062
▁chronic	-14.062
▁witchcraft	-14.062
▁Preston	-14.062
▁Bailey	-14.0621
▁pedal	-14.0621
▁Nepal	-14.0621
▁flutter	-14.0621
▁colonies	-14.0621
▁Bravo	-14.0621
spiring	-14.0621
▁potatoes	-14.0622
▁spotted	-14.0622
▁Syriac	-14.0622
▁fitted	-14.0622
▁offended	-14.0622
▁VII	-14.0623
▁condemned	-14.0623
▁Drew	-14.0623
▁declined	-14.0624
▁sufficiently	-14.0624
▁greeting	-14.0624
▁Rice	-14.0625
half	-14.0625
▁ignored	-14.0625
▁screamed	-14.0627
▁Evans	-14.0627
▁thriller	-14.0628
▁separately	-14.0631
PT	-14.0632
both	-14.0633
▁failing	-14.0634
▁Matter	-14.0636
▁corrected	-14.0638
▁collector	-14.0642
▁noun	-14.0643
▁honk	-14.0645
ADE	-14.0648
minating	-14.0659
legged	-14.0659
▁boiler	-14.066
▁arse	-14.0662
HS	-14.0666
▁Guide	-14.0692
▁Saba	-14.0725
source	-14.0726
keeping	-14.0726
August	-14.0726
eux	-14.0726
acco	-14.0728
clear	-14.073
▁Bai	-14.0732
riving	-14.0732
trained	-14.0733
rik	-14.0733
ovich	-14.0735
▁Eye	-14.0735
▁Devi	-14.0743
▁sue	-14.0746
▁impatient	-14.0749
▁theoretical	-14.0749
misunderstanding	-14.0749
▁Alpha	-14.0749
▁FOUR	-14.0749
▁Montreal	-14.0749
▁Yellow	-14.0749
▁accommodate	-14.0749
▁assuming	-14.0749
▁custody	-14.0749
▁filthy	-14.0749
▁infected	-14.0749
▁massacre	-14.0749
▁muttered	-14.0749
▁paradox	-14.0749
▁sibling	-14.0749
▁volcano	-14.0749
▁cautious	-14.0749
▁regulator	-14.0749
extraterrestrial	-14.0749
▁hastily	-14.0749
▁Freedom	-14.0749
▁Hawkins	-14.0749
▁robbed	-14.0749
▁Desert	-14.0749
▁Lydia	-14.0749
▁bruise	-14.0749
▁radar	-14.0749
▁Alexandr	-14.0749
stadt	-14.0749
▁Canyon	-14.0749
▁fridge	-14.0749
▁yawn	-14.0749
▁Boots	-14.0749
▁cunning	-14.0749
▁tossed	-14.0749
▁diverse	-14.0749
▁Travel	-14.0749
▁Lilly	-14.075
▁wretched	-14.075
▁VIII	-14.075
oronation	-14.075
▁blog	-14.075
▁Hamlet	-14.075
▁Murder	-14.075
▁crane	-14.0751
▁neighbouring	-14.0752
▁playoff	-14.0752
▁Marx	-14.0753
▁Frankie	-14.0753
▁skate	-14.0753
▁anyhow	-14.0753
▁LEA	-14.0753
▁rapper	-14.0755
▁talented	-14.0757
▁Using	-14.0758
came	-14.076
▁guardian	-14.0761
▁recon	-14.0762
▁attempting	-14.0765
oga	-14.0765
▁pressing	-14.0769
▁practiced	-14.0772
▁Rao	-14.0774
▁Rest	-14.0775
▁stored	-14.0776
▁merit	-14.0776
▁claws	-14.0777
enstein	-14.0778
▁stunt	-14.078
▁dimension	-14.0791
Continues	-14.0795
▁Richie	-14.0796
▁7:	-14.0798
▁reside	-14.0804
▁plank	-14.0825
▁suite	-14.0836
wear	-14.084
minded	-14.0845
▁Brent	-14.0846
▁surf	-14.0851
eye	-14.0854
April	-14.0856
General	-14.0856
January	-14.0856
South	-14.0856
▁Jung	-14.0856
▁Rank	-14.0856
amma	-14.0856
▁Bone	-14.0865
working	-14.0867
▁sustain	-14.0875
▁addict	-14.0876
▁seize	-14.0876
▁Argentine	-14.0878
▁Independence	-14.0878
▁glitter	-14.0878
▁occupy	-14.0878
▁paradise	-14.0878
▁Andersen	-14.0878
▁Buddhism	-14.0878
▁Treasure	-14.0878
▁Violet	-14.0878
▁abdomen	-14.0878
▁bamboo	-14.0878
▁cooperation	-14.0878
▁meanwhile	-14.0878
▁necessity	-14.0878
▁premises	-14.0878
▁vacuum	-14.0878
▁voluntary	-14.0878
▁apology	-14.0878
▁inscription	-14.0878
▁relics	-14.0878
▁jingle	-14.0878
▁variant	-14.0878
▁IBM	-14.0878
▁confusing	-14.0878
▁psychology	-14.0878
▁Urban	-14.0879
▁deceased	-14.0879
▁investors	-14.0879
▁vault	-14.0879
▁vivid	-14.0879
▁decay	-14.0879
▁replica	-14.0879
▁lumber	-14.0879
▁Morton	-14.0879
▁feudal	-14.0879
▁Jamie	-14.0879
▁greedy	-14.0879
▁digest	-14.088
▁Antarctica	-14.088
▁tractor	-14.088
▁Chp	-14.0881
▁Daily	-14.0881
▁Villa	-14.0881
▁Andrea	-14.0881
▁unlikely	-14.0882
▁Verde	-14.0882
▁Rico	-14.0882
▁Circle	-14.0883
▁encountered	-14.0884
▁Push	-14.0886
▁Louise	-14.0888
▁merge	-14.0888
▁Alberta	-14.0889
▁Understand	-14.0891
▁deity	-14.0894
▁Table	-14.0904
▁lowered	-14.0905
▁Singh	-14.0906
▁Wish	-14.0909
▁Artist	-14.0933
▁Lyon	-14.0934
mania	-14.0936
▁Pam	-14.0952
fess	-14.096
▁Cala	-14.0961
code	-14.0974
ondo	-14.0984
season	-14.0987
Great	-14.0987
▁Tink	-14.0988
▁Large	-14.0997
▁lease	-14.1002
▁mash	-14.1002
hock	-14.1008
▁Milk	-14.1009
▁prosper	-14.101
▁Derby	-14.101
GASPS	-14.101
▁Bastard	-14.101
▁Darreh	-14.101
▁Jimmie	-14.101
▁LOVE	-14.101
▁Olivia	-14.101
▁Pradesh	-14.101
▁abrupt	-14.101
▁analyze	-14.101
▁cooperate	-14.101
▁enlighten	-14.101
▁gallery	-14.101
▁portfolio	-14.101
▁prosecution	-14.101
▁retiring	-14.101
▁integer	-14.101
▁despise	-14.101
▁proceedings	-14.101
▁Halvor	-14.101
▁Background	-14.101
▁hull	-14.101
▁Lavender	-14.101
▁Shaolin	-14.101
▁shovel	-14.101
▁Funny	-14.101
PHONE	-14.101
▁submitted	-14.101
▁Geneva	-14.101
▁Iceland	-14.101
▁feedback	-14.101
▁Denver	-14.101
▁Standard	-14.1011
▁stool	-14.1011
▁traveller	-14.1011
▁Snake	-14.1011
▁Rather	-14.1011
▁awareness	-14.1011
▁baron	-14.1011
▁madness	-14.1012
▁pasture	-14.1013
▁acceptable	-14.1013
▁slit	-14.1013
▁implementation	-14.1013
▁departed	-14.1013
Love	-14.1015
▁transit	-14.1015
▁louder	-14.1017
▁crosses	-14.102
▁pest	-14.102
▁calmly	-14.102
▁Cult	-14.102
▁hooked	-14.102
▁Stage	-14.1027
▁watches	-14.1029
uku	-14.1031
▁someday	-14.1031
ucci	-14.1032
▁flourish	-14.1037
essa	-14.1048
▁Pir	-14.1053
MER	-14.1054
fal	-14.1055
▁Marsh	-14.106
hurst	-14.106
▁Tyr	-14.1066
▁zip	-14.1076
▁Rip	-14.1086
▁cracker	-14.1087
hausen	-14.1088
lord	-14.1092
Her	-14.1092
▁fig	-14.1097
▁Usta	-14.11
kai	-14.1101
isse	-14.1104
turned	-14.1108
▁Oz	-14.1113
▁molecule	-14.1114
▁vegetable	-14.1114
▁insect	-14.1114
Stop	-14.1115
▁requirement	-14.1115
▁Dai	-14.1115
▁Saul	-14.1119
▁Grim	-14.1132
▁Mali	-14.1134
▁aggr	-14.1135
▁wander	-14.1139
BER	-14.114
▁evident	-14.1142
▁uncertain	-14.1143
▁Album	-14.1143
▁Ambassador	-14.1143
▁Audrey	-14.1143
▁Behind	-14.1143
▁Correct	-14.1143
▁Discovery	-14.1143
▁Hogarth	-14.1143
▁Hundred	-14.1143
▁Jennifer	-14.1143
▁Laxminarayan	-14.1143
▁Raymond	-14.1143
▁Symphony	-14.1143
▁Territory	-14.1143
▁Twelve	-14.1143
▁Wrong	-14.1143
▁abdominal	-14.1143
▁inferior	-14.1143
▁investigating	-14.1143
▁nucleus	-14.1143
▁nursing	-14.1143
▁portrayed	-14.1143
▁refrigerator	-14.1143
▁trustees	-14.1143
▁Afterwards	-14.1143
▁Finnish	-14.1143
▁tribute	-14.1143
▁Release	-14.1143
▁gallop	-14.1143
▁aloud	-14.1143
▁Vincent	-14.1143
▁grams	-14.1144
▁bulb	-14.1144
▁Folk	-14.1144
▁Randy	-14.1144
▁singular	-14.1144
▁attendance	-14.1144
▁Gharb	-14.1144
▁Southwest	-14.1144
Gasps	-14.1144
▁originated	-14.1144
▁chorus	-14.1145
▁spar	-14.1145
▁slam	-14.1145
▁partially	-14.1145
▁audition	-14.1146
▁annoying	-14.1146
▁concentrated	-14.1148
▁penis	-14.1149
▁admired	-14.1149
▁publicity	-14.115
▁Working	-14.1151
▁Lance	-14.1152
▁praying	-14.1153
▁rushing	-14.1154
▁switching	-14.1157
▁Forty	-14.1161
▁haul	-14.1161
▁Egg	-14.1162
▁sofa	-14.1166
▁cruiser	-14.1169
▁neo	-14.117
▁messing	-14.1174
▁illustrate	-14.1185
ICE	-14.1189
RIS	-14.1198
▁straighten	-14.1201
rrier	-14.1214
▁Paper	-14.1217
▁gardener	-14.1222
▁sticker	-14.1228
▁defender	-14.1234
▁boxer	-14.1241
illion	-14.1246
vir	-14.1251
▁armor	-14.1252
▁pastor	-14.1252
Girl	-14.1256
▁disk	-14.1263
origin	-14.1267
▁dame	-14.1272
▁assess	-14.1277
▁misfortune	-14.1278
▁screech	-14.1278
▁Double	-14.1278
▁Eisenhower	-14.1278
▁Eleanor	-14.1278
▁Episode	-14.1278
▁Heritage	-14.1278
▁Liberal	-14.1278
▁academy	-14.1278
▁evaluate	-14.1278
▁fugitive	-14.1278
▁mercury	-14.1278
▁prototype	-14.1278
▁recursive	-14.1278
▁removing	-14.1278
▁stubborn	-14.1278
▁thieves	-14.1278
▁innovation	-14.1279
▁foetus	-14.1279
▁revival	-14.1279
▁prestig	-14.1279
▁limestone	-14.1279
grunts	-14.1279
▁revolve	-14.1279
▁accordance	-14.1279
▁Sandford	-14.1279
▁Jobling	-14.1279
▁Beatles	-14.1279
▁dependence	-14.1279
▁Silence	-14.1279
▁underwear	-14.1279
▁legendary	-14.1279
▁simultaneously	-14.1279
▁collective	-14.1279
▁initiated	-14.128
▁Hughes	-14.128
▁Ahmed	-14.128
▁dissolved	-14.1281
▁urged	-14.1281
odice	-14.1282
▁buzzing	-14.1282
Cam	-14.1282
▁violation	-14.1283
▁chemist	-14.1283
▁invade	-14.1284
▁spoiled	-14.1284
▁teaches	-14.1286
▁reserved	-14.1287
▁rumour	-14.1287
▁==	-14.1292
▁mustard	-14.1293
▁sadly	-14.1294
▁Blow	-14.1296
▁credited	-14.1297
▁Via	-14.13
▁attendant	-14.1301
▁suited	-14.1303
▁Dame	-14.1313
▁Pont	-14.1323
▁Musical	-14.1325
pia	-14.134
▁sweater	-14.134
brand	-14.1344
▁ripe	-14.135
▁receiver	-14.1362
oiled	-14.1372
▁plantation	-14.1381
selling	-14.1382
October	-14.1393
written	-14.1393
Music	-14.1393
Right	-14.1394
▁Vera	-14.1399
▁Cock	-14.14
▁cultivat	-14.1413
TW	-14.1414
▁Otto	-14.1415
▁persecut	-14.1415
SCREAMING	-14.1415
▁Associate	-14.1415
▁Climate	-14.1415
▁Confederation	-14.1415
▁Harriet	-14.1415
▁Panthoibi	-14.1415
▁Prophet	-14.1415
▁Shelton	-14.1415
▁Treaty	-14.1415
▁Tropical	-14.1415
▁Webster	-14.1415
▁Yesterday	-14.1415
▁awhile	-14.1415
▁caterpillar	-14.1415
▁circular	-14.1415
▁fisherman	-14.1415
▁huntsman	-14.1415
▁hybrid	-14.1415
▁laundry	-14.1415
▁promising	-14.1415
▁reluctant	-14.1415
▁reservoir	-14.1415
▁stimulate	-14.1415
▁sympathetic	-14.1415
▁Goddess	-14.1415
▁urine	-14.1416
▁Duncan	-14.1416
▁Calvin	-14.1416
▁rubbed	-14.1416
▁harmony	-14.1416
▁milita	-14.1416
▁pagan	-14.1416
▁sandstone	-14.1416
▁Wonderful	-14.1416
▁Cabinet	-14.1416
▁bugger	-14.1416
▁pledge	-14.1416
▁slash	-14.1417
▁welding	-14.1417
▁Lightning	-14.1418
▁realistic	-14.1418
▁clasp	-14.1418
▁tenure	-14.1418
▁annoyed	-14.1418
▁elite	-14.1418
▁sustained	-14.1419
▁100,000	-14.1419
▁sunny	-14.1419
▁flushed	-14.1419
▁Bloom	-14.1419
▁startled	-14.142
▁expanding	-14.142
▁repent	-14.1422
▁someplace	-14.1423
▁eliminate	-14.1423
▁Reid	-14.1424
▁hunted	-14.1425
▁endless	-14.1425
▁Englishman	-14.1429
▁Job	-14.1429
▁spelled	-14.143
▁pork	-14.1431
▁gaining	-14.1433
▁decoration	-14.1433
▁prevented	-14.1434
▁apron	-14.1434
▁Psycho	-14.1438
▁Gyu	-14.144
▁tolerate	-14.1448
▁boost	-14.1458
▁quad	-14.1461
▁blaze	-14.1462
▁Cul	-14.1469
▁commissioner	-14.1471
FM	-14.1482
▁porch	-14.1498
ANG	-14.15
▁Amen	-14.15
▁Shore	-14.1503
▁SCH	-14.1506
▁sentimental	-14.151
February	-14.1532
plane	-14.1541
Any	-14.1545
▁experimental	-14.1545
Sure	-14.1551
▁Edge	-14.1551
▁virtual	-14.1553
▁Miya	-14.1554
▁Pierce	-14.1554
▁Principal	-14.1554
▁Professional	-14.1554
▁Winchester	-14.1554
▁analyst	-14.1554
▁champagne	-14.1554
▁conservation	-14.1554
▁declaration	-14.1554
▁dessert	-14.1554
▁gambling	-14.1554
▁implication	-14.1554
▁indulge	-14.1554
▁pandemic	-14.1554
▁perfume	-14.1554
▁probation	-14.1554
▁seldom	-14.1554
▁summary	-14.1554
GUNSHOT	-14.1554
▁Challenge	-14.1554
▁Sharqi	-14.1554
▁diminish	-14.1554
▁Pedro	-14.1554
▁acres	-14.1554
▁screenwriter	-14.1554
▁casualties	-14.1554
▁Guinea	-14.1554
brahim	-14.1554
▁Underground	-14.1554
▁varied	-14.1554
▁suitcase	-14.1554
▁mainstream	-14.1555
▁Florence	-14.1555
▁Prague	-14.1555
▁Singles	-14.1555
▁regardless	-14.1555
▁remainder	-14.1555
▁testify	-14.1555
dicating	-14.1555
▁Hatch	-14.1555
▁Prison	-14.1555
▁abolished	-14.1556
▁tourism	-14.1556
▁endorse	-14.1556
▁Hank	-14.1557
▁assessment	-14.1557
▁pony	-14.1557
▁equality	-14.1558
▁Fur	-14.1559
▁Fairy	-14.1559
▁illustrated	-14.1559
▁Training	-14.1559
▁potentially	-14.156
▁pursued	-14.1561
fur	-14.1562
▁proto	-14.1565
▁Ble	-14.1567
▁promot	-14.1568
▁geo	-14.157
▁displayed	-14.1571
▁Kama	-14.1573
speak	-14.1575
▁snail	-14.1576
▁Brock	-14.1597
Friend	-14.1599
▁Maj	-14.1601
▁2018)	-14.1616
▁Brain	-14.1627
robe	-14.1635
[...]
